{"version":"1.0","truncation":null,"padding":null,"added_tokens":[{"id":0,"special":true,"content":"<s>","single_word":false,"lstrip":false,"rstrip":false,"normalized":false},{"id":1,"special":true,"content":"<pad>","single_word":false,"lstrip":false,"rstrip":false,"normalized":false},{"id":2,"special":true,"content":"</s>","single_word":false,"lstrip":false,"rstrip":false,"normalized":false},{"id":3,"special":true,"content":"<unk>","single_word":false,"lstrip":false,"rstrip":false,"normalized":false},{"id":4,"special":true,"content":"<mask>","single_word":false,"lstrip":false,"rstrip":false,"normalized":false}],"normalizer":null,"pre_tokenizer":{"type":"ByteLevel","add_prefix_space":false,"trim_offsets":true},"post_processor":{"type":"ByteLevel","add_prefix_space":true,"trim_offsets":false},"decoder":{"type":"ByteLevel","add_prefix_space":true,"trim_offsets":true},"model":{"type":"BPE","dropout":null,"unk_token":null,"continuing_subword_prefix":null,"end_of_word_suffix":null,"fuse_unk":false,"vocab":{"<s>":0,"<pad>":1,"</s>":2,"<unk>":3,"<mask>":4,"!":5,"\"":6,"#":7,"$":8,"%":9,"&":10,"'":11,"(":12,")":13,"*":14,"+":15,",":16,"-":17,".":18,"/":19,"0":20,"1":21,"2":22,"3":23,"4":24,"5":25,"6":26,"7":27,"8":28,"9":29,":":30,";":31,"<":32,"=":33,">":34,"?":35,"@":36,"A":37,"B":38,"C":39,"D":40,"E":41,"F":42,"G":43,"H":44,"I":45,"J":46,"K":47,"L":48,"M":49,"N":50,"O":51,"P":52,"Q":53,"R":54,"S":55,"T":56,"U":57,"V":58,"W":59,"X":60,"Y":61,"Z":62,"[":63,"\\":64,"]":65,"^":66,"_":67,"`":68,"a":69,"b":70,"c":71,"d":72,"e":73,"f":74,"g":75,"h":76,"i":77,"j":78,"k":79,"l":80,"m":81,"n":82,"o":83,"p":84,"q":85,"r":86,"s":87,"t":88,"u":89,"v":90,"w":91,"x":92,"y":93,"z":94,"{":95,"|":96,"}":97,"~":98,"¡":99,"¢":100,"£":101,"¤":102,"¥":103,"¦":104,"§":105,"¨":106,"©":107,"ª":108,"«":109,"¬":110,"®":111,"¯":112,"°":113,"±":114,"²":115,"³":116,"´":117,"µ":118,"¶":119,"·":120,"¸":121,"¹":122,"º":123,"»":124,"¼":125,"½":126,"¾":127,"¿":128,"À":129,"Á":130,"Â":131,"Ã":132,"Ä":133,"Å":134,"Æ":135,"Ç":136,"È":137,"É":138,"Ê":139,"Ë":140,"Ì":141,"Í":142,"Î":143,"Ï":144,"Ð":145,"Ñ":146,"Ò":147,"Ó":148,"Ô":149,"Õ":150,"Ö":151,"×":152,"Ø":153,"Ù":154,"Ú":155,"Û":156,"Ü":157,"Ý":158,"Þ":159,"ß":160,"à":161,"á":162,"â":163,"ã":164,"ä":165,"å":166,"æ":167,"ç":168,"è":169,"é":170,"ê":171,"ë":172,"ì":173,"í":174,"î":175,"ï":176,"ð":177,"ñ":178,"ò":179,"ó":180,"ô":181,"õ":182,"ö":183,"÷":184,"ø":185,"ù":186,"ú":187,"û":188,"ü":189,"ý":190,"þ":191,"ÿ":192,"Ā":193,"ā":194,"Ă":195,"ă":196,"Ą":197,"ą":198,"Ć":199,"ć":200,"Ĉ":201,"ĉ":202,"Ċ":203,"ċ":204,"Č":205,"č":206,"Ď":207,"ď":208,"Đ":209,"đ":210,"Ē":211,"ē":212,"Ĕ":213,"ĕ":214,"Ė":215,"ė":216,"Ę":217,"ę":218,"Ě":219,"ě":220,"Ĝ":221,"ĝ":222,"Ğ":223,"ğ":224,"Ġ":225,"ġ":226,"Ģ":227,"ģ":228,"Ĥ":229,"ĥ":230,"Ħ":231,"ħ":232,"Ĩ":233,"ĩ":234,"Ī":235,"ī":236,"Ĭ":237,"ĭ":238,"Į":239,"į":240,"İ":241,"ı":242,"Ĳ":243,"ĳ":244,"Ĵ":245,"ĵ":246,"Ķ":247,"ķ":248,"ĸ":249,"Ĺ":250,"ĺ":251,"Ļ":252,"ļ":253,"Ľ":254,"ľ":255,"Ŀ":256,"ŀ":257,"Ł":258,"ł":259,"Ń":260,"an":261,"¿½":262,"ï¿½":263,"ï¿½ï¿½":264,"ng":265,"eu":266,"ar":267,"Ġk":268,"Ã©":269,"al":270,"at":271,"Ġs":272,"Ġd":273,"in":274,"ang":275,"Ġt":276,"as":277,"Ġp":278,"ah":279,"er":280,"Ġm":281,"Ġn":282,"ak":283,"Ġb":284,"eun":285,"am":286,"ï¿½ï¿½ï¿½ï¿½":287,"ĠS":288,"en":289,"ur":290,"on":291,"Ġdi":292,"âĢ":293,"ĠA":294,"it":295,"ĠP":296,"ad":297,"is":298,"un":299,"ing":300,"ik":301,"Ġl":302,"ab":303,"or":304,"Ġj":305,"ay":306,"es":307,"Ġng":308,"ĠK":309,"ĠB":310,"ĠM":311,"us":312,"Ġan":313,"ag":314,"Ġh":315,"ĠT":316,"ap":317,"ta":318,"il":319,"na":320,"ul":321,"Ġï¿½ï¿½ï¿½ï¿½":322,"ina":323,"ung":324,"ĠD":325,"aw":326,"um":327,"em":328,"Ġg":329,"el":330,"os":331,"ir":332,"ĠC":333,"Ġc":334,"âĢ¯":335,"Ġ2":336,"uk":337,"ut":338,"ed":339,"ĠN":340,"im":341,"ana":342,"eng":343,"ĠJ":344,"et":345,"00":346,"eung":347,"Ġ1":348,"ro":349,"keun":350,"Ġka":351,"Ġw":352,"Ġr":353,"Ġnu":354,"ol":355,"ĠL":356,"id":357,"om":358,"aj":359,"Ġny":360,"ĠI":361,"ot":362,"up":363,"Ġjeung":364,"Ġanu":365,"uh":366,"Ġ(":367,"ĠR":368,"og":369,"Ġ-":370,"..":371,"ep":372,"aya":373,"ih":374,"ic":375,"and":376,"ĠG":377,"ac":378,"ud":379,"Ġsar":380,"Ã©n":381,"ent":382,"ong":383,"ok":384,"ĠH":385,"ara":386,"si":387,"ant":388,"01":389,"Ġdina":390,"ikeun":391,"Ã©h":392,"ek":393,"Ġti":394,"jeun":395,"ï¿½ï¿½ï¿½":396,"Ġi":397,"asa":398,"ob":399,"Ġf":400,"Ġin":401,"Ġku":402,"ian":403,"aran":404,"eh":405,"eb":406,"ig":407,"ĠF":408,"ij":409,"amp":410,"eg":411,"ĠW":412,"ia":413,"angg":414,"art":415,"eur":416,"ari":417,"Ġpikeun":418,"adi":419,"Ġat":420,"aan":421,"IP":422,"tr":423,"ip":424,"ĠâĢ":425,"Ġ201":426,"eus":427,"Ġ|":428,"ĠE":429,"Ġ0":430,"Ġï¿½ï¿½ï¿½ï¿½ï¿½ï¿½ï¿½ï¿½":431,"Ġa":432,"ya":433,"Ġieu":434,"asi":435,"angk":436,"lo":437,"Ġanjeun":438,"Ã©ta":439,"ĠU":440,"Ġteu":441,"ec":442,"Ã¨":443,"iji":444,"ub":445,"ug":446,"op":447,"ĠO":448,"ti":449,"od":450,"Ġ3":451,"aha":452,"emb":453,"urang":454,"ib":455,"he":456,"Ġas":457,"âĢĿ":458,"ter":459,"re":460,"atan":461,"Ġï¿½ï¿½ï¿½ï¿½ï¿½":462,"awa":463,"Ġna":464,"NP":465,"MA":466,"und":467,"le":468,"Ã©k":469,"ĠAn":470,"ati":471,"Ġ\"":472,"amb":473,"Ġkal":474,"Ġ4":475,"Ġnya":476,"Ġmah":477,"ri":478,"angan":479,"ow":480,"oh":481,"Ġurang":482,"api":483,"MP":484,"Ġsal":485,"Ġpan":486,"iti":487,"Ġaya":488,"of":489,"isa":490,"Ã©r":491,"Ġsarta":492,"Ġgeus":493,"Ġper":494,"ĠIn":495,"oc":496,"alan":497,"ahan":498,"Ġkas":499,"Ġsareng":500,"Ġï¿½ï¿½ï¿½":501,"Ġy":502,"sa":503,"emp":504,"Ġ5":505,"ĠAl":506,"ew":507,"Ġman":508,"Ġï¿½ï¿½ï¿½ï¿½ï¿½ï¿½":509,"Ġsab":510,"Ġal":511,"Ġtina":512,"000":513,"akeun":514,"99":515,"AN":516,"ai":517,"Ġjadi":518,"ch":519,"aman":520,"MAT":521,"akal":522,"Ġbisa":523,"ra":524,"Ġï¿½ï¿½":525,"Ġdip":526,"ĠtÃ©h":527,"][":528,"Ġï¿½ï¿½ï¿½ï¿½ï¿½ï¿½ï¿½":529,"ĠV":530,"12":531,"uan":532,"Ġhiji":533,"ex":534,"ers":535,"ist":536,"...":537,"end":538,"PP":539,"Ġv":540,"uring":541,"Ġof":542,"ino":543,"ma":544,"Ġpang":545,"are":546,"Ġngal":547,"Ġsak":548,"Ġkana":549,"uj":550,"eta":551,"ĠÂ":552,"Ġ$":553,"ĠÃ©ta":554,"ada":555,"Ġmang":556,"âĢľ":557,"eut":558,"uc":559,"ama":560,"Ã©s":561,"ami":562,"Ġsp":563,"anc":564,"Ġ/":565,"IS":566,"ĠKab":567,"ata":568,"20":569,"ĠY":570,"ov":571,"eul":572,"ĠAm":573,"ind":574,"itu":575,"14":576,"Ġon":577,"Ġdeu":578,"Ġ:":579,"iw":580,"Ġ6":581,"Ġmas":582,"Ġog":583,"Ġbakal":584,"Ġand":585,"ungan":586,"ala":587,"Ġ#":588,"euw":589,"Ġdis":590,"atur":591,"int":592,"10":593,"Ġsa":594,"Ġthe":595,"ua":596,"awan":597,"arg":598,"Ġpro":599,"ĠSMP":600,"ĠPro":601,"Ġ7":602,"Ã©t":603,"ess":604,"AL":605,"aun":606,"aku":607,"ota":608,"Ġatawa":609,"Ġ8":610,"ĠnyaÃ©ta":611,"ER":612,"Ġto":613,"ali":614,"Ġpam":615,"ĠAc":616,"ita":617,"th":618,"AS":619,"alik":620,"Ġpr":621,"Ġlat":622,"st":623,"apan":624,"euh":625,"ĠKas":626,"ĠInd":627,"Ġkar":628,"Ġdit":629,"lah":630,"Ã©m":631,"di":632,"ain":633,"Ġngar":634,"unda":635,"aos":636,"Ġkeur":637,"eup":638,"ont":639,"oy":640,"Ġor":641,"ine":642,"com":643,"rup":644,"isi":645,"uran":646,"anj":647,"tu":648,"ĠAnjeun":649,"Ġkab":650,"ĠâĢĵ":651,"11":652,"ĠâĢľ":653,"umb":654,"arat":655,"all":656,"ons":657,"isan":658,"ON":659,"Ġdeui":660,"uw":661,"ayan":662,"EN":663,"eed":664,"13":665,"Ã©ng":666,"Ġkat":667,"Ã©l":668,"eri":669,"ungg":670,"any":671,"Ġteh":672,"een":673,"Ã©b":674,"akan":675,"Ġ19":676,"ingg":677,"engk":678,"Ġkuring":679,"akÃ©":680,"uar":681,"ĠogÃ©":682,"sia":683,"una":684,"ve":685,"Ġay":686,"Ġtur":687,"onus":688,"ht":689,"ĠCh":690,"mart":691,"Ġkac":692,"euk":693,"32":694,"RI":695,"udu":696,"amun":697,"Ġad":698,"Ã©d":699,"Ã©hna":700,"37":701,"uy":702,"AH":703,"Ġsabab":704,"EM":705,"Ġter":706,"oga":707,"Ġspeed":708,"ĠKasino":709,"orm":710,"201":711,"OR":712,"est":713,"ation":714,"19":715,"15":716,"Ġhent":717,"li":718,"ula":719,"euwih":720,"Ġag":721,"Ġspeedmart":722,"Ġbar":723,"ks":724,"Ġï¿½":725,"Ġsah":726,"ast":727,"ual":728,"âĢĻ":729,"Ġst":730,"Ġngag":731,"Ġpar":732,"Ġmar":733,"ĠÃ":734,"Ġeta":735,"ĠAr":736,"pr":737,"Ġ&":738,"euna":739,"aks":740,"ĠPr":741,"Ġaw":742,"Ġdib":743,"Ġngaj":744,"uhan":745,"ĠNg":746,"Ġkap":747,"hot":748,"ani":749,"Ġth":750,"pa":751,"Ġngab":752,"ide":753,"lan":754,"ĠPer":755,"âĢ¦":756,"Ġpas":757,"itas":758,"own":759,"Ġtapi":760,"Ġngad":761,"ial":762,"ebut":763,"ja":764,"Ġmaran":765,"ump":766,"AR":767,"roid":768,"Ġkudu":769,"ĠSunda":770,"Ġjal":771,"ord":772,"pin":773,"á®":774,"ataan":775,"anda":776,"oba":777,"ihan":778,"Ġ08":779,"Ġleuwih":780,"Ġkad":781,"ate":782,"arga":783,"alah":784,"ĠZ":785,"ans":786,"aga":787,"ost":788,"pas":789,"ard":790,"ayang":791,"inan":792,"aja":793,"50":794,"Ġmangrup":795,"ika":796,"ungk":797,"ĠTer":798,"Ġtaun":799,"irup":800,"ash":801,"Ġ,":802,"AD":803,"arta":804,"LP":805,"Ġma":806,"ĠAceh":807,"Ġsalah":808,"ĠSh":809,"NS":810,"low":811,"ĠKu":812,"ly":813,"ice":814,"ert":815,"Ġsap":816,"Ġpara":817,"ey":818,"esin":819,"Ġun":820,"if":821,"ev":822,"line":823,"Ġkitu":824,"ulan":825,"PR":826,"epi":827,"Ġab":828,"load":829,"tÃ©":830,"umaha":831,"Ġ10":832,"oun":833,"UT":834,"Ġtat":835,"Ġï¿½ï¿½ï¿½ï¿½ï¿½ï¿½ï¿½ï¿½ï¿½":836,"yar":837,"ember":838,"ingk":839,"Ġim":840,"ener":841,"ill":842,"enc":843,"ĠDi":844,"Ġro":845,"ĠSt":846,"asan":847,"Ġboga":848,"ith":849,"ieun":850,"Ġ9":851,"Ġtr":852,"ĠAd":853,"Ġtiasa":854,"aka":855,"),":856,"ust":857,"16":858,"Ã¨n":859,"Ġhenteu":860,"ikan":861,"ĠSare":862,"av":863,"onal":864,"Ġsing":865,"ej":866,"Ġfor":867,"ngg":868,").":869,"empat":870,"</":871,"ish":872,"ĠIndon":873,"ond":874,"ort":875,"imb":876,"ori":877,"Ġkah":878,"ack":879,"ĠMar":880,"eum":881,"Ġanjeunna":882,"our":883,"ĠyÃ©n":884,"Ġngah":885,"RE":886,"Ġkom":887,"IN":888,"ownload":889,"doc":890,"araha":891,"ee":892,"Ġsahiji":893,"UAL":894,"ĠBL":895,"IST":896,"30":897,"Ġkaw":898,"Ġ20":899,"Ġsat":900,"ĠÂ»":901,"Ġ2017":902,"ree":903,"ĠÃī":904,"Ġis":905,"enta":906,"tÃ©roid":907,"ĠastÃ©roid":908,"Ġngan":909,"out":910,"Ġac":911,"Ġbasa":912,"140":913,"anana":914,"angs":915,"Ġpisan":916,"pil":917,"Ġ...":918,"Ġkam":919,"eunang":920,"CON":921,"Ġba":922,"aki":923,"Ġlamun":924,"tp":925,"DER":926,"duk":927,"eunaan":928,"angka":929,"//":930,"17":931,"kaos":932,"Ġ12":933,"Ġ200":934,"Ġlatin":935,"ĠDIST":936,"BUT":937,"iv":938,"uhur":939,"ĠAs":940,"Ġhal":941,"ĠJUAL":942,"Ġmin":943,"Ġ0812":944,"SB":945,"ĠPEM":946,"ukan":947,"Ġjalma":948,"ĠAMP":949,"RIBUT":950,"ĠDISTRIBUT":951,"ĠDISTRIBUTOR":952,"832":953,"Ġda":954,"angun":955,"anggo":956,"angkung":957,"ENDER":958,"AT":959,"ĠSD":960,"Ġwak":961,"://":962,"wa":963,"ity":964,"age":965,"Ġsad":966,"Ġteen":967,"ISAH":968,"ĠAmpas":969,"37832":970,"Ġ081237832":971,"Ġ081237832140":972,"ĠTLP":973,"ĠBLENDER":974,"ĠPEMISAH":975,"ĠAMPAS":976,"Ġdil":977,"Ġnang":978,"ment":979,"to":980,"job":981,"ĠKal":982,"18":983,"Ġayeuna":984,"Ġum":985,"apa":986,"ĠIs":987,"24":988,"Kab":989,"ome":990,"Ġdig":991,"ĠMal":992,"ics":993,"Ġul":994,"Ġde":995,"Ġngeunaan":996,"Ġsag":997,"andung":998,"Ġhand":999,"tur":1000,"ĠIeu":1001,"ĠMesin":1002,"ila":1003,"Ġwa":1004,"Ġmak":1005,"urah":1006,"Ġ>":1007,"Ġlal":1008,"oko":1009,"udi":1010,"lot":1011,"ros":1012,"ukeun":1013,"Ġiti":1014,"Ġar":1015,"Ġ18":1016,"imp":1017,"SBJ":1018,"60":1019,"ese":1020,"arita":1021,"ora":1022,"ðŁ":1023,"Ġmun":1024,"Ġbab":1025,"ĠBarat":1026,"Ġmangrupa":1027,"arkeun":1028,"entai":1029,"40":1030,"Ġloba":1031,"orn":1032,"asil":1033,"Ġnaon":1034,"omb":1035,"lam":1036,"ore":1037,"aju":1038,"itus":1039,"Ġak":1040,"ongan":1041,"Ġken":1042,"Ġkalawan":1043,"Ġmil":1044,"ĠSDN":1045,"atang":1046,"25":1047,"udak":1048,"Ġï¿½ï¿½ï¿½ï¿½ï¿½ï¿½ï¿½ï¿½ï¿½ï¿½":1049,"Ġsababaraha":1050,"usan":1051,"....":1052,"Ġpal":1053,"Ġ[":1054,"rom":1055,"Ġinter":1056,"26":1057,"asar":1058,"Ġbad":1059,"ou":1060,"Ġsex":1061,"qu":1062,"UN":1063,"ink":1064,"Ġnepi":1065,"ĠMan":1066,"ĠNo":1067,"Ġ15":1068,"Ġipil":1069,"Ġpat":1070,"Ġbi":1071,"Ġind":1072,"Ġ2019":1073,"oÃ©":1074,"Ġmo":1075,"ĠBl":1076,"ĠTapi":1077,"Ġâ":1078,"Ġlangkung":1079,"tor":1080,"engan":1081,"An":1082,"Ġber":1083,"Ġdua":1084,"Ġbag":1085,"Ġluhur":1086,"Ġcom":1087,"anten":1088,"Ġdij":1089,"ime":1090,"uka":1091,"ĠUn":1092,"Ġni":1093,"ira":1094,"ff":1095,"Ġmana":1096,"OB":1097,"Ġnga":1098,"ĠMa":1099,"ĠÐ":1100,"Ġant":1101,"umi":1102,"air":1103,"Ġkami":1104,"!âĢĿ":1105,"man":1106,"Ġbig":1107,"Ġdep":1108,"ukur":1109,"atna":1110,"Ġdik":1111,"ingan":1112,"--":1113,"Ġus":1114,"Ġsi":1115,"erv":1116,"Ġged":1117,"Ġch":1118,"jeunna":1119,"33":1120,"arang":1121,"Ġngaw":1122,"Ġhentai":1123,"ANG":1124,"ADV":1125,"Ġmeunang":1126,"Ã©mb":1127,"isah":1128,"Ġjalan":1129,"Ġup":1130,"sh":1131,"ame":1132,"ĠJalan":1133,"28":1134,"als":1135,"Ġsok":1136,"Ġtempat":1137,"ungsi":1138,"ini":1139,"OL":1140,"Ġnag":1141,"engah":1142,"iy":1143,"Ã©w":1144,"row":1145,"ida":1146,"unya":1147,"ĠBonus":1148,"lik":1149,"CONJ":1150,"arah":1151,"Ġam":1152,"ungt":1153,"olog":1154,"Ġdan":1155,"ĠAb":1156,"Ġ14":1157,"ola":1158,"Ġï¿½ï¿½ï¿½ï¿½ï¿½ï¿½ï¿½ï¿½ï¿½ï¿½ï¿½ï¿½":1159,"usa":1160,"27":1161,"elas":1162,"ĠGo":1163,"ear":1164,"ĠSal":1165,"ayaan":1166,"ea":1167,"akarta":1168,"iri":1169,"ajat":1170,"ĠÂ·":1171,"ww":1172,"ark":1173,"ĠThe":1174,"aca":1175,"loh":1176,"ĠSa":1177,"ates":1178,"Ġbari":1179,"Ġhirup":1180,"usi":1181,"upat":1182,"Ġap":1183,"Ġbo":1184,"Ġtit":1185,"ode":1186,"esar":1187,"agi":1188,"agu":1189,"ĠDina":1190,"PRD":1191,"?âĢĿ":1192,"ell":1193,"Ġbal":1194,"70":1195,"Ġta":1196,"ass":1197,"osit":1198,"ehna":1199,"Ġï¿½ï¿½ï¿½ï¿½ï¿½ï¿½ï¿½ï¿½ï¿½ï¿½ï¿½":1200,"Ð°":1201,"anapi":1202,"uru":1203,"iran":1204,"ona":1205,"ĠIndonÃ©":1206,"ĠSi":1207,"Ġdic":1208,"Ġ11":1209,"ult":1210,"Ġ24":1211,"22":1212,"mi":1213,"Ġbl":1214,"amatan":1215,"ĠAg":1216,"ĠOn":1217,"obil":1218,"ĠKabataan":1219,"atu":1220,"ight":1221,"Ġby":1222,"Ġmod":1223,"Ġbang":1224,"Ã©nt":1225,"ous":1226,"ena":1227,"ĠDa":1228,"abr":1229,"ef":1230,"alam":1231,"aysia":1232,"uku":1233,"Ġatanapi":1234,"Ġsalaku":1235,"Ġmer":1236,"ogle":1237,"unggal":1238,"her":1239,"Ġ.":1240,"ank":1241,"jang":1242,"anÃ©":1243,"Ã©a":1244,"ĠPl":1245,"ĠTaman":1246,"tion":1247,"apanese":1248,"Ã©j":1249,"Ġbonus":1250,"edah":1251,"23":1252,"usna":1253,"Ġut":1254,"Ġtang":1255,"amat":1256,"ĠIndonÃ©sia":1257,"Ġsaw":1258,"ĠAllah":1259,"In":1260,"ha":1261,"21":1262,"lor":1263,"Ġx":1264,"Ġen":1265,"Ġaran":1266,"Ġdim":1267,"Ã©hanana":1268,"usah":1269,"Ð¾":1270,"ayu":1271,"upa":1272,"Ġsaj":1273,"ĠTr":1274,"Ġonline":1275,"ahna":1276,"Ġsam":1277,"akat":1278,"29":1279,"rat":1280,"ĠBesar":1281,"Ġoge":1282,"OS":1283,"ĠX":1284,"akna":1285,"54":1286,"ery":1287,"ĠNy":1288,"80":1289,"ima":1290,"Ġabdi":1291,"form":1292,"Ġmat":1293,"ĠTerp":1294,"uli":1295,"\":":1296,"ce":1297,"Ġdir":1298,"Ġanyar":1299,"Ġwith":1300,"mas":1301,"inal":1302,"ĠNov":1303,"http":1304,"Ġkasino":1305,"UR":1306,"ue":1307,"**":1308,"ĠSum":1309,"Ġtul":1310,"ake":1311,"embang":1312,"Ĥ¬":1313,"ĠKar":1314,"anggeus":1315,"ĠSarees":1316,"AM":1317,"ion":1318,"Ġ25":1319,"Ġ13":1320,"eureun":1321,"ĠmanÃ©hna":1322,"iew":1323,"Ġngaran":1324,"old":1325,"oll":1326,"ĠIk":1327,"eutik":1328,"Ġwaktu":1329,"Ġkumaha":1330,"atkeun":1331,"Ġcara":1332,"ign":1333,"REL":1334,"ound":1335,"Ġmen":1336,"ĠNeg":1337,"\",":1338,"yan":1339,"Ã©p":1340,"engg":1341,"55":1342,"ĠPNS":1343,".âĢĿ":1344,"Ng":1345,"Ġsor":1346,"ade":1347,"ĠmaranÃ©hanana":1348,"ĠGoogle":1349,"unt":1350,"abab":1351,"etan":1352,"Ġproduk":1353,"ram":1354,"ĠNew":1355,"Ġdeposit":1356,"sp":1357,"ts":1358,"Ġtan":1359,"34":1360,"de":1361,"Ġpl":1362,"Ġbu":1363,"ĠAp":1364,"unan":1365,"Ġlain":1366,"ĠKabupat":1367,"ato":1368,"Ġdisebut":1369,"ĠTerpisah":1370,"Ġpag":1371,"Ġket":1372,"Ġkaos":1373,"Ġres":1374,"39":1375,"ix":1376,"eub":1377,"ĠSp":1378,"Ġdiri":1379,"Ġ30":1380,"ĠKota":1381,"Ġanak":1382,"ilu":1383,"ĠFree":1384,"aru":1385,"ork":1386,"ĠJawa":1387,"ick":1388,"ach":1389,"rang":1390,"Ġsup":1391,"Ġ2018":1392,"Ġ'":1393,"Ġnyaeta":1394,"Na":1395,"ero":1396,"uter":1397,"ĠJasa":1398,"Ġ07":1399,"reat":1400,"uit":1401,"Ġnyieun":1402,"Ġpil":1403,"hotos":1404,"Ġsagala":1405,"Ġah":1406,"ampu":1407,"ingali":1408,"mu":1409,"35":1410,"ering":1411,"Ġhar":1412,"anti":1413,"Ġdag":1414,"lowjob":1415,"Ġaranjeunna":1416,"ĠNegeri":1417,"08":1418,"Ġ16":1419,"Ġ17":1420,"ĠMalaysia":1421,"Home":1422,"à¤":1423,"awÃ©":1424,"awas":1425,"ekel":1426,"45":1427,"nya":1428,"iz":1429,"ka":1430,"mb":1431,"Ġmus":1432,"ĠDes":1433,"Ġmoal":1434,"AG":1435,"uang":1436,"Ġpik":1437,"ĠOb":1438,"jan":1439,"Ġkul":1440,"Ġmim":1441,"ens":1442,"ĠPas":1443,"Ma":1444,"ĠbaÃ©":1445,"38":1446,"oor":1447,"arna":1448,"ĠEx":1449,"utan":1450,"angga":1451,"Ġop":1452,"Ġass":1453,"inta":1454,"alika":1455,"ci":1456,"ĠQ":1457,"Ġla":1458,"word":1459,"Ġkon":1460,"apt":1461,"iwari":1462,"UM":1463,"da":1464,"Ġsh":1465,"ema":1466,"Ġsakab":1467,"angsung":1468,"TA":1469,"etep":1470,"ĠReg":1471,"antos":1472,"ampah":1473,"ĠAlloh":1474,"Ġlatina":1475,"istr":1476,"anggih":1477,"ĠNovember":1478,"Ġdatang":1479,"Ġpada":1480,"Ġbah":1481,"ĠJoh":1482,"Ġporn":1483,"apada":1484,".[":1485,"Download":1486,"Ðµ":1487,"esb":1488,"Ġ28":1489,"200":1490,"ukang":1491,"tress":1492,"oj":1493,"erti":1494,"ulinan":1495,"Ġdunya":1496,"irl":1497,"alikuran":1498,"umber":1499,"Ġlatinas":1500,"ĠTan":1501,"ideo":1502,"pinsi":1503,"ĠKabupatÃ©n":1504,"lu":1505,"ĠSel":1506,"acara":1507,"arti":1508,"ĠShop":1509,"ajatian":1510,"Ġob":1511,"aho":1512,"49":1513,"Ñģ":1514,"ĠJu":1515,"angkan":1516,"bu":1517,"ĠAngg":1518,"36":1519,"58":1520,"Palikuran":1521,"kan":1522,"Ġpen":1523,"Ġ2016":1524,"ĠdipakÃ©":1525,"duc":1526,"ĠPol":1527,"esia":1528,"ĠBah":1529,"edeng":1530,"az":1531,"ilih":1532,"47":1533,"Pr":1534,"Ġkak":1535,"ĠToko":1536,"ĠCl":1537,"Ġfrom":1538,"fi":1539,"unakeun":1540,"ĠBr":1541,"ood":1542,"tos":1543,"ĠBer":1544,"usti":1545,"ĠBandung":1546,"edia":1547,"ĠLat":1548,"Ġkaluar":1549,"ich":1550,"euweuh":1551,"Ġur":1552,"ĠSan":1553,"tern":1554,"ĠSaree":1555,"US":1556,"Ġeu":1557,"ahkeun":1558,"Ġrupa":1559,"iga":1560,"Ġsorangan":1561,"Ad":1562,"Ġari":1563,"Ġsur":1564,"Ġstr":1565,"ins":1566,"Ġpad":1567,"ĠAri":1568,"ongkeun":1569,"lag":1570,"Ġhayang":1571,"Ġpanon":1572,"ny":1573,"pl":1574,"Ġpin":1575,"Ġpus":1576,"Ġcai":1577,"iwatan":1578,"ĠmaranÃ©hna":1579,"ĠIslam":1580,"ton":1581,"ahon":1582,"amm":1583,"ite":1584,"ampung":1585,"uga":1586,"Ġora":1587,"unj":1588,"AB":1589,"Ġeuweuh":1590,"Ġkol":1591,"ĠsÃ©j":1592,"Ġtah":1593,"ums":1594,"ĠNu":1595,"Ġ2011":1596,"ĠMax":1597,"Ġli":1598,"rop":1599,"AC":1600,"su":1601,"era":1602,"ĠPang":1603,"Ġraja":1604,"Ġkalayan":1605,"ĠIklan":1606,"ÑĤ":1607,"Ġkedah":1608,"Ġdes":1609,"Ġwal":1610,"Ã©bas":1611,"07":1612,"66":1613,"Ġex":1614,"Ġkec":1615,"ĠJeung":1616,"Ġmasih":1617,"af":1618,"Ã©na":1619,"ambar":1620,"',":1621,"59":1622,"ru":1623,"ÃŃ":1624,"anan":1625,"angkeun":1626,"ustr":1627,"pril":1628,"usahaan":1629,"esbian":1630,"PNS":1631,"one":1632,"ĠCar":1633,"ĠâĢ¦":1634,"uge":1635,"ĠâĤ¬":1636,"bah":1637,"ga":1638,"ĠAy":1639,"empo":1640,"ĠÂ£":1641,"eula":1642,"ĠsÃ©jÃ©n":1643,"AK":1644,"asup":1645,"Ġmag":1646,"akon":1647,"ags":1648,"Ġasian":1649,"Ġtatto":1650,"Ð¸":1651,"itan":1652,"ĠKaos":1653,"ĠTh":1654,"ĠJakarta":1655,"ampal":1656,"Ġyang":1657,"Ġminangka":1658,"Ġmal":1659,"Ġjapanese":1660,"tra":1661,"ies":1662,"keut":1663,"Ġngam":1664,"idi":1665,"sian":1666,"ED":1667,"la":1668,"able":1669,"ĠBag":1670,"ba":1671,"arik":1672,"Ġsin":1673,"Ã¨k":1674,"ĠPropinsi":1675,"ĠPan":1676,"eet":1677,"rac":1678,"ateur":1679,"Ġtamb":1680,"Ġlesbian":1681,"te":1682,"Ġpul":1683,"Ġanime":1684,"Ġmanusa":1685,"ÑĢ":1686,"Ġsamp":1687,"Ġmib":1688,"acan":1689,"igh":1690,"Ġkacamatan":1691,"har":1692,"ris":1693,"Ġpol":1694,"erah":1695,"Ġdiw":1696,"ĠCat":1697,"Ġfil":1698,"44":1699,"Ġsan":1700,"eni":1701,"Ġ100":1702,"Ġkasajatian":1703,"oe":1704,"Ġplan":1705,"imal":1706,"Ġel":1707,"ĠSitus":1708,"ura":1709,"Ġhuge":1710,"enting":1711,"Ġ+":1712,"Ġpok":1713,"ensi":1714,"Ġleung":1715,"Ġ21":1716,":'":1717,"mp":1718,"Ġdin":1719,"ukup":1720,"Ġkawas":1721,"AY":1722,"ry":1723,"ĠSak":1724,"ĠAw":1725,"Ġjanten":1726,"awang":1727,"Ġ2015":1728,"ĠProv":1729,"The":1730,"ĠPh":1731,"ki":1732,"land":1733,"Ġangg":1734,"Ġpos":1735,"ĠMus":1736,"Ar":1737,"Dina":1738,"res":1739,"sy":1740,"uri":1741,"ayana":1742,"ĠBuk":1743,"ulu":1744,"05":1745,"ĠrÃ©k":1746,"ĠAnd":1747,"ock":1748,"Ġhandap":1749,"Ã©sa":1750,"Ġput":1751,"Ġbudak":1752,"unung":1753,"asana":1754,"entuk":1755,"Ġmanga":1756,"Ġnagara":1757,"au":1758,"Ġart":1759,"urn":1760,"Ġatuh":1761,"ĠUt":1762,"ancang":1763,"ĠOnline":1764,"48":1765,"ĠMas":1766,"ĠNon":1767,"Ġmet":1768,"oka":1769,"Ġmarc":1770,"Ġulah":1771,"oo":1772,"ph":1773,"Ġtek":1774,"ase":1775,"Ġbatur":1776,"aglag":1777,"anajan":1778,"Ġ199":1779,"rol":1780,"ĠKuat":1781,"Ġbadag":1782,"edengkeun":1783,"ES":1784,"arana":1785,"omong":1786,"words":1787,"ĠAnggota":1788,"65":1789,"Ġpant":1790,"ĠbÃ©bas":1791,"amana":1792,"Ġ2012":1793,"ampalaglag":1794,"emen":1795,"ĠplanÃ©t":1796,"Ġmarcapada":1797,"Ã©an":1798,"Ġkaj":1799,"Ġkaulinan":1800,"otor":1801,"Ġalam":1802,"reatment":1803,"06":1804,"75":1805,"dr":1806,"ern":1807,"Ġkaayaan":1808,"ct":1809,"anu":1810,"ĠBat":1811,"umna":1812,"Ã©da":1813,"ingkat":1814,"Al":1815,"ook":1816,"Ã¢":1817,"ahar":1818,"ĠnÃ©b":1819,"ĠSuk":1820,"org":1821,"ĠTim":1822,"ĠLampu":1823,"ect":1824,"ĠnÃ©bula":1825,"Ġkanggo":1826,"akeup":1827,"Ġbalik":1828,"Ġdieu":1829,"Ġ22":1830,"Ġpangal":1831,"04":1832,"bit":1833,"ool":1834,"Ã©g":1835,"Ġdid":1836,"umlah":1837,"Ġmimiti":1838,"nis":1839,"Ġceuk":1840,"imit":1841,"omp":1842,"Ã¨w":1843,"Ġdipik":1844,"Kabataan":1845,"Ġpampalaglag":1846,"ĠServ":1847,"ĠApril":1848,"ĠBar":1849,"ĠNIP":1850,"68":1851,"Ġsas":1852,"Ġsacara":1853,"obs":1854,"rowth":1855,"ju":1856,"per":1857,"Ġunggal":1858,"ĠHair":1859,"uck":1860,"Ġ>>":1861,"Ġlalaki":1862,"ROL":1863,"ĠðŁ":1864,"Ġukur":1865,"ings":1866,"ĠNa":1867,"PU":1868,"pro":1869,"Ġang":1870,"Ġwe":1871,"olah":1872,"57":1873,"eal":1874,"Ġaj":1875,"Ġkel":1876,"Ġsangkan":1877,"Ġpak":1878,"Ġbulan":1879,"els":1880,"Ġcan":1881,"Ã¨ng":1882,"Ġmanehna":1883,"EL":1884,"auh":1885,"Ã¡":1886,"Ġit":1887,"ĠSab":1888,"Ġhasil":1889,"irim":1890,"ï¿½ï¿½ï¿½ï¿½ï¿½ï¿½ï¿½ï¿½":1891,"uda":1892,"PRN":1893,"illus":1894,"ivers":1895,"Ġil":1896,"Ġnak":1897,"Ġjaman":1898,"ĠBu":1899,"ĠMat":1900,"ĠMuh":1901,"ĠTreatment":1902,"ilk":1903,"ĠgÃ©":1904,"ajeng":1905,"ical":1906,"Ġawak":1907,"Ã©mber":1908,"cr":1909,"ere":1910,"ulis":1911,"Ġcukup":1912,"ĠProvillus":1913,"alna":1914,"uma":1915,"Ġdeukeut":1916,"inten":1917,"ĠObat":1918,"ĠRegrowth":1919,"53":1920,"Dahon":1921,"Ġsanggeus":1922,"Ġpes":1923,"akukeun":1924,"ĠSy":1925,"ĠSur":1926,"ĠSub":1927,"Ġlan":1928,"Ġ26":1929,"ĠAdwords":1930,"46":1931,"ie":1932,"Ø§":1933,"ĠÃ©l":1934,"Ġmay":1935,"Ġbut":1936,"ĠKuring":1937,"andak":1938,"ents":1939,"lous":1940,"odas":1941,"Ġmaring":1942,"irupan":1943,"31":1944,"ieu":1945,"inc":1946,"onom":1947,"ubungan":1948,"Ġterus":1949,"ologi":1950,"no":1951,"Ġtetep":1952,"abi":1953,"istem":1954,"ary":1955,"Ġjam":1956,"ĠFor":1957,"Ġngaliwatan":1958,"ĠIndonesia":1959,"ROLE":1960,"rak":1961,"Ġslot":1962,"Ġmul":1963,"ĠKa":1964,"Ġgad":1965,"ajar":1966,"ĠJohor":1967,"Ġtattoo":1968,"ĠkÃ©n":1969,"ĠAk":1970,"Ġ27":1971,"Ġ40":1972,"Ġalus":1973,"inggal":1974,"90":1975,"ral":1976,"inÃ©":1977,"enah":1978,"ĠTi":1979,"utkeun":1980,"ober":1981,"88":1982,"ator":1983,"Ġnalika":1984,"ips":1985,"EMB":1986,"ĠBukit":1987,"Ġ=":1988,"Ġpa":1989,"Ġbeur":1990,"Ġdih":1991,"ĠBi":1992,"Ġnyebut":1993,"andar":1994,"antaran":1995,"Ġimah":1996,"UNG":1997,"ĠTeu":1998,"angkat":1999,"ext":2000,"Ġmasalah":2001,"umshot":2002,"ID":2003,"aris":2004,"esep":2005,"ĠKr":2006,"Ġbaris":2007,"Ġtrans":2008,"56":2009,"port":2010,"Ġkons":2011,"ateg":2012,"Ġnar":2013,"ĠAt":2014,"ĠKam":2015,"irah":2016,"ance":2017,"Ġngagunakeun":2018,"lon":2019,"min":2020,"tuk":2021,"ĠpoÃ©":2022,"ĠPin":2023,"Ġ23":2024,"ajan":2025,"irls":2026,"02":2027,"52":2028,"sur":2029,"Ġkungsi":2030,"Ġte":2031,"ĠPeng":2032,"ĠKul":2033,"Ġhot":2034,"ĠEn":2035,"yl":2036,"iki":2037,"ayat":2038,"ĠGusti":2039,"Ġ50":2040,"Ġwae":2041,"co":2042,"Ġkit":2043,"ĠbÃ©da":2044,"ĠPikeun":2045,"ĠMurah":2046,"Ġge":2047,"ampang":2048,"Ã©rÃ©":2049,"ewengk":2050,"ĠpamakÃ©":2051,"âĢ¦âĢ¦":2052,"Ġkecap":2053,"ewengkon":2054,"Ġtukang":2055,"Ġpenting":2056,"eres":2057,"Ġbr":2058,"ĠAut":2059,"Ġlampah":2060,"Ã¨r":2061,"43":2062,"hat":2063,"kah":2064,"Ġ!":2065,"iwat":2066,"angunan":2067,"03":2068,"Pro":2069,"Ġz":2070,"Ġpel":2071,"ism":2072,"ĠMang":2073,"ilan":2074,"Ġ2013":2075,"rosir":2076,"Ġantara":2077,"racial":2078,"Ġkim":2079,"ahaya":2080,"Ġmobil":2081,"Ġ29":2082,"ayo":2083,"emon":2084,"edang":2085,",âĢĿ":2086,"ze":2087,"Ġsek":2088,"adu":2089,"awab":2090,"ose":2091,"ĠWith":2092,"100":2093,"GC":2094,"Ð»":2095,"Ġe":2096,"Ġsub":2097,"Ġpend":2098,"ĠFlor":2099,"oft":2100,"ataang":2101,"Ġtilu":2102,"ĠPut":2103,"ĠBel":2104,"asional":2105,"Kabataang":2106,"erc":2107,"ĠCo":2108,"Ġcumshot":2109,"09":2110,"41":2111,"les":2112,"Ġtuj":2113,"Ġmut":2114,"ĠSar":2115,"ĠKA":2116,"ĠDr":2117,"umah":2118,"Ġcont":2119,"Ġpaling":2120,"Ġtangtu":2121,"Ġsem":2122,"Ġtel":2123,"Ġtut":2124,"Ġbener":2125,"adang":2126,"ikasi":2127,"Ġngora":2128,"Ġcl":2129,"Ġinterracial":2130,"Ġcomics":2131,"IR":2132,"Ġ)":2133,"Ġkag":2134,"ersi":2135,"Ġningali":2136,"oran":2137,"ĠJun":2138,"asaan":2139,"ĠÃīks":2140,"'s":2141,"gram":2142,"Ġkaasup":2143,"Ġteuing":2144,"uta":2145,"ĠÃ©":2146,"Ġare":2147,"Ġbas":2148,"isasi":2149,"ays":2150,"ĠKap":2151,"Ġget":2152,"atif":2153,"Ðº":2154,"Ġboh":2155,"Ġhad":2156,"Ġhart":2157,"ĠNiti":2158,"ugi":2159,"tif":2160,"¸ı":2161,"ï¸ı":2162,"Ġot":2163,"ģï¸ı":2164,"ĳģï¸ı":2165,"Ġtangg":2166,"Ġlian":2167,"Ġsadaya":2168,"Ġhandjob":2169,"ĠðŁĳģï¸ı":2170,"51":2171,"Ari":2172,"It":2173,"lim":2174,"ttp":2175,"Ð½":2176,"Ġsedengkeun":2177,"Ġbe":2178,"itud":2179,"Ġ2014":2180,"\".":2181,"TC":2182,"hy":2183,"eug":2184,"Ġsum":2185,"amel":2186,"Ġnganggo":2187,"unga":2188,"Ġgirls":2189,"Ġsaree":2190,"Ġfree":2191,"anjang":2192,"Ã¨wÃ¨k":2193,"ium":2194,"nÃ©":2195,"alt":2196,"Ġjauh":2197,"ech":2198,"inggu":2199,"imitian":2200,"ead":2201,"log":2202,"ĠPal":2203,"apat":2204,"ungkeun":2205,"Ġbagian":2206,"----":2207,"formasi":2208,"ĠMuhamm":2209,"cl":2210,"ive":2211,"Ġkiwari":2212,"ated":2213,"ĠPa":2214,"ĠPet":2215,"aba":2216,"Ġnude":2217,"Ġnyaho":2218,"tiv":2219,"www":2220,"Ġleb":2221,"Ġcon":2222,"uhu":2223,"antara":2224,"Ġhenti":2225,"oon":2226,"Ġkur":2227,"Ġsol":2228,"Ġmant":2229,"ĠMah":2230,"Ġhttp":2231,"ĠUp":2232,"77":2233,"arian":2234,"ĠKom":2235,"Ġwar":2236,"ajaan":2237,"NUM":2238,"hir":2239,"Ġdu":2240,"angi":2241,"ape":2242,"uman":2243,"ĠEmas":2244,"euting":2245,"69":2246,"Ãī":2247,"á»":2248,"Ġno":2249,"Ġbahan":2250,"ĠCash":2251,"Ã©ns":2252,"Ã©dia":2253,"eubeul":2254,"IL":2255,"ÙĦ":2256,"Ġset":2257,"onj":2258,"ĠAS":2259,"Ġlum":2260,"ory":2261,"usus":2262,"eda":2263,"Ġpany":2264,"Ġvideo":2265,"Ġmangsa":2266,"oys":2267,"Ġbarang":2268,"Ġrobah":2269,"ĠTanpa":2270,"''":2271,"78":2272,"pang":2273,"vi":2274,"Ġem":2275,"ĠSing":2276,"ĠSup":2277,"over":2278,"Ġkahirupan":2279,"fac":2280,"kt":2281,"yp":2282,"Ġpeng":2283,"ĠSat":2284,"ĠSer":2285,"00000":2286,"Ġblog":2287,"Ġdagiti":2288,"Ġamp":2289,"ĠAya":2290,"ĠPar":2291,"ĠKer":2292,"ĠKec":2293,"Ġhid":2294,"ĠTeen":2295,"ories":2296,"hi":2297,"lish":2298,"İģ":2299,"Ġsim":2300,"eran":2301,"Ġbaju":2302,"urna":2303,"Ġjero":2304,"Ġcoc":2305,"Ġwewengkon":2306,"Ġ2020":2307,"ðŁİģ":2308,"Ġgaduh":2309,"gan":2310,"ni":2311,"sk":2312,"ikel":2313,"Ġlemb":2314,"ages":2315,"uhun":2316,"OD":2317,"RB":2318,"yr":2319,"Ġsumber":2320,"ĠAsian":2321,"awe":2322,"ebon":2323,"ows":2324,"do":2325,"eras":2326,"Ġlangsung":2327,"ĠDis":2328,"Ġcart":2329,"uks":2330,"ekar":2331,"Ġkuw":2332,"2020":2333,"Ġagu":2334,"Ġparantos":2335,"CONJP":2336,"Ġsy":2337,"Ġsej":2338,"adah":2339,"adian":2340,"euki":2341,"ational":2342,"Ġsadayana":2343,"Ġmatak":2344,"64":2345,"Di":2346,"atet":2347,"Ġsaha":2348,"Ġdar":2349,"Ġdadi":2350,"Ġblowjob":2351,"ingpin":2352,"Ġkali":2353,"Ġyen":2354,"ĠmaÃ©n":2355,"Ġumum":2356,"97":2357,"Ag":2358,"ĠPen":2359,"Ġleutik":2360,"ile":2361,"Ġgampang":2362,"ĠNur":2363,"Ġrek":2364,"ĠLamun":2365,"2019":2366,"Ġmakeup":2367,"Ġnyebutkeun":2368,"Ġsitus":2369,"Ġpap":2370,"ĠSem":2371,"Ġrasa":2372,"ĠRes":2373,"ongk":2374,"okot":2375,"Ġsakumna":2376,"rek":2377,"Ġkep":2378,"Ġdari":2379,"ure":2380,"ingal":2381,"ibut":2382,"Ġpanjang":2383,"ĠsamÃ©m":2384,"ĠkÃ©nÃ©h":2385,"IT":2386,"ck":2387,"jam":2388,"Ã©si":2389,"ĠmakÃ©":2390,"Ġhak":2391,"ela":2392,"Ġwas":2393,"ĠrÃ©":2394,"AX":2395,"Ġbuk":2396,"Ġbumi":2397,"usabab":2398,"ulo":2399,"Ġgancang":2400,"ĠEl":2401,"Kuring":2402,"ei":2403,"nam":2404,"Ġsistem":2405,"urkeun":2406,"its":2407,"ĠDownload":2408,"ĠIt":2409,"Ã©ntr":2410,"baru":2411,"uch":2412,"Ġbat":2413,"Ġbet":2414,"ĠBali":2415,"Ġgambar":2416,"Ġrep":2417,"ĠHigh":2418,"ublik":2419,"uji":2420,"Ġkomp":2421,"Ã¨wÃ¨kÃ©":2422,"VB":2423,"aring":2424,"Ġkr":2425,"Ġmik":2426,"Ã©nd":2427,"ĠWal":2428,"NPR":2429,"Ġalat":2430,"oyong":2431,"ĠSumedang":2432,".\"":2433,"Ġday":2434,"Ġnur":2435,"ĠAir":2436,"Ġharga":2437,"Ġcm":2438,"imah":2439,"ajaran":2440,"icer":2441,"anding":2442,"62":2443,"Ch":2444,"KA":2445,"bok":2446,"ling":2447,"mal":2448,"Ġdum":2449,"Ġmp":2450,"ital":2451,"ĠPhotos":2452,"ĠMP":2453,"ĠMix":2454,"Ġwh":2455,"Ġbangsa":2456,"67":2457,"85":2458,"ail":2459,"anya":2460,"ĠSpin":2461,"Ġlagu":2462,"ĠJaya":2463,"ĠâĢĶ":2464,"angkal":2465,"Ġsakumaha":2466,"euli":2467,"ĠwaÃ©":2468,"Ġpot":2469,"Ġmurah":2470,"ĠSep":2471,"ayah":2472,"ĠKac":2473,"ĠBus":2474,"ĠCon":2475,"Ġsarua":2476,"entar":2477,"Ġperc":2478,"ĠZink":2479,"87":2480,"KU":2481,"ding":2482,"rah":2483,"tan":2484,"Ġid":2485,"Ġbuku":2486,"Ġlila":2487,"Ġjur":2488,"ĠKang":2489,"ĠKart":2490,"ĠMp":2491,"omat":2492,"Ġib":2493,"ibel":2494,"Ġprof":2495,"Ġdijieun":2496,"ware":2497,"Ġseu":2498,"Ġdal":2499,"Ġmangg":2500,"Ġharita":2501,"Ġcar":2502,"ĠHal":2503,",\"":2504,"89":2505,"SE":2506,"oid":2507,"war":2508,"Ġser":2509,"Ġtid":2510,"amil":2511,"ĠArt":2512,"avid":2513,"ĠPlay":2514,"ĠsakabÃ©h":2515,"ĠJuicer":2516,"!!":2517,"Ġkin":2518,"awar":2519,"aji":2520,"antor":2521,"engkep":2522,"Ã©wÃ©":2523,"Ġmagn":2524,"SU":2525,"eruh":2526,"ĠSilk":2527,"onan":2528,"ĠMobil":2529,"uskeun":2530,"Ġhat":2531,"ilang":2532,"ute":2533,"ĠIm":2534,"ĠRp":2535,"ĠAmateur":2536,"rupa":2537,"Ġngadeg":2538,"Ġsaperti":2539,"ratis":2540,"Ġleungeun":2541,"ĠkuwÃ©":2542,"OM":2543,"fr":2544,"alungt":2545,"Ġsos":2546,"erl":2547,"Ġbeuki":2548,"Ġjumlah":2549,"ager":2550,"awarga":2551,"ukum":2552,"udaya":2553,"Ã©ks":2554,"Ġsablon":2555,"Ġbarudak":2556,"42":2557,"mat":2558,"Ġke":2559,"alitas":2560,"ating":2561,"Ġtim":2562,"ĠRas":2563,"Ġperk":2564,"chool":2565,"Ġmasar":2566,"inggi":2567,"Ġuntuk":2568,"Ġnangt":2569,"rap":2570,"tar":2571,"Ġdo":2572,"Ġmaca":2573,"Ġbel":2574,"ĠTengah":2575,"ular":2576,"0000":2577,"ĠLound":2578,"uary":2579,"ĠMuhammad":2580,"ko":2581,"Ġker":2582,"Ġgall":2583,"osi":2584,"ĠNya":2585,"Ġprib":2586,"osted":2587,"ence":2588,"Ġwaktos":2589,"Ġutama":2590,"ĠService":2591,"dul":2592,"Ġmi":2593,"ĠAC":2594,"ĠAng":2595,"ĠPM":2596,"ikip":2597,"Ġlang":2598,"Ġlap":2599,"ĠMad":2600,"apkeun":2601,"Ġini":2602,"ĠWil":2603,"Ġterang":2604,"ertos":2605,"Lat":2606,"áº":2607,"Ġnatur":2608,"ĠSang":2609,"Ġluar":2610,"ungna":2611,"Ġbae":2612,"jo":2613,"ne":2614,"Ġmb":2615,"akt":2616,"itik":2617,"unc":2618,"abal":2619,"ĠKat":2620,"Ġhe":2621,"ĠTur":2622,"ĠToy":2623,"Ġcarita":2624,"ace":2625,"anggap":2626,"aturan":2627,"Ġpros":2628,"Ġsejen":2629,"Ġmasarakat":2630,"Ġkaya":2631,"Ġse":2632,"Ġngg":2633,"ĠMakeup":2634,"Ġgag":2635,"Ġnyang":2636,"ĠGr":2637,"sib":2638,"arios":2639,"ĠOr":2640,"Ġsakola":2641,"79":2642,"Ġing":2643,"Ġdr":2644,"Ġdinten":2645,"ĠAM":2646,"oro":2647,"ement":2648,"irna":2649,"ĠâĢĺ":2650,"Ġ60":2651,"ĠProduk":2652,"aksan":2653,"Ġbiasa":2654,"UL":2655,"po":2656,"se":2657,"Ġik":2658,"Ġdata":2659,"Ġpangg":2660,"Ġlantaran":2661,"aban":2662,"ĠMet":2663,"iling":2664,"awat":2665,"Ġrada":2666,"idul":2667,"ogra":2668,"ĠUrang":2669,"umbu":2670,"aksud":2671,"ondok":2672,"ĠbagÃ©an":2673,"Ġpussy":2674,"ĠToyota":2675,"ET":2676,"St":2677,"ku":2678,"ver":2679,"Ġtingkat":2680,"adikeun":2681,"ĠDen":2682,"ĠIntern":2683,"ideos":2684,"ĠKalÃ©r":2685,"Ġtuluy":2686,"Ġobj":2687,"ĠClub":2688,"Ġhartina":2689,"74":2690,"AP":2691,"hor":2692,"let":2693,"Ġbeb":2694,"ĠKan":2695,"ilah":2696,"ampak":2697,"Ġkaca":2698,"Ġkapanggih":2699,"Ġtanpa":2700,"Ġkituna":2701,"Item":2702,"76":2703,"Ġá®":2704,"Ġkl":2705,"Ġkota":2706,"alia":2707,"Ġsora":2708,"asy":2709,"Ġpay":2710,"Ġnemb":2711,"ĠSet":2712,"abumi":2713,"ĠBasa":2714,"ĠHot":2715,"Ġngalawan":2716,"Ġprim":2717,"ĠNgan":2718,"Ġpasti":2719,"poÃ©":2720,"Ġkont":2721,"Ġmungg":2722,"Ġca":2723,"epang":2724,"igana":2725,"uci":2726,"Ã©dit":2727,"ĠTimur":2728,"Ex":2729,"ban":2730,"Ġir":2731,"ĠMun":2732,"ĠDe":2733,"ĠJan":2734,"eks":2735,"ĠUl":2736,"ĠUs":2737,"Ã¨h":2738,"ĠOkt":2739,"Ã©tan":2740,"impen":2741,"Ġboobs":2742,"Ġhareup":2743,"GA":2744,"ND":2745,"ge":2746,"aresep":2747,"ining":2748,"Ġtar":2749,"Ġmesin":2750,"ĠBal":2751,"Ġwong":2752,"Ġkualitas":2753,"ĠUS":2754,"Ġpers":2755,"82":2756,"mah":2757,"ney":2758,"oul":2759,"Ġub":2760,"Ġout":2761,"Ġdos":2762,"ĠPam":2763,"ise":2764,"Ġweb":2765,"Ġnyandak":2766,"ĠHarga":2767,"Ġinformasi":2768,"ĠFast":2769,"iwa":2770,"Ġthat":2771,"Ġdinya":2772,"bal":2773,"hun":2774,"lat":2775,"Ġsel":2776,"Ġsunda":2777,"Ġpm":2778,"Ġmalah":2779,"Ġguru":2780,"Ġcahaya":2781,"olina":2782,"adiakeun":2783,"Ġvan":2784,"Ġmake":2785,"Ġintern":2786,"Ġtitans":2787,"onomi":2788,"Ġseueur":2789,"nana":2790,"ox":2791,"Ùİ":2792,"Ġes":2793,"arÃ©nt":2794,"angsa":2795,"Ġmawa":2796,"ĠPant":2797,"Ġleg":2798,"Ġngomong":2799,"ugas":2800,"Ġasup":2801,"Ġ45":2802,"indows":2803,"Ġkacatet":2804,"ING":2805,"*][":2806,"yb":2807,"Ġseb":2808,"Ġduit":2809,"agiti":2810,"eman":2811,"ĠLagu":2812,"egan":2813,"trak":2814,"ambah":2815,"Ġ43":2816,"Ġngalakukeun":2817,"Ġngarasa":2818,"ĠÃīta":2819,"Ġusaha":2820,"Ġgede":2821,"Ġblowjobs":2822,"Ġasa":2823,"arengan":2824,"Ġkieu":2825,"enang":2826,"ĠRos":2827,"ica":2828,"entukan":2829,"eck":2830,"Ġayana":2831,"Ġagama":2832,"Ġteens":2833,"Ġmibanda":2834,"ĠCatim":2835,"61":2836,"nologi":2837,"Ġtos":2838,"isnis":2839,"abu":2840,"ĠKad":2841,"ĠIngg":2842,"ogor":2843,"actor":2844,"...âĢĿ":2845,"ĠLatina":2846,"ĠSpins":2847,"aksanakeun":2848,"72":2849,"Beb":2850,"CP":2851,"ca":2852,"ket":2853,"Ġend":2854,"angt":2855,"Ġpeuting":2856,"ĠmÃ©":2857,"esi":2858,"entang":2859,"awanoh":2860,"Ġkacida":2861,"https":2862,"ĠpanonpoÃ©":2863,"ĠFlorida":2864,"Ġtanggal":2865,"63":2866,"As":2867,"eat":2868,"Ùħ":2869,"Ġuj":2870,"euy":2871,"Ġpop":2872,"ï¿½ï¿½ï¿½ï¿½ï¿½ï¿½ï¿½":2873,"Ġjar":2874,"ĠBab":2875,"ulung":2876,"Ġrah":2877,"eura":2878,"Ġorang":2879,"ally":2880,"Ġsapertos":2881,"Art":2882,"ĠÃ©lmu":2883,"=\"":2884,"pon":2885,"Ġsump":2886,"Ġtin":2887,"Ġtap":2888,"asik":2889,"Ġmon":2890,"urahan":2891,"ĠPart":2892,"orong":2893,"Ã©nsi":2894,"rav":2895,"Ġprogram":2896,"Ġtato":2897,"ĠgedÃ©na":2898,"ĠSanibel":2899,"louse":2900,"Ġtujuan":2901,"han":2902,"oot":2903,"Ġund":2904,"Ġtengah":2905,"ĠmÃ©rÃ©":2906,"ĠSam":2907,"iter":2908,"Ġliwat":2909,"esus":2910,"Ġnganj":2911,"ĠJay":2912,"Ġre":2913,"Ġnuhun":2914,"omen":2915,"ĠGeus":2916,"uguh":2917,"dial":2918,"ĠPrint":2919,"ĠawÃ©wÃ©":2920,"ungkin":2921,"Ġboot":2922,"Ġopat":2923,"Ġkajadian":2924,"ĠInggris":2925,"Kaos":2926,"fÃ©r":2927,"pir":2928,"Ġnaha":2929,"Ġbur":2930,"ĠSw":2931,"Ġlok":2932,"ĠBet":2933,"agara":2934,"Ġorbit":2935,"Price":2936,"Ġpinuh":2937,"io":2938,"mark":2939,"nah":2940,"Åĭ":2941,"Ġtaya":2942,"Ġpemb":2943,"abaya":2944,"esna":2945,"Ġgal":2946,"Ġrel":2947,"Ġinst":2948,"ĠFr":2949,"Ġkabentuk":2950,"Ġupami":2951,"ĠsanÃ©s":2952,"ĠSukabumi":2953,"Ġmanggihan":2954,"ĠobjÃ©k":2955,"ĠOktober":2956,"Bebentukan":2957,"Pd":2958,"Ġangk":2959,"Ġmem":2960,"ĠKur":2961,"ili":2962,"emÃ©n":2963,"ĠCina":2964,"Ġwan":2965,"ĠAnu":2966,"ations":2967,"Ã©rika":2968,"ĠActress":2969,"ulau":2970,"Ġmangrupakeun":2971,"eview":2972,"Ġkeneh":2973,"Kawas":2974,"TR":2975,"win":2976,"Ġol":2977,"Ġkor":2978,"akar":2979,"ĠPur":2980,"ĠPany":2981,"Ġlem":2982,"Ġjasa":2983,"ĠMbok":2984,"ilik":2985,"Ġgel":2986,"ongs":2987,"Ġfre":2988,"MAA":2989,"Ġpanas":2990,"ender":2991,"akuatan":2992,"Ġbalong":2993,"ĠDaerah":2994,"Ġliang":2995,"Kal":2996,"pli":2997,"Ġsep":2998,"Ġdownload":2999,"erg":3000,"Ġnot":3001,"Ġnamp":3002,"ĠPul":3003,"isitas":3004,"agan":3005,"ĠJam":3006,"Ġrar":3007,"ĠUk":3008,"Ã¨t":3009,"ĠUnivers":3010,"unjuk":3011,"Ġkolot":3012,"Ġmutl":3013,"Ġpribadi":3014,"HT":3015,"IC":3016,"]]":3017,"ys":3018,"Ġkow":3019,"Ġmur":3020,"enz":3021,"ĠMed":3022,"inac":3023,"idang":3024,"ujeng":3025,"Ġthis":3026,"ĠZing":3027,"abrik":3028,"Ġtangt":3029,"Ġsosial":3030,"84":3031,"95":3032,"Sh":3033,"mo":3034,"ting":3035,"eud":3036,"Ġkh":3037,"ĠMart":3038,"Ġheula":3039,"ĠTah":3040,"ull":3041,"ĠJuli":3042,"Ġwis":3043,"Ġwangunan":3044,"ĠLED":3045,"ĠII":3046,"ĠEng":3047,"ĠSelatan":3048,"Ny":3049,"rad":3050,"Ġist":3051,"ĠKami":3052,"Ġha":3053,"Ġco":3054,"imon":3055,"ette":3056,"ĠGar":3057,"Ġkuat":3058,"ijah":3059,"ĠEs":3060,"ujud":3061,"ungkul":3062,"Ã¨nÃ©":3063,"abrina":3064,"ĠNews":3065,"inggalkeun":3066,"86":3067,"ji":3068,"yÃ©k":3069,"Ġ01":3070,"Ġya":3071,"Ġtu":3072,"Ġnempo":3073,"Ġbeubeul":3074,"ĠKi":3075,"Ġhukum":3076,"ĠDMAA":3077,"ĠCik":3078,"Ġcer":3079,"asion":3080,"ection":3081,"ĠAnak":3082,"Ã©nsina":3083,"ografi":3084,"Ġnganjrek":3085,"Ġbooty":3086,"Ġbeubeulahan":3087,".,":3088,"73":3089,"Harga":3090,"Sal":3091,"wal":3092,"Ġtab":3093,"ï¿½ï¿½ï¿½ï¿½ï¿½ï¿½":3094,"ĠAh":3095,"ĠPak":3096,"ĠLa":3097,"otton":3098,"Ġtip":3099,"teroid":3100,"reen":3101,"Ġ44":3102,"Ġsakabeh":3103,"ĠPinang":3104,"itudo":3105,"AW":3106,"EK":3107,"ias":3108,"xx":3109,"yana":3110,"aluk":3111,"Ġtum":3112,"Ġpart":3113,"Ġlah":3114,"ĠKel":3115,"ĠMen":3116,"ĠCom":3117,"ĠHe":3118,"Ġform":3119,"Ġasteroid":3120,"MAN":3121,"Ġ42":3122,"ĠAmÃ©rika":3123,"Ġorgan":3124,"Ġutamana":3125,"Ados":3126,"Ġpangalusna":3127,"ĠÃīksÃ©ntr":3128,"ĠrÃ©fÃ©r":3129,"Ġmagnitudo":3130,"Ġmutlakna":3131,"ĠÃīksÃ©ntrisitas":3132,"ĠrÃ©fÃ©rÃ©nsina":3133,"CLP":3134,"Posted":3135,"yah":3136,"Ø±":3137,"âĨ":3138,"erk":3139,"eral":3140,"Ġmeureun":3141,"ĠnÃ©":3142,"akit":3143,"Ġbodas":3144,"ĠPulau":3145,"isimal":3146,"ordial":3147,"Ġjudi":3148,"Ġhoyong":3149,"ulul":3150,"ĠDip":3151,"Ġnuju":3152,"iginal":3153,"ĠFil":3154,"ipan":3155,"tied":3156,"Ġmodel":3157,"ĠplanÃ©tisimal":3158,"Ġlianna":3159,"Ġprimordial":3160,"SI":3161,"ars":3162,"Ġkurang":3163,"atos":3164,"ayar":3165,"omer":3166,"antung":3167,"obah":3168,"ebr":3169,"Ġ2010":3170,"Ġalatan":3171,"Ġpilihan":3172,"duct":3173,"-(":3174,"83":3175,"Bag":3176,"OK":3177,"Ġsakal":3178,"Ġdasar":3179,"Ġpoh":3180,"Ġnap":3181,"amin":3182,"Ġlengkep":3183,"abat":3184,"ayakeun":3185,"ĠBig":3186,"ĠanÃ©":3187,"ĠCont":3188,"Ġcenah":3189,"ukuran":3190,"ĠRus":3191,"egal":3192,"ENG":3193,"eries":3194,"Ġkadagiti":3195,"Ind":3196,"NUMCLP":3197,"ĠMPO":3198,"Ġnaturals":3199,"Ġmunggaran":3200,"Am":3201,"Ieu":3202,"OT":3203,"Sa":3204,"rina":3205,"Ġsanajan":3206,"ĠPil":3207,"Ġjen":3208,"Ġjel":3209,"ĠBir":3210,"ĠMy":3211,"ĠMaha":3212,"ĠTV":3213,"ĠTel":3214,"ĠJapanese":3215,"andang":3216,"ition":3217,"vious":3218,"lis":3219,"tember":3220,"Ġq":3221,"Ġkany":3222,"Ġdok":3223,"ĠdÃ¨wÃ¨kÃ©":3224,"Ġtadi":3225,"Ġmel":3226,"Ġnas":3227,"aksi":3228,"ĠSarta":3229,"Ġjag":3230,"esan":3231,"ĠBlowjob":3232,"ĠDoor":3233,"osan":3234,"ĠCent":3235,"Ġcinta":3236,"ĠJat":3237,"ĠGal":3238,"ancis":3239,"uwuh":3240,"Ġkadua":3241,"asilkeun":3242,"Ġmiboga":3243,"Ġlembur":3244,"Ġdumasar":3245,"71":3246,"SM":3247,"mm":3248,"eusi":3249,"Ġsisi":3250,"asis":3251,"Ġpost":3252,"Ġnew":3253,"Ġblow":3254,"abil":3255,"ĠMÃ©":3256,"Ġana":3257,"Ġhusus":3258,"ĠDir":3259,"ĠRep":3260,"ĠGunung":3261,"ĠWindows":3262,"Ġsaeutik":3263,"ĠAnjeunna":3264,"ĠgedÃ©":3265,"Ġpokemon":3266,"Ġgetih":3267,"Latina":3268,"lob":3269,"Ġdugi":3270,"Ġmeng":3271,"ĠStr":3272,"ush":3273,"ogaan":3274,"ontal":3275,"aniel":3276,"Ġmilih":3277,"Ġindit":3278,"Ġdicks":3279,"Ð¾Ð":3280,"Ġdesain":3281,"Ġdiwangun":3282,"ĠJuni":3283,"??":3284,"OP":3285,"Ġitu":3286,"Ġkang":3287,"Ġkakuatan":3288,"erang":3289,"eroll":3290,"itur":3291,"ĠKah":3292,"Ġgunung":3293,"imum":3294,"Ġwad":3295,"ĠOp":3296,"Ġactress":3297,"ustri":3298,"ĠUtara":3299,"ĠsamÃ©mÃ©h":3300,"Ġfreeroll":3301,"Eur":3302,"ham":3303,"oung":3304,"wan":3305,"Ä±":3306,"ÄĹ":3307,"à¥":3308,"Ġed":3309,"Ġamb":3310,"Ġkun":3311,"erusna":3312,"Ġmotor":3313,"itle":3314,"iss":3315,"ĠMaj":3316,"eter":3317,"Ġnyata":3318,"ĠâĢĿ":3319,"revious":3320,"enerna":3321,"Ġacara":3322,"Ġbiasana":3323,"ĠQu":3324,"ĠKrist":3325,"ĠKAOS":3326,"Ġlumangsung":3327,"uz":3328,"à®":3329,"Ġsil":3330,"Ġtal":3331,"Ġmed":3332,"Ġmand":3333,"Ġneg":3334,"ĠSad":3335,"ikat":3336,"Ġlad":3337,"ors":3338,"Ġjelas":3339,"ĠBogor":3340,"ĠMod":3341,"ĠCir":3342,"Ġcal":3343,"epon":3344,"oftware":3345,"lang":3346,"yang":3347,"Ġkagi":3348,"Ġso":3349,"Ġdengan":3350,"Ġtangkal":3351,"Ġpama":3352,"Ġphotos":3353,"Ġnaw":3354,"ĠMin":3355,"Ġgeura":3356,"ĠLed":3357,"ĠLuh":3358,"otal":3359,"ĠEks":3360,"uanana":3361,"Ġsaurang":3362,"Ġturun":3363,"Teu":3364,"Ġ..":3365,"Ġsang":3366,"Ġmap":3367,"Ġnj":3368,"ĠSlot":3369,"urung":3370,"ĠPat":3371,"ĠPost":3372,"Ġhas":3373,"ulus":3374,"ĠJual":3375,"Ġ05":3376,"Ġmaneh":3377,"Ġngaronj":3378,"Ġbade":3379,"Ġbahasa":3380,"ĠPhil":3381,"Ġpangalaman":3382,"kas":3383,"way":3384,"euj":3385,"Ġkusabab":3386,"Ġtea":3387,"akin":3388,"ĠKop":3389,"ĠBunga":3390,"ĠMic":3391,"ily":3392,"ĠDep":3393,"awal":3394,"irang":3395,"iring":3396,"ĠCard":3397,"ĠRah":3398,"ekut":3399,"Ġata":3400,"Ġati":3401,"ower":3402,"ayanan":3403,"engku":3404,"Ġturnam":3405,"ĠâĨ":3406,"Ġmodels":3407,"ĠSumat":3408,"Ġkulawarga":3409,"ĠPolish":3410,"Ġfilter":3411,"Ġubar":3412,"Ġsumping":3413,"IK":3414,"eam":3415,"ft":3416,"ping":3417,"ĠÄ":3418,"Ġent":3419,"Ġapa":3420,"Ġko":3421,"Ġnd":3422,"ĠPus":3423,"osh":3424,"ĠwÃ©":3425,"Ġwil":3426,"Ġram":3427,"Ġnyar":3428,"icing":3429,"act":3430,"ekan":3431,"Ġint":3432,"ipt":3433,"ities":3434,"Ġsaukur":3435,"ĠAgung":3436,"ĠBahasa":3437,"DA":3438,"EC":3439,"PS":3440,"Ġnana":3441,"Ġnamb":3442,"Ġbub":3443,"amu":3444,"Ġdiajar":3445,"ĠKapt":3446,"Ġhog":3447,"awi":3448,"utup":3449,"ĠLanda":3450,"ajib":3451,"Ġ35":3452,"ewe":3453,"Ã©sÃ©mber":3454,"Ġspins":3455,"ove":3456,"Ġmasihan":3457,"ĠIndia":3458,"ayaning":3459,"ingga":3460,"asha":3461,"Ġpikiran":3462,"ojong":3463,"Ġtambahan":3464,"Ġnaked":3465,"ĠhadÃ©":3466,"2000":3467,"Sabrina":3468,"Ti":3469,"Âł":3470,"Ġaks":3471,"Ġidi":3472,"Ġkode":3473,"alma":3474,"Ġtong":3475,"enan":3476,"ĠAN":3477,"ĠDaniel":3478,"awak":3479,"umÃ©n":3480,"ukna":3481,"etik":3482,"etkeun":3483,"idikan":3484,"ograp":3485,"ĠâĢ¢":3486,"Ġ09":3487,"Ġperl":3488,"ĠAlam":3489,"Ġkarajaan":3490,"Ġoral":3491,"Ġstories":3492,"REE":3493,"Ġacan":3494,"ĠNyi":3495,"istrik":3496,"Ġcumshots":3497,"Ġmantuan":3498,"omatis":3499,"SUB":3500,"AJ":3501,"Basa":3502,"Ku":3503,"Nu":3504,"ms":3505,"nik":3506,"Ñı":3507,"Ġkan":3508,"ĠtÃ©":3509,"Ġtinggi":3510,"Ġmind":3511,"Ġbudaya":3512,"ĠSM":3513,"ĠSol":3514,"iksa":3515,"ĠKon":3516,"ĠBany":3517,"Ġhubungan":3518,"ĠCart":3519,"ĠNS":3520,"iman":3521,"antasy":3522,"ĠEur":3523,"ugh":3524,"Ġ31":3525,"Ġsalam":3526,"Ġpanalungt":3527,"oci":3528,"Ġ55":3529,"Ġ75":3530,"Ġngabogaan":3531,"outh":3532,"omboy":3533,"Ġ[[":3534,"Ġchip":3535,"Ġbangb":3536,"Ġsajarah":3537,"\",\"":3538,"ype":3539,"ĠMartin":3540,"ĠâĨĴ":3541,"Ġhogtied":3542,"81":3543,"Des":3544,"IA":3545,"jid":3546,"oan":3547,"Ġpoe":3548,"ĠSek":3549,"Ġlajeng":3550,"orth":3551,"ĠKiwari":3552,"ĠMay":3553,"ĠCas":3554,"ĠJÃ¨":3555,"ĠRaja":3556,"anggiri":3557,"eurkeun":3558,"Ġyou":3559,"Ġngalaman":3560,"uyasha":3561,"2016":3562,"umpul":3563,"Ġdimana":3564,"uliah":3565,"ĠKartijah":3566,"ĠturnamÃ©n":3567,"96":3568,"dim":3569,"fil":3570,"Ã³":3571,"Ġu":3572,"arasi":3573,"Ġkes":3574,"Ġsuw":3575,"Ġdad":3576,"Ġbapa":3577,"ĠMirah":3578,"ĠgawÃ©":3579,"Ġinuyasha":3580,"Ġ03":3581,"Ġ80":3582,"ingkungan":3583,"Ġumur":3584,"ĠDesa":3585,"ĠCoup":3586,"by":3587,"je":3588,"ran":3589,"za":3590,"Ġkos":3591,"Ġsw":3592,"Ġteg":3593,"Ġtungt":3594,"Ġpu":3595,"Ġpondok":3596,"Ġme":3597,"Ġminggu":3598,"Ġbak":3599,"eunt":3600,"urus":3601,"Ġjuta":3602,"ilor":3603,"ĠDJ":3604,"ĠDÃ©sÃ©mber":3605,"ĠJesus":3606,"Ġwork":3607,"ĠHar":3608,"Ġ::":3609,"ature":3610,"udio":3611,"likasi":3612,"USD":3613,"ension":3614,"Ġhandjobs":3615,"factur":3616,"Ġhideung":3617,"ĠprosÃ©s":3618,",][":3619,"94":3620,"lin":3621,"ning":3622,"sel":3623,"Ġqu":3624,"ale":3625,"atal":3626,"anging":3627,"ĠSari":3628,"ĠSri":3629,"ayung":3630,"ĠTop":3631,"emi":3632,"ĠVideos":3633,"Ġoff":3634,"Ġkatuhu":3635,"Ġstud":3636,"Ġtrad":3637,"eez":3638,"Anjeun":3639,"Ġeusi":3640,"baik":3641,"Ġleungit":3642,"ĠBuah":3643,"Urang":3644,"dit":3645,"fa":3646,"fo":3647,"ld":3648,"ler":3649,"rÃ©":3650,"Ġuc":3651,"Ġukuran":3652,"ater":3653,"isna":3654,"Ġjawab":3655,"Ġngandung":3656,"Ġger":3657,"ĠNAB":3658,"udah":3659,"ĠOct":3660,"Ġpangaw":3661,"ucu":3662,"unggul":3663,"Ġkahiji":3664,"Ġresep":3665,"ĠpamakÃ©an":3666,"blog":3667,"aram":3668,"Ġsuck":3669,"Ġtak":3670,"Ġtara":3671,"Ġtop":3672,"ĠtÃ©k":3673,"ĠtÃ©a":3674,"Ġmekar":3675,"Ġbul":3676,"ony":3677,"ulur":3678,"ĠDÃ¨":3679,"Ġgener":3680,"Ġwates":3681,"Ġrape":3682,"ĠFREE":3683,"ĠâĢº":3684,"ley":3685,"ambung":3686,"ees":3687,"lus":3688,"nak":3689,"str":3690,"Ġdaun":3691,"adan":3692,"Ġloka":3693,"Ġngarti":3694,"ĠKep":3695,"ĠDar":3696,"ĠDit":3697,"Ġgar":3698,"ĠCity":3699,"Ġfinal":3700,"Ġ02":3701,"empetan":3702,"ĠonÃ©":3703,"ĠpamarÃ©nt":3704,"Ã©bat":3705,"Ġteras":3706,"Ġngajadikeun":3707,"Ġthro":3708,"ĠMaret":3709,"Ġsexy":3710,"Ġlangit":3711,"yboys":3712,"ĠMÃ©i":3713,"At":3714,"SCON":3715,"ner":3716,"ui":3717,"Ġkeb":3718,"Ġkembang":3719,"Ġseni":3720,"ĠdÃ©sa":3721,"Ġdahar":3722,"iny":3723,"angna":3724,"Ġpari":3725,"ĠPanjang":3726,"Ġlaku":3727,"ĠKampung":3728,"ĠDaun":3729,"Ġgum":3730,"elan":3731,"ĠJepang":3732,"Ġwarna":3733,"ajah":3734,"Ġnyokot":3735,"Ġnyadiakeun":3736,"Ġfing":3737,"Ġfantasy":3738,"ijian":3739,"ugu":3740,"Ġsalila":3741,"Ġperlu":3742,"eulis":3743,"ĠIndian":3744,"eukeut":3745,"aptar":3746,"Ġbaheula":3747,"hareup":3748,"anuari":3749,"Ġtangtungan":3750,"Ġjelema":3751,"Ġladyboys":3752,"Pikeun":3753,"br":3754,"kuring":3755,"men":3756,"tikeun":3757,"uat":3758,"Ñĥ":3759,"Ġkira":3760,"Ġmis":3761,"Ġmend":3762,"Ġmangga":3763,"urr":3764,"itar":3765,"Ġlima":3766,"abung":3767,"ĠMul":3768,"agar":3769,"agam":3770,"ĠTour":3771,"elah":3772,"iding":3773,"ajikan":3774,"tions":3775,"Ġ33":3776,"Ã©ran":3777,"ova":3778,"Ġkarya":3779,"ĠArab":3780,"ĠBagus":3781,"Ġpopul":3782,"IAN":3783,"Ka":3784,"aa":3785,"dana":3786,"nu":3787,"par":3788,"Ġuga":3789,"Ġkayaning":3790,"Ġsc":3791,"Ġpih":3792,"Ġml":3793,"ĠmÃ©m":3794,"Ġner":3795,"ĠSun":3796,"urs":3797,"ĠDj":3798,"ĠDim":3799,"ĠDÃ©sa":3800,"ĠOut":3801,"Ġ32":3802,"atanÃ©":3803,"anjung":3804,"umbai":3805,"lotide":3806,"Ġtulisan":3807,"Ġahli":3808,"Ġmusik":3809,"ĠExtr":3810,"Ġcartoon":3811,"inaclotide":3812,"ky":3813,"pot":3814,"Ġpati":3815,"Ġbeung":3816,"Ġjang":3817,"ĠBisa":3818,"ĠTar":3819,"eme":3820,"Ġcamp":3821,"ĠRatna":3822,"ĠGer":3823,"ĠWar":3824,"Ġ48":3825,"Ġpernah":3826,"Ã©ngÃ©":3827,"2017":3828,"Ġkamar":3829,"Ġ2009":3830,"ĠMusic":3831,"ĠWithdr":3832,"Ġemas":3833,"ĠKaptÃ¨n":3834,"AA":3835,"XL":3836,"der":3837,"hanc":3838,"luk":3839,"pan":3840,"zz":3841,"ÙĪ":3842,"Ġsilih":3843,"Ġsiga":3844,"Ġdb":3845,"ĠSanajan":3846,"ĠPi":3847,"irik":3848,"ianj":3849,"Ġpanc":3850,"Ġkasempetan":3851,"empah":3852,"ĠYork":3853,"anji":3854,"asting":3855,"Ġdigimon":3856,"Ġï¿½ï¿½ï¿½ï¿½ï¿½ï¿½ï¿½ï¿½ï¿½ï¿½ï¿½ï¿½ï¿½":3857,"Ġsupl":3858,"ruari":3859,"ĠCarolina":3860,"umaah":3861,"ĠSeptember":3862,"Ġtidur":3863,"Ġfingering":3864,"IB":3865,"Im":3866,"Next":3867,"cess":3868,"kr":3869,"sex":3870,"Ġbob":3871,"ams":3872,"itung":3873,"ĠPel":3874,"ĠBan":3875,"ĠBro":3876,"Ġga":3877,"Ġgor":3878,"irt":3879,"ĠCib":3880,"ĠGame":3881,"udang":3882,"ĠUK":3883,"âĢĿ.":3884,"Ġspank":3885,"argi":3886,"ĠAcÃ©h":3887,"ĠChina":3888,"euman":3889,"Ġsawates":3890,"Ġanggota":3891,"Ø§ÙĦ":3892,"ĠKulit":3893,"Ġorganisasi":3894,"ĠSumatra":3895,"Ġpanalungtikan":3896,"Ac":3897,"IM":3898,"PC":3899,"ein":3900,"jalan":3901,"kal":3902,"ria":3903,"rist":3904,"ufactur":3905,"Ã±":3906,"ÑĮ":3907,"Ġkop":3908,"Ġsik":3909,"unÃ©":3910,"Ġhur":3911,"ĠTa":3912,"ĠDec":3913,"irst":3914,"ĠRom":3915,"ogi":3916,"antu":3917,"antik":3918,"obaan":3919,"Ġsabrina":3920,"Ġsailor":3921,"avi":3922,"....âĢĿ":3923,"Ġdijalan":3924,"awasna":3925,"Ġlaut":3926,"Ġsurat":3927,"ĠSubur":3928,"98":3929,"Tags":3930,"Un":3931,"din":3932,"à¸":3933,"Ġengg":3934,"Ġkart":3935,"Ġsus":3936,"Ġtanda":3937,"aksa":3938,"euning":3939,"ĠSaj":3940,"ĠMel":3941,"ĠHD":3942,"ĠHiji":3943,"eksi":3944,"Ġibu":3945,"ĠFak":3946,"Ġpert":3947,"ĠVal":3948,"ĠkabÃ©h":3949,"Ġadmin":3950,"uyu":3951,"nggÃ¨r":3952,"ĠAgust":3953,"ĠTrans":3954,"Ġdirina":3955,"Ġsintr":3956,"ĠAndroid":3957,"Ġputra":3958,"ĠMixer":3959,"?\"":3960,"Aya":3961,"Mal":3962,"Tag":3963,"kira":3964,"mar":3965,"rag":3966,"sal":3967,"ĠÅ":3968,"Ġaman":3969,"Ġkelas":3970,"Ġsl":3971,"iness":3972,"Ġtet":3973,"Ġpuguh":3974,"Ġmaj":3975,"ĠmÃ©n":3976,"ĠmÃ©dia":3977,"ĠSc":3978,"ĠAv":3979,"Ġlingkungan":3980,"ĠBand":3981,"ĠMag":3982,"Ġharti":3983,"Ġgr":3984,"oto":3985,"ampahan":3986,"Ġasal":3987,"Ġ41":3988,"Ġ46":3989,"Ã©ra":3990,"ASA":3991,"Ġngarobah":3992,"ualitas":3993,"Ġpasar":3994,"ments":3995,"AMB":3996,"Ġpossib":3997,"Ġdbz":3998,"Out":3999,"go":4000,"yong":4001,"Ã¼":4002,"âĤ¬":4003,"Ġomong":4004,"Ġserv":4005,"Ġninggalkeun":4006,"ĠSl":4007,"ĠSong":4008,"ĠPengg":4009,"inga":4010,"Ġjat":4011,"ĠBumbu":4012,"ĠhÃ©bat":4013,"uluy":4014,"ĠCode":4015,"ĠJag":4016,"Ġkaula":4017,"ĠRaya":4018,"ĠRob":4019,"euri":4020,"Ġ39":4021,"riv":4022,"ĠAll":4023,"Ġall":4024,"rain":4025,"Ġ70":4026,"earch":4027,"****":4028,"Naon":4029,"ĠAyeuna":4030,"KabataanPalikuran":4031,"ĠpamaÃ©n":4032,"Dis":4033,"IMP":4034,"oja":4035,"vent":4036,"Ġsis":4037,"Ġsamb":4038,"Ġsami":4039,"asang":4040,"Ġpet":4041,"ĠmÃ¨":4042,"Ġbatu":4043,"Ġbisnis":4044,"Ġdianggap":4045,"âĢĶ":4046,"ĠBaru":4047,"ĠTegal":4048,"ulang":4049,"Ġrec":4050,"Ġpanag":4051,"Ġï¿½ï¿½ï¿½ï¿½ï¿½ï¿½,":4052,"Ġsabenerna":4053,"Ġmangrupikeun":4054,"Ð°Ð":4055,"Ġlesbians":4056,"php":4057,"ĠSemalt":4058,"ĠKacamatan":4059,"ĠhatÃ©":4060,"ĠLounder":4061,"ravel":4062,"ĠJÃ¨nggÃ¨r":4063,"93":4064,"LRB":4065,"RRB":4066,"Tapi":4067,"fer":4068,"fir":4069,"Ġef":4070,"aruh":4071,"arep":4072,"alahan":4073,"Ġsuku":4074,"Ġschool":4075,"inter":4076,"Ġmung":4077,"Ġbok":4078,"ï¿½ï¿½ï¿½ï¿½ï¿½":4079,"ĠSap":4080,"Ġlagi":4081,"Ġanj":4082,"tai":4083,"tact":4084,"irkeun":4085,"ĠJanuari":4086,"olan":4087,"ĠGe":4088,"okan":4089,"ube":4090,"Ġantarana":4091,"Ġapal":4092,"Ġmere":4093,"Ġsajati":4094,"ĠPasanggiri":4095,"ĠBaguhan":4096,"Ġartikel":4097,"ĠKulon":4098,"ĠnÃ©angan":4099,"Ġnanaon":4100,"dimension":4101,"Ġpossible":4102,"GG":4103,"UD":4104,"mosi":4105,"ple":4106,"wood":4107,"Â»":4108,"onos":4109,"unikasi":4110,"Ġhate":4111,"Ġgen":4112,"iru":4113,"ĠIl":4114,"epan":4115,"entara":4116,"sip":4117,"ĠWager":4118,"Ġaing":4119,"ugan":4120,"ibr":4121,"ohan":4122,"Ġkasebut":4123,"mail":4124,"uju":4125,"Ġdisney":4126,"thal":4127,"ther":4128,"Ã©ngk":4129,"ĠPerancis":4130,"ĠAss":4131,"Ġdildo":4132,"Ġbabarengan":4133,"Ġmeunangkeun":4134,"Ġenya":4135,"Ġngaranna":4136,"ĠJuice":4137,"Ġjurusan":4138,"lobal":4139,"ĠWithdrawal":4140,"199":4141,"basa":4142,"alang":4143,"Ġsen":4144,"Ġtoko":4145,"Ġtugas":4146,"Ġpo":4147,"Ġmot":4148,"Ġmeuli":4149,"Ġnep":4150,"urat":4151,"aduhan":4152,"ĠMo":4153,"uluh":4154,"Ġgratis":4155,"ĠEmb":4156,"Ġ04":4157,"ecial":4158,"Ġ47":4159,"ĠmanÃ©h":4160,"Ġpangh":4161,"ĠAmer":4162,"Ġ65":4163,"Ġlatino":4164,"Ġkarasa":4165,"Ġkatingal":4166,"ĠPrabu":4167,"Ġ2008":4168,"unten":4169,"spot":4170,"Ġbuah":4171,"Ġwalungan":4172,"akonan":4173,"ĠAuto":4174,"Ab":4175,"CC":4176,"Car":4177,"Jual":4178,"LE":4179,"ged":4180,"mad":4181,"mun":4182,"yat":4183,"Äĥ":4184,"Ġo":4185,"askeun":4186,"Ġpup":4187,"erry":4188,"ĠPemb":4189,"Ġanim":4190,"umutkeun":4191,"elang":4192,"osa":4193,"ĠJus":4194,"Ġrum":4195,"ĠLinaclotide":4196,"ĠIce":4197,"ĠRed":4198,"udeureun":4199,"Ġaturan":4200,"Ġ36":4201,"urangan":4202,"Ã©rah":4203,"raz":4204,"ersey":4205,"Ġversi":4206,"Ġpamajikan":4207,"print":4208,"Ġngahontal":4209,"Ġenyong":4210,"ĠÃ©y":4211,"ĠMobile":4212,"ĠJanuary":4213,"Ġkagiatan":4214,"sexual":4215,"David":4216,"Id":4217,"Kas":4218,"Pol":4219,"Previous":4220,"bag":4221,"ho":4222,"murah":4223,"Ġkn":4224,"ason":4225,"asta":4226,"Ġpem":4227,"Ġpabrik":4228,"erd":4229,"Ġne":4230,"akuan":4231,"onÃ©":4232,"itra":4233,"unkeun":4234,"Ġjiwa":4235,"apor":4236,"ĠCol":4237,"Ġcat":4238,"ĠNaha":4239,"ĠNabi":4240,"ĠHid":4241,"anto":4242,"Ġasalna":4243,"Ġsalawasna":4244,"Ġmaning":4245,"Ġï¿½ï¿½ï¿½ï¿½ï¿½ï¿½ï¿½,":4246,"2011":4247,"ingkatkeun":4248,"encana":4249,"Ġroh":4250,"empatkeun":4251,"Ġngahasilkeun":4252,"Ġpatali":4253,"ĠBlender":4254,"Ġtitik":4255,"ĠDesign":4256,"ĠNaon":4257,"Ġtranssexual":4258,"ĠCirebon":4259,"ĠEkstrak":4260,"ekutip":4261,"91":4262,"Bl":4263,"Ph":4264,"get":4265,"site":4266,"tt":4267,"Ġengk":4268,"atar":4269,"Ġsuk":4270,"Ġdong":4271,"Ġtun":4272,"asakeun":4273,"Ġmungkin":4274,"Ġnulis":4275,"uruk":4276,"ĠPad":4277,"Ġle":4278,"Ġngant":4279,"ĠBiji":4280,"ĠBanj":4281,"ĠBekel":4282,"ĠCianj":4283,"Ġwangun":4284,"Ġwungkul":4285,"Ġnyal":4286,"uhkeun":4287,"udul":4288,"ebook":4289,"Ġprint":4290,"Ġjalur":4291,"ĠKuala":4292,"ount":4293,"Ġngawengku":4294,"ustralia":4295,"Ġperkara":4296,"abalin":4297,"Ġkowen":4298,"ĠKopral":4299,"Ġbangbros":4300,"ĠExtractor":4301,"thalate":4302,"Bijian":4303,"Mar":4304,"RA":4305,"THT":4306,"].":4307,"kake":4308,"tip":4309,"îĻ":4310,"Ġ*":4311,"Ã©ri":4312,"aham":4313,"Ġmov":4314,"Ġnit":4315,"akas":4316,"aktu":4317,"ĠPand":4318,"Ġjob":4319,"esh":4320,"ĠBaju":4321,"ĠMumbai":4322,"using":4323,"umen":4324,"ire":4325,"ĠJadi":4326,"Ġrat":4327,"upi":4328,"ĠRempah":4329,"ijina":4330,"ope":4331,"rew":4332,"Ġkalah":4333,"Ġpanungt":4334,"Ġmanuk":4335,"ĠproyÃ©k":4336,"âĢ¦.":4337,"Ġmaranehna":4338,"pasar":4339,"ĠTerbaru":4340,"ĠKalurahan":4341,"omba":4342,"Ġmoon":4343,"ĠAbdi":4344,"ĠPenghanc":4345,"ĠPenggiling":4346,"ĠPenghancur":4347,"EO":4348,"UK":4349,"bi":4350,"ger":4351,"hen":4352,"jp":4353,"ml":4354,"my":4355,"nika":4356,"set":4357,"ï¼":4358,"Ġemb":4359,"ĠÃ©k":4360,"aning":4361,"euacan":4362,"att":4363,"Ġses":4364,"inj":4365,"Ġtep":4366,"Ġnunjuk":4367,"amah":4368,"ĠPT":4369,"ĠPem":4370,"ĠKaki":4371,"Ġanal":4372,"Ġgol":4373,"ĠJumaah":4374,"001":4375,"iden":4376,"Ġnyawa":4377,"eka":4378,"ĠOff":4379,"Ġ38":4380,"Ġkasus":4381,"Ġsakitu":4382,"waaz":4383,"ĠBlack":4384,"ology":4385,"EW":4386,"LO":4387,"Lamun":4388,"Makeup":4389,"Th":4390,"mer":4391,"por":4392,"yo":4393,"Äģ":4394,"Ġ~":4395,"atara":4396,"Ġmuka":4397,"Ġbers":4398,"Ġbentuk":4399,"ĠSatan":4400,"ayam":4401,"ĠKit":4402,"ĠBandar":4403,"ĠMil":4404,"Ġgrosir":4405,"ely":4406,"Ġ299":4407,"ĠJack":4408,"eungit":4409,"ĠIb":4410,"udut":4411,"ebar":4412,"ampong":4413,"ĠWord":4414,"ĠWikip":4415,"ĠEr":4416,"ector":4417,"ambarkeun":4418,"indung":4419,"Ġkabeh":4420,"Ġbareng":4421,"aksana":4422,"hoto":4423,"Ġngahubungan":4424,"Ġlalampahan":4425,"Ġlauk":4426,"Ġkomputer":4427,"ĠPanyekel":4428,"ARI":4429,"IG":4430,"Up":4431,"net":4432,"pert":4433,"vid":4434,"Ġkek":4435,"ats":4436,"Ġdalam":4437,"Ġlol":4438,"Ġlog":4439,"ĠMB":4440,"Ġgeulis":4441,"eli":4442,"elli":4443,"Ġcicing":4444,"ĠNY":4445,"Ġrem":4446,"olas":4447,"idik":4448,"ihat":4449,"obana":4450,"iano":4451,"ĠProf":4452,"2012":4453,"á®ª":4454,"Ġbabaturan":4455,"usiah":4456,"Ġdimimitian":4457,"Ġdesign":4458,"ĠSurabaya":4459,"Ġgallery":4460,"Ġoleh":4461,"blogspot":4462,"Image":4463,"300":4464,"day":4465,"fik":4466,"ÙĨ":4467,"Ġada":4468,"Ġdew":4469,"Ġpand":4470,"erasi":4471,"ening":4472,"iko":4473,"abel":4474,"ĠBut":4475,"ĠTang":4476,"eld":4477,"ĠCg":4478,"ĠLam":4479,"ĠLight":4480,"Ġfr":4481,"artos":4482,"ipil":4483,"Ġ34":4484,"Ġsabudeureun":4485,"amanan":4486,"Ġdipake":4487,"Ġngagaduhan":4488,"Ġngabaluk":4489,"ðŁĴ":4490,"Ġmilu":4491,"ĠBlog":4492,"ĠÐ¿":4493,"Ã©mbongkeun":4494,"yano":4495,"Ġproduksi":4496,"Ġtahun":4497,"ĠsÃ©jÃ©nna":4498,"Ġpausahaan":4499,"Ġbeureum":4500,"ĠJayÃ¨ng":4501,"Ġtradisi":4502,"ĠAgustus":4503,"Ġngabalukarkeun":4504,".âĢľ":4505,"cang":4506,"gy":4507,"nan":4508,"ten":4509,"ÙĬ":4510,"ĠîĻ":4511,"Ġki":4512,"Ġsk":4513,"Ġsangg":4514,"Ġsigana":4515,"inas":4516,"inos":4517,"Ġmes":4518,"ĠSo":4519,"ĠSabab":4520,"ĠPR":4521,"ĠPot":4522,"Ġngembang":4523,"ĠBed":4524,"ĠMust":4525,"ĠMori":4526,"agang":4527,"Ġhis":4528,"ungai":4529,"ĠComp":4530,"Ġcac":4531,"Ġwomen":4532,"ĠLaga":4533,"enteu":4534,"Ġtiff":4535,"ebo":4536,"ebat":4537,"amba":4538,"itional":4539,"istan":4540,"inding":4541,"stem":4542,"Ġunivers":4543,"Ġkomo":4544,"que":4545,"ĠManufactur":4546,"Anjeunna":4547,"iyah":4548,"Ġmenit":4549,"Ġkimonos":4550,"ubliko":4551,"Ġnangtung":4552,"Ġgalleries":4553,"ĠîĻŁ":4554,"Ġtiffany":4555,"CL":4556,"CT":4557,"PI":4558,"dang":4559,"kon":4560,"lass":4561,"wi":4562,"ĠÃ©n":4563,"Ġkantor":4564,"Ġduanana":4565,"inasi":4566,"Ġpit":4567,"Ġmu":4568,"euneu":4569,"amis":4570,"ĠSu":4571,"ĠSAR":4572,"eny":4573,"ĠAz":4574,"itakeun":4575,"untu":4576,"Ġhib":4577,"ĠTaun":4578,"ĠTomboy":4579,"ĠDan":4580,"edik":4581,"rok":4582,"Ġreg":4583,"Ġrumah":4584,"ajajaran":4585,"ĠHer":4586,"ĠWay":4587,"anggu":4588,"ariah":4589,"Ġperang":4590,"ists":4591,"Ġpangaruh":4592,"Ġsaka":4593,"anca":4594,"ĠArch":4595,"Ġsupaya":4596,"Ġwalon":4597,"--------":4598,"ĠSuppli":4599,"erlukeun":4600,"ĠPurw":4601,"ulullah":4602,"ĠDÃ¨ck":4603,"Ġkartu":4604,"500":4605,"EU":4606,"Naha":4607,"cm":4608,"eo":4609,"hol":4610,"so":4611,"tina":4612,"ĠØ":4613,"Ġom":4614,"Ġsu":4615,"Ġmangka":4616,"Ġbuka":4617,"amaha":4618,"ĠSim":4619,"uruan":4620,"ĠPend":4621,"ĠBot":4622,"ĠBulan":4623,"ĠBatu":4624,"Ġhitu":4625,"ĠTemb":4626,"ulasi":4627,"awu":4628,"emat":4629,"ĠCan":4630,"roup":4631,"ropa":4632,"Ġras":4633,"Ġnyarita":4634,"ogy":4635,"obat":4636,"ĠEd":4637,"Ġ06":4638,"Ġï¿½ï¿½ï¿½ï¿½ï¿½,":4639,"Ġï¿½ï¿½ï¿½ï¿½ï¿½.":4640,"alankeun":4641,"Ġkasampak":4642,"Ġ//":4643,"ormat":4644,"ĠPerdana":4645,"Ġpasukan":4646,"umpulan":4647,"Ġsato":4648,"iews":4649,"ÑģÑĤ":4650,"Ġsampurna":4651,"resna":4652,"ĠAuthor":4653,"ĠWalanda":4654,"Ġistilah":4655,"Ġtumuwuh":4656,"jpg":4657,");":4658,"bar":4659,"las":4660,"loka":4661,"pap":4662,"rit":4663,"uu":4664,"zon":4665,"Â°":4666,"inis":4667,"ines":4668,"inals":4669,"asah":4670,"erta":4671,"ĠSanggeus":4672,"ĠAsia":4673,"ĠPed":4674,"adir":4675,"uni":4676,"abah":4677,"ungu":4678,"ĠDo":4679,"Ġgrup":4680,"Ġcap":4681,"Ġcarana":4682,"uti":4683,"ĠJl":4684,"0010":4685,"eungeun":4686,"ĠLive":4687,"andi":4688,"ĠGab":4689,"ĠGuna":4690,"ĠHasan":4691,"Ġsakuliah":4692,"ĠProduc":4693,"press":4694,"Ġdibawa":4695,"Ġngajaga":4696,"Ġkado":4697,"Ġmaot":4698,"yarakat":4699,"ĠDios":4700,"amatloka":4701,"Ġsawatara":4702,"Ġstreet":4703,"Ġdipikawanoh":4704,"ategori":4705,"Ġnarima":4706,"echn":4707,"Ġngadegkeun":4708,"ĠDenpasar":4709,"Ġngaronjatkeun":4710,"ĠSatanas":4711,"Dip":4712,"rik":4713,"va":4714,"Ã§":4715,"Ã´":4716,"Ġkem":4717,"alu":4718,"alog":4719,"Ġtik":4720,"Ġningkatkeun":4721,"adeg":4722,"unia":4723,"Ġleres":4724,"abor":4725,"Ġjuj":4726,"ayak":4727,"essi":4728,"ĠKh":4729,"ĠBa":4730,"ĠBlouse":4731,"ĠTasik":4732,"ilai":4733,"Ġgeuning":4734,"ĠColl":4735,"Ġwere":4736,"eki":4737,"Ġaf":4738,"Ġ52":4739,"Ġ57":4740,"Ã©san":4741,"itual":4742,"Ã©to":4743,"Ġkaro":4744,"ision":4745,"umbang":4746,"allery":4747,"Ã©ngs":4748,"2013":4749,"ĠPerlis":4750,"á®Ķ":4751,"ertas":4752,"Ġsaprak":4753,"ture":4754,"tures":4755,"Ġaplikasi":4756,"Ġtits":4757,"Ġtaneuh":4758,"Ġnurutkeun":4759,"Con":4760,"FR":4761,"kar":4762,"pal":4763,"put":4764,"yak":4765,"Ġet":4766,"Ġsimb":4767,"Ġsuci":4768,"Ġsoftware":4769,"inar":4770,"inum":4771,"ange":4772,"angl":4773,"Ġpip":4774,"Ġbung":4775,"ames":4776,"Ġhi":4777,"ĠTo":4778,"ĠDI":4779,"ollow":4780,"ental":4781,"Ġfungsi":4782,"Ġair":4783,"angkalan":4784,"ibu":4785,"ews":4786,"ĠYou":4787,"euleu":4788,"Ġngarah":4789,"umbaan":4790,"Ġawewe":4791,"ife":4792,"Ġkahayang":4793,"Ġkomentar":4794,"Ġumat":4795,"Ġindung":4796,"***":4797,"Ã©pt":4798,"ĠPasir":4799,"Press":4800,"Ġpercaya":4801,"Ġinget":4802,"Amateur":4803,"Ġperlumbaan":4804,"Ġpangaweruh":4805,"Ġbokep":4806,"Ġpanungtungan":4807,"Bonus":4808,"Cont":4809,"ION":4810,"ced":4811,"door":4812,"nd":4813,"rid":4814,"yogi":4815,"Ã¶":4816,"Ñĩ":4817,"Ġ@":4818,"Ġ{":4819,"Ġkampung":4820,"alkeun":4821,"atch":4822,"Ġdom":4823,"Ġdev":4824,"Ġmai":4825,"ĠbÃ©":4826,"âĢĵ":4827,"ited":4828,"adid":4829,"Ġlampu":4830,"ĠKaw":4831,"ĠBe":4832,"ĠBank":4833,"ĠDistr":4834,"Ġgo":4835,"ĠCal":4836,"ĠCotton":4837,"Ġcust":4838,"engi":4839,"ets":4840,"Ġwujud":4841,"Ġrusiah":4842,"idth":4843,"ĠRa":4844,"ĠRo":4845,"ico":4846,"ĠGrosir":4847,"Ã©rsi":4848,"ĠInst":4849,"Ġkasalahan":4850,"Ġ59":4851,"Ġdiperlukeun":4852,"Ġ77":4853,"Ġpres":4854,"Ġkatut":4855,"Ġayam":4856,"ĠNgal":4857,"Ġthongs":4858,"ARA":4859,"ards":4860,"Ġsaterusna":4861,"ives":4862,"alsal":4863,"ĠAbdul":4864,"Ġkulit":4865,"Ġelmu":4866,"ĠPhthalate":4867,"ajengna":4868,"Ġampir":4869,"Ġdress":4870,"Ġlokal":4871,"Ġmindeng":4872,"Ġstudents":4873,"Ġdijalani":4874,"ðŁĴµ":4875,",,":4876,"ye":4877,"Ġek":4878,"Ġev":4879,"Ġema":4880,"ĠØ§ÙĦ":4881,"atih":4882,"Ġdang":4883,"Ġtil":4884,"Ġbik":4885,"ĠSas":4886,"adc":4887,"Ġher":4888,"ĠTag":4889,"ĠTek":4890,"ĠDem":4891,"olot":4892,"idÃ©n":4893,"icle":4894,"ĠGampong":4895,"ampuh":4896,"ĠUjang":4897,"ece":4898,"rive":4899,"etail":4900,"ĠYang":4901,"Ġmasing":4902,"Ã©bruari":4903,"ĠChip":4904,"Ġimp":4905,"impi":4906,"usive":4907,"ĠLatest":4908,"icholas":4909,"ĠMuslim":4910,"ĠServer":4911,"Ġmaysa":4912,"Ġotomatis":4913,"Ġbukkake":4914,"Ġhave":4915,"ĠCenter":4916,"ĠJatnika":4917,"Man":4918,"OU":4919,"Ya":4920,"konomi":4921,"lic":4922,"wikip":4923,"Âº":4924,"Ãł":4925,"Ġ?":4926,"Ġeks":4927,"Ġklik":4928,"Ġsed":4929,"Ġtusing":4930,"Ġpre":4931,"Ġnon":4932,"Ġban":4933,"Ġbec":4934,"ĠSL":4935,"enian":4936,"itute":4937,"ado":4938,"une":4939,"Ġngr":4940,"ĠMon":4941,"taw":4942,"ireun":4943,"uturkeun":4944,"ĠNus":4945,"ĠNational":4946,"Ġwaw":4947,"Ġweruh":4948,"Ġnyarios":4949,"otak":4950,"antje":4951,"ekarkeun":4952,"egah":4953,"Ġaut":4954,"ĠUm":4955,"uble":4956,"ters":4957,"Ġyakin":4958,"Ġalesan":4959,"AND":4960,"eulah":4961,"indah":4962,"Ġngajalankeun":4963,"Ġabad":4964,"illa":4965,"ource":4966,"ĠAbah":4967,"ÑģÐº":4968,"agsas":4969,"ĠPutra":4970,"Ġsolusi":4971,"Ġhttps":4972,"Ġiklan":4973,"âĨĳ":4974,"ĠDoors":4975,"ĠMartinelli":4976,"IF":4977,"ML":4978,"áĥ":4979,"Ġud":4980,"Ġsaya":4981,"Ġpun":4982,"ĠSul":4983,"onesia":4984,"ĠPK":4985,"Ġlaju":4986,"illah":4987,"uly":4988,"ĠDay":4989,"ĠCil":4990,"Ġwani":4991,"Ġramatloka":4992,"Ġsarees":4993,"ĠEp":4994,"ubur":4995,"oda":4996,"ĠVantje":4997,"ĠsaÃ©":4998,"Ġparab":4999,"Ġawakna":5000,"paat":5001,"imbangan":5002,"elaskeun":5003,"Ġmimit":5004,"clusive":5005,"ĠCashOut":5006,"Ġibadah":5007,"ĠEnglish":5008,"Ġtunai":5009,"92":5010,"Dic":5011,"view":5012,"vail":5013,"ĠdÃ©w":5014,"Ġtunggal":5015,"ahl":5016,"Ġmab":5017,"Ġmore":5018,"Ġnasional":5019,"ĠPC":5020,"ĠPap":5021,"ĠPasar":5022,"ĠPajajaran":5023,"Ġngid":5024,"ĠKem":5025,"ĠKeb":5026,"ĠKitu":5027,"ĠBad":5028,"ĠBest":5029,"ĠMak":5030,"agering":5031,"ulÃ©":5032,"edit":5033,"ollo":5034,"ihang":5035,"Ã©ni":5036,"ĠFac":5037,"eureum":5038,"riend":5039,"exe":5040,"Ġngalaksanakeun":5041,"Ġsaatos":5042,"arger":5043,"uwÃ©":5044,"2018":5045,"Ġdigital":5046,"eaut":5047,"Ġtanah":5048,"Ġahir":5049,"Ġdatangna":5050,"ĠBahru":5051,"ropÃ©a":5052,"Ġpolos":5053,"iriman":5054,"Product":5055,"Ġcocog":5056,"Ġlega":5057,"Artist":5058,"hareupan":5059,"ĠSliding":5060,"razil":5061,"agsasalsal":5062,".]":5063,"EUR":5064,"Kar":5065,"Kami":5066,"Mun":5067,"Pang":5068,"YA":5069,"dus":5070,"nb":5071,"nc":5072,"rasi":5073,"ser":5074,"work":5075,"}}":5076,"Ġadi":5077,"Ġkm":5078,"Ġsapi":5079,"Ġsemp":5080,"Ġsieun":5081,"Ġtepi":5082,"Ġmac":5083,"Ġbol":5084,"Ġbany":5085,"eund":5086,"ĠSk":5087,"ayer":5088,"Ġngak":5089,"Ġnganc":5090,"ĠKos":5091,"ĠTaj":5092,"ĠNO":5093,"ĠJeh":5094,"ĠLang":5095,"ĠLib":5096,"omi":5097,"ictor":5098,"Ġfitur":5099,"igawÃ©":5100,"ublish":5101,"ĠOt":5102,"ambang":5103,"Ġperyogi":5104,"Ġ58":5105,"Ġ500":5106,"Ġmani":5107,"ANJ":5108,"Ġ$(":5109,"ĠYayan":5110,"inton":5111,"onton":5112,"ormal":5113,"2014":5114,"Ġawal":5115,"Ġunsur":5116,"imbang":5117,"ĠMalang":5118,"Ġkulon":5119,"Ġporno":5120,"Ġurusan":5121,"Ġsamping":5122,"Ġangin":5123,"Ġbutts":5124,"ibutyl":5125,"ĠRasulullah":5126,"ĠUlun":5127,"ĠGeusan":5128,"ĠDipingpin":5129,"ĠÄĳ":5130,"Ġslut":5131,"Ġefek":5132,"II":5133,"Jalan":5134,"NC":5135,"Or":5136,"Per":5137,"ns":5138,"san":5139,"td":5140,"ween":5141,"Ñĭ":5142,"alaman":5143,"ĠsÃ©l":5144,"Ġdak":5145,"Ġtok":5146,"Ġbed":5147,"ĠSe":5148,"ĠSen":5149,"ĠSil":5150,"ono":5151,"ĠPag":5152,"ĠPara":5153,"ĠPÃ©bruari":5154,"ike":5155,"Ġjual":5156,"Ġjiga":5157,"ĠBant":5158,"agÃ©":5159,"ĠDam":5160,"ĠCi":5161,"ĠNop":5162,"images":5163,"ĠJuw":5164,"Ġraga":5165,"ĠLan":5166,"Ġnyer":5167,"Ġia":5168,"ĠOs":5169,"Ġ37":5170,"Ã©ku":5171,"ANT":5172,"enda":5173,"anci":5174,"Ġditulis":5175,"erial":5176,"Ġparusahaan":5177,"ashion":5178,"Ġngawangun":5179,"ababkeun":5180,"Ġpuluh":5181,"Ġfile":5182,"ĠKameez":5183,"Ġcocks":5184,"Ġdalem":5185,"Ġkanyataan":5186,"iptakeun":5187,"ĠOctober":5188,"ĠomongÃ©":5189,"Ġmovies":5190,"400":5191,"Is":5192,"Sak":5193,"Sum":5194,"ber":5195,"ball":5196,"iu":5197,"ior":5198,"kab":5199,"areng":5200,"Ġkut":5201,"atab":5202,"Ġdel":5203,"Ġbeda":5204,"ĠSouth":5205,"itch":5206,"ĠKaj":5207,"ĠKumaha":5208,"ĠTanjung":5209,"ilis":5210,"ĠDig":5211,"ĠDinan":5212,"ements":5213,"elek":5214,"ukul":5215,"rong":5216,"ĠLuk":5217,"oman":5218,"ĠIS":5219,"ogikeun":5220,"ĠGir":5221,"Ã©nÃ©":5222,"oku":5223,"Ġfirst":5224,"read":5225,"ohor":5226,"Ġyour":5227,"Ġ53":5228,"Ġ54":5229,"Ġï¿½ï¿½ï¿½ï¿½ï¿½ï¿½.":5230,"ĠVideo":5231,"ujan":5232,"ĠAmor":5233,"Ġarah":5234,"ĠManÃ©hna":5235,"Ġindustri":5236,"ĠUnt":5237,"Ġsajab":5238,"ĠApollo":5239,"Ġdisebutkeun":5240,"Ġpeny":5241,"play":5242,"Ġtambah":5243,"Ġkelly":5244,"yrics":5245,"andingkeun":5246,"China":5247,"Ġsakali":5248,"Ġjenis":5249,"eaming":5250,"Ġnunjukkeun":5251,"Kumaha":5252,"No":5253,"OW":5254,"Si":5255,"cul":5256,"for":5257,"iar":5258,"led":5259,"yh":5260,"Åį":5261,"Ġ99":5262,"Ġph":5263,"Ġpenc":5264,"Ġnik":5265,"Ġnajan":5266,"Ġnempatkeun":5267,"Ġblous":5268,"ĠSuci":5269,"ĠSungai":5270,"Ġdiangkat":5271,"ĠAj":5272,"ista":5273,"Ġjer":5274,"Ġngumpul":5275,"uss":5276,"usun":5277,"ususna":5278,"agian":5279,"Ġgand":5280,"ĠCor":5281,"Ġcek":5282,"ĠJer":5283,"Ġ150":5284,"ajak":5285,"Ġnyat":5286,"oker":5287,"ampil":5288,"ampura":5289,"tri":5290,"ody":5291,"ambaran":5292,"Ġ49":5293,"Ġperusahaan":5294,"ĠÂ«":5295,"alif":5296,"uwuhan":5297,"html":5298,"avy":5299,"ĠSalwar":5300,"ĠDaily":5301,"Ġdagang":5302,"ÐµÐ":5303,"Add":5304,"ĠUtama":5305,"ĠBatrÃ©":5306,"Ġpendidikan":5307,"Ġtujuh":5308,"Ġdayeuh":5309,"ĠWilujeng":5310,"Ġlahir":5311,"ĠpamarÃ©ntah":5312,"ĠJehova":5313,"ĠJuwÃ¨r":5314,"!\"":5315,"You":5316,"bat":5317,"fat":5318,"ject":5319,"pen":5320,"yal":5321,"ÙĲ":5322,"Ġ}":5323,"ano":5324,"arjam":5325,"Ġsir":5326,"Ġdaya":5327,"aster":5328,"Ġnam":5329,"aket":5330,"akter":5331,"ĠAma":5332,"ading":5333,"adem":5334,"uny":5335,"esir":5336,"Ġngayakeun":5337,"ĠKin":5338,"ĠKantor":5339,"emium":5340,"Ġgame":5341,"osna":5342,"Ġcash":5343,"ĠJAMB":5344,"ety":5345,"Ġindi":5346,"ĠWe":5347,"ariw":5348,"lex":5349,"ĠAlamat":5350,"istro":5351,"Ã©sidÃ©n":5352,"index":5353,"Ġ79":5354,"alikna":5355,"ENT":5356,"estasi":5357,"Ġawi":5358,"ills":5359,"Ġlatins":5360,"Ġdilakukeun":5361,"Ġumah":5362,"Ġusum":5363,"shi":5364,"Ġplug":5365,"ĠDesain":5366,"Ġngamimitian":5367,"Ġconto":5368,"ĠGarut":5369,"ebruary":5370,"Ġpohara":5371,"ĠPhilips":5372,"Ġtungtung":5373,"ĠsintrÃ¨n":5374,"ĠWordPress":5375,"ĠWikipÃ©dia":5376,"AMA":5377,"CS":5378,"Casting":5379,"KI":5380,"Sp":5381,"Sunda":5382,"ken":5383,"oa":5384,"title":5385,"Ìģ":5386,"Ġeng":5387,"Ġapi":5388,"Ġapan":5389,"Ġked":5390,"Ġkamb":5391,"alana":5392,"Ġsec":5393,"Ġtag":5394,"Ġtemp":5395,"Ġtinta":5396,"Ġpangan":5397,"Ġpapada":5398,"Ġmir":5399,"Ġboys":5400,"Ġdianggo":5401,"Ġlow":5402,"Ġlink":5403,"abuh":5404,"orang":5405,"orial":5406,"esian":5407,"Ġngob":5408,"ĠKidul":5409,"use":5410,"Ġhade":5411,"apak":5412,"ĠCare":5413,"Ġcons":5414,"Ġ2000":5415,"enge":5416,"rog":5417,"ĠwÃ©b":5418,"Ġreview":5419,"ĠLeb":5420,"idato":5421,"ĠIr":5422,"ĠIst":5423,"ĠRec":5424,"ĠHeb":5425,"Ġinv":5426,"Ġatau":5427,"Ġ300":5428,"Ġasli":5429,"Ġsalajengna":5430,"Ġpanang":5431,"Ġ51":5432,"ĠVi":5433,"istance":5434,"ĠYu":5435,"ONG":5436,"Ã©la":5437,"Ġadd":5438,"Ġadda":5439,"2015":5440,"asts":5441,"Ġjalmi":5442,"ĠShow":5443,"eneran":5444,"Ġkomunikasi":5445,"Ġsateuacan":5446,"Ġ2007":5447,"ĠdaÃ©rah":5448,"ĠpagawÃ©":5449,"Ġpikaresep":5450,"ĠSadaya":5451,"Ġwilayah":5452,"Ġpihak":5453,"jalanan":5454,"Ġenggeus":5455,"ĠFakta":5456,"ogyakarta":5457,"Bab":5458,"Flor":5459,"bum":5460,"lak":5461,"less":5462,"me":5463,"pol":5464,"ÄĽ":5465,"Ùĩ":5466,"Ġkum":5467,"Ġkapan":5468,"Ġkiy":5469,"Ġsif":5470,"Ġsangs":5471,"Ġsimp":5472,"Ġtand":5473,"Ġpi":5474,"Ġmam":5475,"ĠmatanÃ©":5476,"uruh":5477,"oni":5478,"Ġdiantara":5479,"ĠAf":5480,"ĠlÃ©n":5481,"Ġjs":5482,"ĠBh":5483,"ĠBul":5484,"ĠBuy":5485,"ĠMur":5486,"Ġhan":5487,"ĠTip":5488,"tain":5489,"ilar":5490,"uktur":5491,"Ġwor":5492,"omot":5493,"Ġ(#":5494,"ĠRock":5495,"ict":5496,"ĠGratis":5497,"ĠHentai":5498,"ĠHenteu":5499,"antuan":5500,"Ġfuck":5501,"ario":5502,"âĢĿ,":5503,"Ġ\".":5504,"Ġngala":5505,"Ġngalakonan":5506,"Ġmastikeun":5507,"ungkas":5508,"ungkinan":5509,"Ġunik":5510,"ific":5511,"Ġiman":5512,"ĠAdos":5513,"ĠAsli":5514,"ĠSize":5515,"Ġpikir":5516,"ĠMaximum":5517,"Ġsastra":5518,"Ġbeurat":5519,"ĠBiografi":5520,"ĠÃīksekutip":5521,"malaya":5522,"Ġtidak":5523,"mahal":5524,"\")":5525,"GT":5526,"OG":5527,"Res":5528,"Sab":5529,"bab":5530,"date":5531,"iasaan":5532,"kat":5533,"kop":5534,"now":5535,"uf":5536,"Ġkok":5537,"Ġkidul":5538,"aler":5539,"Ġdulur":5540,"asih":5541,"Ġmata":5542,"ĠSB":5543,"ĠST":5544,"ĠSex":5545,"adina":5546,"orit":5547,"ĠKun":5548,"ĠBay":5549,"Ġhia":5550,"awatan":5551,"utusan":5552,"Ġwarga":5553,"ĠrÃ©s":5554,"ĠrÃ©a":5555,"idah":5556,"omor":5557,"ajo":5558,".....":5559,"ĠGu":5560,"Ġft":5561,"ebu":5562,"ĠWeb":5563,"uba":5564,"tive":5565,"Ġasih":5566,"ĠAnt":5567,"ujukan":5568,"Ġngarojong":5569,"Ġngagambarkeun":5570,"Ġngadamel":5571,"ency":5572,"ĠÃīkonomi":5573,"Ġ2005":5574,"Ġdaerah":5575,"ĠÐ²":5576,"Ð¸Ð":5577,"ĠtekÃ©n":5578,"ï¿½ï¿½ï¿½ï¿½ï¿½ï¿½ï¿½ï¿½ï¿½":5579,"Ġbeurang":5580,"Ġbasis":5581,"Ġdarma":5582,"ĠBusiness":5583,"Ġujian":5584,"Ġtapak":5585,"ĠCasino":5586,"ĠCouple":5587,"ĠPembuang":5588,"Ã©ngsÃ©":5589,"ĠTajmahal":5590,"Ay":5591,"BS":5592,"EG":5593,"EP":5594,"Tah":5595,"bul":5596,"ii":5597,"jeung":5598,"mana":5599,"nt":5600,"raga":5601,"sum":5602,"tom":5603,"ĠÃ©m":5604,"Ġest":5605,"aro":5606,"Ġkertas":5607,"Ġsr":5608,"Ġsip":5609,"Ġsirah":5610,"Ġdem":5611,"anga":5612,"Ġtaw":5613,"Ġmaksud":5614,"Ġnanya":5615,"ako":5616,"Ġbisi":5617,"amar":5618,"amot":5619,"ĠPOL":5620,"Ġlayanan":5621,"ayalam":5622,"ĠMeul":5623,"agn":5624,"ĠTal":5625,"ĠTuan":5626,"ĠDunya":5627,"ĠCara":5628,"Ġcas":5629,"ede":5630,"ĠNorth":5631,"Ġwidang":5632,"idad":5633,"idiri":5634,"ache":5635,"Ġtib":5636,"Ġfl":5637,"ĠWall":5638,"ĠWÃ©tan":5639,"ĠWIB":5640,"adio":5641,"odo":5642,"itif":5643,"Ġsabaraha":5644,"Ã©sus":5645,"ĠYÃ©sus":5646,"ĠAmpang":5647,"Ġlatihan":5648,"ĠChrist":5649,"ĠCherry":5650,"ormasi":5651,"astik":5652,"Ġstat":5653,"Ġstandar":5654,"Ġtrus":5655,"ĠMarket":5656,"eumpang":5657,"Ġ2006":5658,"ĠAsyano":5659,"Ġdilaksanakeun":5660,"Ġulama":5661,"Ġmanaj":5662,"Ġkakara":5663,"Ġsanes":5664,"Ġhandapeun":5665,"Ġputri":5666,"ĠSystem":5667,"Ġsekolah":5668,"ĠsamÃ©mÃ©hna":5669,"Ġmikir":5670,"Ġnembongkeun":5671,"Ġjaringan":5672,"ĠPrinting":5673,"ĠStreet":5674,"OPTR":5675,"ĠSloto":5676,"ĠPusat":5677,"Phone":5678,"Ġindivid":5679,"BA":5680,"EUN":5681,"HA":5682,"Ter":5683,"dis":5684,"fÃ©k":5685,"mina":5686,"ren":5687,"sik":5688,"uah":5689,"uage":5690,"ven":5691,"Ġover":5692,"Ġkamp":5693,"Ġsign":5694,"inya":5695,"erita":5696,"Ġbot":5697,"Ġblouse":5698,"amÃ©n":5699,"ĠSund":5700,"ĠdiropÃ©a":5701,"ikiran":5702,"Ġlul":5703,"oris":5704,"ĠKaca":5705,"Ġhang":5706,"ĠTits":5707,"apur":5708,"ĠDua":5709,"Ġcent":5710,"ĠJamb":5711,"Ġwel":5712,"ĠLe":5713,"idangkeun":5714,"Ġnyet":5715,"ĠIP":5716,"ĠReview":5717,"aci":5718,"entah":5719,"entot":5720,"ongg":5721,"araan":5722,"Ġinc":5723,"ĠFlo":5724,"ĠWan":5725,"ĠWagering":5726,"anggung":5727,"ĠEm":5728,"Ġaff":5729,"lop":5730,"ugust":5731,"ĠOf":5732,"Ġ56":5733,"endah":5734,"Ġpromosi":5735,"unggulan":5736,"Ġturunan":5737,"eyel":5738,"ĠStory":5739,"Ġkahwin":5740,"ĠÃīropa":5741,"Ġkonci":5742,"Ġobat":5743,"Ġkakaw":5744,"Ġurut":5745,"Ġeuy":5746,"GCSE":5747,"ĠPutih":5748,"Ġbasajan":5749,"Ġlebah":5750,"Ġgagasan":5751,"ĠOriginal":5752,"ĠUsaha":5753,"Ġanimation":5754,"Ġcatetan":5755,"FRAG":5756,"Ã©ptÃ©mber":5757,"wikipedia":5758,"ĠNopÃ©mber":5759,"MI":5760,"PK":5761,"Pal":5762,"Rp":5763,"TMP":5764,"nat":5765,"oons":5766,"wong":5767,"yle":5768,"Ġkula":5769,"erangan":5770,"amata":5771,"ĠSÃ©ptÃ©mber":5772,"ene":5773,"Ġdiro":5774,"ĠApa":5775,"ĠPink":5776,"ĠPark":5777,"adak":5778,"Ġngaku":5779,"Ġngirim":5780,"ĠBodas":5781,"ĠMe":5782,"ĠMalah":5783,"Ġhanj":5784,"ĠTina":5785,"ĠTok":5786,"app":5787,"Ġgig":5788,"Ġgeg":5789,"ĠCam":5790,"Ġcum":5791,"ett":5792,"etakan":5793,"oli":5794,"oma":5795,"otato":5796,"ĠRJ":5797,"Ã©hatan":5798,"Ġtiis":5799,"Ġï¿½ï¿½ï¿½ï¿½ï¿½ï¿½ï¿½ï¿½,":5800,"ĠInter":5801,"ĠYogyakarta":5802,"inder":5803,"euweung":5804,"store":5805,"ĠIndah":5806,"ĠkarÃ©ta":5807,"uarkeun":5808,"umpur":5809,"Ġforced":5810,"INA":5811,"Ġisuk":5812,"Ġsadia":5813,"Ġï¿½ï¿½ï¿½ï¿½ï¿½ï¿½ï¿½ï¿½ï¿½ï¿½ï¿½ï¿½ï¿½ï¿½":5814,"arkoba":5815,"ĠJohn":5816,"Ġstrateg":5817,"Ġtelepon":5818,"Ġkepala":5819,"Ġbetween":5820,"ĠInternational":5821,"Åĭa":5822,"Ġjagat":5823,"ĠCianjur":5824,"ĠHeboh":5825,"Ġpikaresepeun":5826,"Kaca":5827,"Kampung":5828,"Reg":5829,"cont":5830,"hh":5831,"hal":5832,"jongan":5833,"ker":5834,"lina":5835,"son":5836,"Ġakan":5837,"Ġeureun":5838,"Ã©o":5839,"Ġseuneu":5840,"inah":5841,"Ġtemb":5842,"Ġtembang":5843,"Ġmult":5844,"aker":5845,"Ġbros":5846,"ĠSchool":5847,"ĠPop":5848,"iskeun":5849,"Ġlaka":5850,"Ġlistrik":5851,"aboh":5852,"Ġngatur":5853,"Ġngurangan":5854,"ĠBas":5855,"ĠMu":5856,"ĠTut":5857,"apana":5858,"Ġcab":5859,"Ġcangk":5860,"edi":5861,"ĠNicholas":5862,"ĠJal":5863,"Ġnyiptakeun":5864,"ĠIGCSE":5865,"ĠGR":5866,"ĠHand":5867,"ants":5868,"ego":5869,"Ã©kan":5870,"anganÃ©":5871,"Ġmanah":5872,"ANA":5873,"Ġdiperc":5874,"intas":5875,"ĠCheck":5876,"ĠPerm":5877,"order":5878,"Ġdef":5879,"ĠBlue":5880,"Ġsiap":5881,"ĠSaÃ©ni":5882,"Ã©jo":5883,"Ġplat":5884,"Ġpagawe":5885,"Ġresmi":5886,"ĠClass":5887,"asupkeun":5888,"Ġpokna":5889,"AYA":5890,"Ġmutuskeun":5891,"tivitas":5892,"ĠUpami":5893,"Ġnyanghareupan":5894,"ĠInternet":5895,"ĠUniversity":5896,"intonkeun":5897,"Ġsajabana":5898,"499":5899,"Big":5900,"HK":5901,"bener":5902,"back":5903,"hers":5904,"mus":5905,"nyan":5906,"ĠÃ©s":5907,"aruhan":5908,"Ġkuk":5909,"Ġkantos":5910,"Ġped":5911,"Ġpaka":5912,"Ġmaju":5913,"Ġnov":5914,"Ġband":5915,"ĠSU":5916,"ĠSaw":5917,"ĠSalah":5918,"ĠAfr":5919,"itut":5920,"ĠPes":5921,"ĠPort":5922,"adegan":5923,"ĠBib":5924,"ĠBumi":5925,"ĠMent":5926,"ĠMaran":5927,"Ġanti":5928,"Ġhatur":5929,"Ġhujan":5930,"ĠCeu":5931,"ĠCit":5932,"ukut":5933,"ĠNang":5934,"ĠNas":5935,"ĠRad":5936,"ĠRoul":5937,"ĠGreen":5938,"aranÃ©":5939,"ampi":5940,"ĠWa":5941,"ĠWir":5942,"eusina":5943,"ibatkeun":5944,"ĠAnyar":5945,"ĠAli":5946,"Ġalamat":5947,"euteup":5948,"oven":5949,"Ġpamingpin":5950,"ASS":5951,"stein":5952,"vey":5953,"Ġageung":5954,"Ġsahingga":5955,"uality":5956,"Ġkadang":5957,"Ġakun":5958,"abric":5959,"antosan":5960,"ĠPangeran":5961,"ĠAyam":5962,"ĠThis":5963,"ĠprofÃ©si":5964,"ĠUSD":5965,"Ġlemah":5966,"Ġnampi":5967,"ĠPulsa":5968,"ĠBanyo":5969,"Ġjatidiri":5970,"Ġneangan":5971,"ĠManufacturer":5972,"ĠTasikmalaya":5973,"))":5974,"KS":5975,"Type":5976,"aut":5977,"dina":5978,"fl":5979,"mos":5980,"pm":5981,"pormasi":5982,"tro":5983,"Ġ00":5984,"Ġà¤":5985,"arak":5986,"Ġkey":5987,"Ã©y":5988,"ales":5989,"Ġseg":5990,"Ġtimb":5991,"asing":5992,"Ġpur":5993,"erja":5994,"Ġmati":5995,"Ġmaks":5996,"Ġmuter":5997,"Ġnarik":5998,"Ġbin":5999,"Ġbay":6000,"Ġbre":6001,"Ġbatan":6002,"eunah":6003,"ĠSr":6004,"ĠAR":6005,"ĠAustralia":6006,"ĠPers":6007,"adia":6008,"unk":6009,"Ġlam":6010,"ores":6011,"Ġjah":6012,"Ġngor":6013,"ĠBenz":6014,"ĠME":6015,"Ġhawa":6016,"Ġheubeul":6017,"ĠTH":6018,"ĠTamb":6019,"ĠDew":6020,"ĠDÃ¨wÃ¨kÃ©":6021,"awuh":6022,"Ġgaya":6023,"ĠCel":6024,"ĠCip":6025,"Ġcor":6026,"ĠIT":6027,"uhang":6028,"ĠRoy":6029,"iharep":6030,"aco":6031,"acks":6032,"Ã¨d":6033,"rey":6034,"Ã©kat":6035,"owok":6036,"Ġpannak":6037,"istim":6038,"arees":6039,"ujug":6040,"ujuan":6041,"ĠYamaha":6042,"ĠAman":6043,"Ġdeuih":6044,"Ġ64":6045,"Ġmasyarakat":6046,"Ġ84":6047,"Ġditamb":6048,"Ġadab":6049,"ĠAria":6050,"ĠawakÃ©":6051,"á®¤":6052,"ashstore":6053,"nggal":6054,"ĠMarch":6055,"rosoft":6056,"Ġblack":6057,"Ġmuslim":6058,"etepkeun":6059,"lands":6060,"ĠSubang":6061,"ĠAku":6062,"ĠNyai":6063,"ĠUSA":6064,"]],":6065,"Ġnawarkeun":6066,"ibril":6067,"Florist":6068,"ĠMeulaboh":6069,"eyelashstore":6070,"==":6071,"EA":6072,"Kom":6073,"NA":6074,"bl":6075,"dy":6076,"fe":6077,"pos":6078,"ric":6079,"ualan":6080,"wah":6081,"Ġeur":6082,"ĠÃ©t":6083,"Ġkant":6084,"Ġkirang":6085,"Ġkanji":6086,"alis":6087,"Ġsuks":6088,"Ġtam":6089,"asna":6090,"Ġnilai":6091,"Ġbing":6092,"ĠSok":6093,"itna":6094,"ĠPD":6095,"ĠPics":6096,"ĠPadang":6097,"Ġlawang":6098,"Ġlakar":6099,"Ġjobs":6100,"Ġngul":6101,"ĠMei":6102,"usul":6103,"Ġhayu":6104,"edding":6105,"ĠNext":6106,"ĠNatal":6107,"omas":6108,"Ġtiap":6109,"artment":6110,"tron":6111,"Ã¨s":6112,"embar":6113,"ĠnaÃ©k":6114,"ohong":6115,"ocrat":6116,"ches":6117,"Ġsakay":6118,"euleuman":6119,"Ġone":6120,"aturah":6121,"Ġtheir":6122,"arge":6123,"Ġ72":6124,"Ġngarasakeun":6125,"Ġkabiasaan":6126,"Ġkatilu":6127,"2010":6128,"150":6129,"ĠPrice":6130,"erto":6131,"Ġsapop":6132,"ilaing":6133,"......":6134,"Ġsawah":6135,"Ġahirna":6136,"Ġposisi":6137,"Ġmulang":6138,"ĠKerja":6139,"Ġsimkuring":6140,"ĠArchives":6141,"Ġjsb":6142,"Ap":6143,"He":6144,"Jadi":6145,"Mat":6146,"NT":6147,"Pan":6148,"Pas":6149,"Sup":6150,"Top":6151,"VC":6152,"VD":6153,"bay":6154,"ces":6155,"fig":6156,"jag":6157,"uas":6158,"ÅŁ":6159,"arm":6160,"Ġkata":6161,"Ġsering":6162,"Ġdada":6163,"insip":6164,"Ġpent":6165,"Ġpeg":6166,"ered":6167,"Ġmol":6168,"uripan":6169,"Ġditer":6170,"isik":6171,"uns":6172,"Ġlub":6173,"abur":6174,"ĠKare":6175,"ĠBen":6176,"ĠBola":6177,"ĠMedia":6178,"Ġhd":6179,"apon":6180,"Ġgay":6181,"Ġgusti":6182,"Ġgawe":6183,"elar":6184,"Ġcu":6185,"Ġcoll":6186,"ĠNG":6187,"ĠLain":6188,"ajuan":6189,"Ġnyamp":6190,"epas":6191,"ican":6192,"ĠGea":6193,"okna":6194,"antan":6195,"Ã©hkeun":6196,"Ġfak":6197,"eureuy":6198,"adiah":6199,"och":6200,"ĠdipigawÃ©":6201,"Ã©sÃ©":6202,"Ġ69":6203,"Ġsaur":6204,"Ġ78":6205,"euhan":6206,"Ã©ngkah":6207,"anyol":6208,"ARGA":6209,"Ġimport":6210,"Ġ90":6211,"Anu":6212,"Ġupama":6213,"ologis":6214,"Ã©ntang":6215,"ouse":6216,"Ġpilem":6217,"aza":6218,"Ġmayar":6219,"ĠKaulinan":6220,"emony":6221,"Ġcartoons":6222,"adahal":6223,"Ġnangtukeun":6224,"ĠMetro":6225,"Ġdosa":6226,"Ġinternet":6227,"Ġespir":6228,"ĠTahun":6229,"ĠRusia":6230,"ability":6231,"ography":6232,"ĠtÃ©knologi":6233,"Ġanjog":6234,"ĠNusantara":6235,"Ġparabot":6236,"ĠRoulette":6237,"ĠprofÃ©sional":6238,"101":6239,"Com":6240,"Hiji":6241,"OTA":6242,"cel":6243,"hu":6244,"tle":6245,"ÛĮ":6246,"ãĥ":6247,"anjeunna":6248,"eue":6249,"aren":6250,"Ġseuri":6251,"angon":6252,"Ġtakon":6253,"asaran":6254,"Ġmemb":6255,"Ġmund":6256,"Ġnan":6257,"akina":6258,"Ġbit":6259,"Ġbeunang":6260,"ĠSin":6261,"ĠSeb":6262,"ury":6263,"ados":6264,"isata":6265,"Ġlel":6266,"Ġlucu":6267,"Ġjudul":6268,"Ġngel":6269,"Ġngir":6270,"ĠKo":6271,"ĠTab":6272,"ulungan":6273,"awati":6274,"emu":6275,"elepon":6276,"Ġcalan":6277,"ĠNajan":6278,"ĠNasional":6279,"Ġwayang":6280,"ĠrÃ©ngsÃ©":6281,"idar":6282,"ompa":6283,"ajati":6284,"Ġnyak":6285,"upati":6286,"ogoh":6287,"ĠGL":6288,"Ġip":6289,"obahan":6290,"Ġins":6291,"ipkeun":6292,"lock":6293,"ative":6294,"Ġsalaki":6295,"raft":6296,"ĠVersi":6297,"Ġpangl":6298,"Ġ68":6299,"ALAN":6300,"onstr":6301,"Ġadat":6302,"Ġunt":6303,"Ġsatengah":6304,"Ġkamungkinan":6305,"Ġ2001":6306,"orea":6307,"Ġakhir":6308,"ĠSaudi":6309,"hael":6310,"\":\"":6311,"Ġdipikaresep":6312,"coin":6313,"ismo":6314,"Ġtutuwuhan":6315,"Ġamparan":6316,"ĠImam":6317,"erluan":6318,"Ġmiu":6319,"Ġcoup":6320,"ĠGaluh":6321,"ĠCardinals":6322,"Ġaksara":6323,"lusif":6324,"Ġbeungeut":6325,"ĠsuplemÃ©n":6326,"Ġhurip":6327,"essional":6328,"ĠSLTA":6329,"ĠUntold":6330,"ĠkiyÃ©":6331,"%)":6332,"Rep":6333,"Siz":6334,"Tr":6335,"Total":6336,"Video":6337,"cs":6338,"cing":6339,"gn":6340,"leng":6341,"lÃ©s":6342,"met":6343,"mac":6344,"oint":6345,"sun":6346,"wana":6347,"yek":6348,"zona":6349,"Â«":6350,"ÙĴ":6351,"Ġkli":6352,"Ġkanu":6353,"Ġtol":6354,"Ġtamu":6355,"aharan":6356,"Ġmust":6357,"Ġnami":6358,"Ġbir":6359,"Ġbeh":6360,"Ġbandung":6361,"ister":6362,"iks":6363,"Ġleumpang":6364,"ĠBB":6365,"ĠBahan":6366,"ĠBapa":6367,"ĠBudak":6368,"ĠBanten":6369,"agikeun":6370,"Ġgug":6371,"ĠCeuk":6372,"ĠCover":6373,"uto":6374,"ĠNet":6375,"ĠNepi":6376,"Ġwill":6377,"Ġnyeri":6378,"ĠRat":6379,"ĠGambar":6380,"udin":6381,"Ã©nan":6382,"ĠHol":6383,"size":6384,"ega":6385,"ream":6386,"Ġperjalanan":6387,"ocal":6388,"Ġvar":6389,"inda":6390,"intang":6391,"argana":6392,"Ġ81":6393,"Ġpamadegan":6394,"Ã©ngg":6395,"akÃ©an":6396,"osting":6397,"ungkur":6398,"iform":6399,"onde":6400,"Ã©wan":6401,"ĠBagian":6402,"ĠAwet":6403,"dress":6404,"Ã¡n":6405,"crib":6406,"âĢ¦âĢ¦âĢ¦âĢ¦":6407,"isme":6408,"ĠDress":6409,"ĠKecil":6410,"Ġdayta":6411,"Ġiraha":6412,"Ġwanita":6413,"Ġsepuh":6414,"ĠFilm":6415,"ĠaksÃ©s":6416,"Ġgumantung":6417,"ĠHideung":6418,"Ġlolobana":6419,"Ġngembangkeun":6420,"ĠCompany":6421,"ĠSupplier":6422,"Ġomongan":6423,"vailable":6424,"nbc":6425,"ĠSBH":6426,".)":6427,"Bar":6428,"Blog":6429,"Geus":6430,"Ing":6431,"JU":6432,"Page":6433,"SS":6434,"San":6435,"Source":6436,"fikasi":6437,"kin":6438,"lung":6439,"ring":6440,"sit":6441,"sup":6442,"Ð²":6443,"Øª":6444,"á¹":6445,"Ġoc":6446,"Ġongk":6447,"Ġkeng":6448,"Ġkotak":6449,"Ġsul":6450,"Ġsaan":6451,"Ġtahan":6452,"ĠtÃ©ks":6453,"ĠpÃ©r":6454,"Ġpindah":6455,"Ġmain":6456,"ĠSW":6457,"ĠSMA":6458,"Ġdia":6459,"ĠPos":6460,"unot":6461,"Ġluyu":6462,"abs":6463,"ĠBak":6464,"ĠBos":6465,"ĠBrow":6466,"ĠMana":6467,"Ġhant":6468,"ĠTak":6469,"ĠTips":6470,"ĠTechn":6471,"ĠDinding":6472,"Ġgat":6473,"ele":6474,"ĠCahaya":6475,"impin":6476,"Ġwajib":6477,"Ġwanci":6478,"Ġrag":6479,"Ġref":6480,"olf":6481,"olusi":6482,"ĠLtd":6483,"ĠRe":6484,"iction":6485,"ĠGet":6486,"udayaan":6487,"Ġsari":6488,"oke":6489,"Ġinpormasi":6490,"Ġkub":6491,"arankeun":6492,"ĠFeb":6493,"ampa":6494,"embah":6495,"Ġpanangan":6496,"ĠYa":6497,"ĠYour":6498,"Ġmasks":6499,"Ġdistr":6500,"ungguhan":6501,"Ġadu":6502,"Ġadalah":6503,"Ġkapal":6504,"anium":6505,"ever":6506,"eunangkeun":6507,"ĠManehna":6508,"Ġniat":6509,"OBAL":6510,"eller":6511,"Ġdimaksud":6512,"formation":6513,"oldid":6514,"ĠApple":6515,"Ġpuseur":6516,"ĠâĢ¦.":6517,"Ġpanto":6518,"Ġmulih":6519,"ĠmaÃ©nkeun":6520,"Ġwhich":6521,"Ġkontrol":6522,"bania":6523,"Ġceremony":6524,"Ġpoho":6525,"ĠCartesian":6526,"ĠgorÃ©ng":6527,"Ġsukma":6528,"Ġtradisional":6529,"Ġemail":6530,"atabase":6531,"Ġplugin":6532,"ĠGLOBAL":6533,"CND":6534,"Pam":6535,"SKU":6536,"Tina":6537,"XX":6538,"cara":6539,"cache":6540,"eer":6541,"hip":6542,"ield":6543,"pi":6544,"px":6545,"tim":6546,"Ð¿":6547,"Ø³":6548,"ĠĠ":6549,"eux":6550,"arch":6551,"ĠkÃ©to":6552,"atangan":6553,"Ġside":6554,"Ġden":6555,"Ġdahon":6556,"Ġdrive":6557,"Ġtangk":6558,"Ġtentang":6559,"asari":6560,"Ġping":6561,"Ġpint":6562,"Ġmit":6563,"Ġnal":6564,"Ġbangk":6565,"Ġbalan":6566,"Ġbuy":6567,"ĠSm":6568,"ĠSah":6569,"ĠSant":6570,"âĢİ":6571,"ĠAB":6572,"ĠAL":6573,"ĠPower":6574,"ĠPubliko":6575,"Ġluh":6576,"Ġjersey":6577,"esa":6578,"Ġngur":6579,"ĠKor":6580,"ĠKow":6581,"ĠKarta":6582,"ĠMer":6583,"Ġany":6584,"ago":6585,"Ġho":6586,"ĠTum":6587,"ĠTime":6588,"ĠTags":6589,"ĠDal":6590,"irus":6591,"ĠCr":6592,"Ġcur":6593,"ĠNumber":6594,"ĠJar":6595,"Ġwww":6596,"Ġrain":6597,"ĠLampung":6598,"ĠRatu":6599,"epatan":6600,"ihi":6601,"ĠGuru":6602,"ĠHaji":6603,"ante":6604,"ampilan":6605,"eureuh":6606,"ĠEta":6607,"Ã¨l":6608,"opedia":6609,"ĠOF":6610,"odeu":6611,"Ġnaek":6612,"Ġvia":6613,"Ġsakur":6614,"indi":6615,"Ġ62":6616,"Ġ63":6617,"Ġ76":6618,"ALI":6619,"apanjang":6620,"anyaho":6621,"ĠngadÃ©ngÃ©":6622,"Ġkadaharan":6623,"Ġmaip":6624,"lywood":6625,"ondang":6626,"Ġulang":6627,"ĠSalaku":6628,"Ġhirupna":6629,"Ð°ÑĢ":6630,"ultan":6631,"Ġbuana":6632,"Ġbutt":6633,"ĠkonsumÃ©n":6634,"Ġclick":6635,"Ġbukti":6636,"Exclusive":6637,"ĠmÃ©u":6638,"ootball":6639,"Ã¨tnan":6640,"Ġdokter":6641,"Ġidiay":6642,"ĠSolo":6643,"Ġthrough":6644,"Ġdahareun":6645,"ursus":6646,"Ġkopi":6647,"Ġservice":6648,"aporkeun":6649,"Ġuniversitas":6650,"untuyan":6651,"ĠTembongkeun":6652,"ĠGabug":6653,"ĠProducts":6654,"ĠkambÃ¨n":6655,"110":6656,"Ah":6657,"Bah":6658,"For":6659,"OV":6660,"Rus":6661,"Saj":6662,"TP":6663,"];":6664,"baj":6665,"hon":6666,"jadi":6667,"ret":6668,"ux":6669,"wo":6670,"zed":6671,"Ä°":6672,"Å¡":6673,"ãģ":6674,"Ġangkat":6675,"ĠÃ©dit":6676,"Ġkil":6677,"Ġkand":6678,"Ġkuna":6679,"Ġkayu":6680,"Ġkebon":6681,"atak":6682,"Ġsay":6683,"Ġsina":6684,"Ġtra":6685,"Ġtime":6686,"Ġtacan":6687,"Ġpic":6688,"ahang":6689,"Ġnumutkeun":6690,"Ġbeut":6691,"Ġback":6692,"amÃ©m":6693,"Ġding":6694,"Ġdiant":6695,"ĠAwaaz":6696,"ĠAugust":6697,"adilan":6698,"Ġlir":6699,"Ġleuweung":6700,"abar":6701,"Ġjakarta":6702,"ayasan":6703,"esome":6704,"esale":6705,"Ġngum":6706,"ĠMim":6707,"Ġhayam":6708,"ĠTor":6709,"ĠDari":6710,"ĠDavid":6711,"Ġgaris":6712,"Ġciri":6713,"etak":6714,"Ġkaum":6715,"Ġnyababkeun":6716,"ĠIbu":6717,"upay":6718,"ĠRumah":6719,"epend":6720,"ĠGold":6721,"okus":6722,"Ġfound":6723,"angkang":6724,"ĠOra":6725,"embangan":6726,"Ġasp":6727,"Ã©ka":6728,"Ã©rÃ©s":6729,"ĠVit":6730,"ending":6731,"area":6732,"Ġmangpaat":6733,"Ġ66":6734,"Ġ85":6735,"anjar":6736,"ĠPrÃ©sidÃ©n":6737,"Ġngajak":6738,"paatkeun":6739,"Ġuniform":6740,"onda":6741,"ondon":6742,"Ġsadar":6743,"Ġdeep":6744,"Ġmilarian":6745,"Ġdijadikeun":6746,"Ġsiya":6747,"Ġdicokot":6748,"untut":6749,"aching":6750,"ĠExpert":6751,"ĠTanah":6752,"Ġsinyal":6753,"Ġfilm":6754,"ĠKamera":6755,"Ð½Ð¸":6756,"ituduh":6757,"amelan":6758,"ĠPaling":6759,"ĠSingap":6760,"ĠAngk":6761,"ĠTurki":6762,"Ġsejenna":6763,"ĠkowÃ©":6764,"ĠPillow":6765,"asiswa":6766,"ĠKristen":6767,"eujeung":6768,"Ġsalamina":6769,"ĠDitambah":6770,"Ġthroat":6771,"ĠDecember":6772,"Ġadministr":6773,"Ġsambungan":6774,"Ġrohangan":6775,"ĠMustapa":6776,"Ġcustomer":6777,"Ġngobrol":6778,"ocratic":6779,"):":6780,"Daf":6781,"IV":6782,"Jeung":6783,"Mas":6784,"Name":6785,"OH":6786,"Peng":6787,"UF":6788,"Ur":6789,"bandung":6790,"lit":6791,"oi":6792,"pur":6793,"ues":6794,"vert":6795,"xi":6796,"Ġaku":6797,"Ġour":6798,"Ġkeun":6799,"alon":6800,"alaki":6801,"aton":6802,"atel":6803,"Ġshot":6804,"Ġdek":6805,"Ġdarat":6806,"Ġdaptar":6807,"ĠduwÃ©":6808,"anget":6809,"Ġmy":6810,"Ġmud":6811,"ĠnÃ©mbongkeun":6812,"Ġnuturkeun":6813,"Ġbukan":6814,"Ġbunga":6815,"Ġbeulah":6816,"Ġbapana":6817,"itis":6818,"ĠPL":6819,"adar":6820,"adÃ©":6821,"uning":6822,"Ġlis":6823,"Ġlil":6824,"orot":6825,"Ġjej":6826,"Ġngl":6827,"Ġngara":6828,"ĠKeur":6829,"Ġhususna":6830,"ĠTe":6831,"apu":6832,"apulo":6833,"ungs":6834,"irid":6835,"ĠCH":6836,"ĠCro":6837,"Ġcik":6838,"Ġcel":6839,"ĠcÃ©k":6840,"ĠNagara":6841,"ĠJibril":6842,"Ġwell":6843,"olak":6844,"olor":6845,"ĠLoba":6846,"ĠLajeng":6847,"ĠLumpur":6848,"ids":6849,"Ġnyi":6850,"Ġnyeb":6851,"ĠRM":6852,"ĠRem":6853,"ices":6854,"ĠGlass":6855,"ĠsarÃ©":6856,"Ġsarupa":6857,"antes":6858,"oday":6859,"Ġkalapa":6860,"off":6861,"Ġperhat":6862,"Ġyoung":6863,"Ġï¿½ï¿½ï¿½ï¿½ï¿½ï¿½ï¿½.":6864,"ĠVictor":6865,"atural":6866,"argaan":6867,"Ġproduc":6868,"ASI":6869,"uwan":6870,"uwong":6871,"Ġagung":6872,"Ġmarkas":6873,"akses":6874,"ĠPrab":6875,"Ġdibikeun":6876,"ĠNgaran":6877,"ĠPersi":6878,"Ġpasangan":6879,"á®ŀ":6880,"Ġabout":6881,"yarna":6882,"ĠDiy":6883,"Ġkompl":6884,"ĠkamÃ©ra":6885,"ĠdigawÃ©":6886,"loth":6887,"Ġcomp":6888,"ship":6889,"ĠKabataanPalikuran":6890,"ĠSpanyol":6891,"Ġstreaming":6892,"Ġpadagang":6893,"ĠForex":6894,"Ġother":6895,"ĠTeens":6896,"Ġrahayat":6897,"ungkinkeun":6898,"âĨĲ":6899,"Ġento":6900,"Ġnambahan":6901,"ĠÅĳ":6902,"ĠBanjir":6903,"ĠNgaliwatan":6904,"Ġsifat":6905,"Daftar":6906,"624":6907,"AI":6908,"Fil":6909,"NG":6910,"Nya":6911,"SP":6912,"Saw":6913,"Title":6914,"bang":6915,"car":6916,"gi":6917,"grosir":6918,"jing":6919,"jalma":6920,"kualitas":6921,"minal":6922,"ness":6923,"pad":6924,"ves":6925,"visi":6926,"Ùı":6927,"Ġakal":6928,"Ġ***":6929,"arima":6930,"arosan":6931,"Ġkadi":6932,"Ġkund":6933,"Ã©c":6934,"alikeun":6935,"atik":6936,"Ġseri":6937,"Ġsenang":6938,"Ġpast":6939,"Ġmuk":6940,"Ġmga":6941,"aktos":6942,"urg":6943,"âĢĺ":6944,"ĠAD":6945,"Ġlami":6946,"Ġlead":6947,"abut":6948,"Ġngentot":6949,"ĠBo":6950,"ĠMC":6951,"ĠMc":6952,"ĠTurn":6953,"ild":6954,"ulisan":6955,"ĠCell":6956,"Ġcint":6957,"uki":6958,"ukung":6959,"ĠNav":6960,"imu":6961,"Ġreu":6962,"olo":6963,"ĠLos":6964,"ĠRaj":6965,"icy":6966,"andingan":6967,"ĠGed":6968,"udan":6969,"oklat":6970,"ĠHall":6971,"ĠHard":6972,"ehat":6973,"igasi":6974,"eurik":6975,"rea":6976,"Ġkalungguhan":6977,"ĠVol":6978,"ersan":6979,"istik":6980,"endi":6981,"Ġviews":6982,"ĠSMPN":6983,"Ġ73":6984,"uwa":6985,"uwit":6986,"uwangi":6987,"Ġkatelah":6988,"Ã©lÃ©":6989,"Ġterbaru":6990,"ĠÃĹ":6991,"Ġngaji":6992,"usty":6993,"Ġumumna":6994,"Ġlalakon":6995,"Ġdikirim":6996,"OSIR":6997,"ĠNyal":6998,"ĠKarajaan":6999,"older":7000,"ounds":7001,"Ġbuat":7002,"ĠExpo":7003,"2008":7004,"ACK":7005,"Ġpulitik":7006,"uriang":7007,"ĠBelacan":7008,"ĠJune":7009,"ĠKapoor":7010,"ĠAirport":7011,"Ġkinerja":7012,"Ġbeli":7013,"Ġcaang":7014,"Ġinternasional":7015,"Ġwanoja":7016,"Ġlemes":7017,"ĠJames":7018,"Baguhang":7019,"Ġsilaturah":7020,"ĠMichael":7021,"Desember":7022,"ĠGeorg":7023,"ĠEmbah":7024,"Ġhiburan":7025,"Ġngakibatkeun":7026,"Ġstrategi":7027,"Ġklien":7028,"900":7029,"Cat":7030,"Cart":7031,"EH":7032,"Hand":7033,"Kategori":7034,"Mod":7035,"Pant":7036,"Sat":7037,"TT":7038,"bot":7039,"gÃ©":7040,"jeng":7041,"jong":7042,"mon":7043,"ps":7044,"ted":7045,"tok":7046,"tayo":7047,"zer":7048,"Ø¯":7049,"Ùģ":7050,"Ġeusina":7051,"alina":7052,"Ġded":7053,"angpaatkeun":7054,"Ġtatan":7055,"Ġtuang":7056,"Ġtakt":7057,"Ġpink":7058,"erna":7059,"Ġmangk":7060,"Ġnat":7061,"Ġbakat":7062,"ĠSayang":7063,"âĢ¢":7064,"ĠAA":7065,"itak":7066,"Ġland":7067,"Ġngand":7068,"ĠKet":7069,"ĠMuk":7070,"ĠMotor":7071,"Ġanc":7072,"ĠTri":7073,"apeung":7074,"apunten":7075,"ĠDong":7076,"Ġgas":7077,"ĠCag":7078,"ĠCinta":7079,"Ġcut":7080,"Ġcoba":7081,"ĠNi":7082,"0012":7083,"round":7084,"Ġra":7085,"Ġred":7086,"ĠLamp":7087,"ĠListrik":7088,"ĠLÃ¨tnan":7089,"Ġnyan":7090,"Ġnyump":7091,"acing":7092,"Ġsarat":7093,"ĠHas":7094,"ĠiPhone":7095,"Ġinov":7096,"ĠWest":7097,"artemen":7098,"ĠUr":7099,"ref":7100,"ĠAlat":7101,"ewek":7102,"Ġvari":7103,"Ġpangb":7104,"Ġ83":7105,"Ã©nging":7106,"Ã©bu":7107,"astic":7108,"Ġstasion":7109,"Ġdibuka":7110,"ungkusan":7111,"ĠShir":7112,"Ġuninga":7113,"Ġromb":7114,"Ġkamari":7115,"Ġdigunakeun":7116,"ombang":7117,"ĠÐº":7118,"Ġnagri":7119,"untungan":7120,"à¤¾":7121,"Ġmusuh":7122,"ĠPolos":7123,"fied":7124,"ĠBerita":7125,"Ġurutan":7126,"nyong":7127,"afon":7128,"Ġtamba":7129,"ĠMusik":7130,"Ġilmi":7131,"Ġhartosna":7132,"uksak":7133,"Ġhareupeun":7134,"Ġwebsite":7135,"ĠSwasta":7136,"Ġmurid":7137,"ĠHeavy":7138,"ĠMicrosoft":7139,"ociety":7140,"ĠDimas":7141,"Ġcampuran":7142,"Actress":7143,"Ġgenep":7144,"ĠdÃ©wÃ©k":7145,"ĠLiberal":7146,"Ġsangsaya":7147,"ĠlÃ©nsa":7148,"ĠsekolahÃ©":7149,"Ġkakawasaan":7150,"Ġdipercaya":7151,"Ġkenging":7152,"Mag":7153,"Num":7154,"OC":7155,"Pany":7156,"Tan":7157,"bound":7158,"df":7159,"dam":7160,"ful":7161,"gr":7162,"oz":7163,"pat":7164,"the":7165,"tuna":7166,"ÈĽ":7167,"Ø¨":7168,"Ġ%":7169,"Ġok":7170,"Ġaja":7171,"Ġaki":7172,"eueuh":7173,"arin":7174,"Ġkeu":7175,"Ġsun":7176,"Ġsata":7177,"ĠdÃ©":7178,"Ġdetik":7179,"angor":7180,"Ġtingali":7181,"Ġpid":7182,"Ġpuji":7183,"ahya":7184,"Ġmintonkeun":7185,"Ġnabi":7186,"Ġnomer":7187,"Ġnormal":7188,"Ġben":7189,"ĠSI":7190,"ĠSag":7191,"ĠSER":7192,"ĠSearch":7193,"Ġdial":7194,"adag":7195,"unitas":7196,"Ġles":7197,"ayogikeun":7198,"Ġngimpi":7199,"ĠBAR":7200,"ĠMeureun":7201,"usaha":7202,"usumah":7203,"Ġhanging":7204,"ĠTemp":7205,"ilding":7206,"ĠDv":7207,"ĠDalam":7208,"awis":7209,"awacan":7210,"umkeun":7211,"Ġguy":7212,"Ġgula":7213,"Ġcir":7214,"Ġratu":7215,"Ġreujeung":7216,"ĠLemb":7217,"ajaya":7218,"Ġnyambung":7219,"upan":7220,"ĠReal":7221,"uddin":7222,"ĠHa":7223,"ĠHome":7224,"ekal":7225,"Ġiwal":7226,"ĠFa":7227,"ijakan":7228,"ĠWh":7229,"ĠUlah":7230,"ugal":7231,"ople":7232,"ambat":7233,"Ġvisi":7234,"Ġprinsip":7235,"anyakeun":7236,"ĠChu":7237,"Ġdibandingkeun":7238,"Ġngajawab":7239,"Ġrojongan":7240,"ĠStep":7241,"CONN":7242,"ombed":7243,"upaten":7244,"miu":7245,"Ġmerek":7246,"here":7247,"ompok":7248,"ealth":7249,"Ġbutuh":7250,"Ġsemu":7251,"ĠPeter":7252,"Ġkurungan":7253,"ibutor":7254,"Ġendah":7255,"Ġlokasi":7256,"eujeuh":7257,"Ġkoin":7258,"Ġnyaritakeun":7259,"Ġkosong":7260,"zzar":7261,"Malaysia":7262,"ĠDemocratic":7263,"ublished":7264,"ĠGiril":7265,"Ġpanganyarna":7266,"Aut":7267,"April":7268,"Blowjob":7269,"CH":7270,"Categ":7271,"DS":7272,"FL":7273,"Jl":7274,"Kat":7275,"Mang":7276,"Nalika":7277,"Other":7278,"Teen":7279,"bo":7280,"cam":7281,"dir":7282,"dom":7283,"fing":7284,"long":7285,"lukeun":7286,"pada":7287,"photos":7288,"rr":7289,"ras":7290,"vy":7291,"web":7292,"Ġide":7293,"Ġolah":7294,"ĠÃ©nd":7295,"ann":7296,"ania":7297,"araja":7298,"arÃ©a":7299,"Ġkaman":7300,"Ġsant":7301,"Ġdeungeun":7302,"Ġpola":7303,"Ġpukul":7304,"Ġmig":7305,"Ġmenc":7306,"Ġnh":7307,"Ġnutup":7308,"Ġnomor":7309,"Ġbarat":7310,"Ġbulu":7311,"ĠSev":7312,"enahna":7313,"Ġdiuk":7314,"itana":7315,"ĠPP":7316,"ĠPup":7317,"ĠPic":7318,"ĠPadahal":7319,"unÈĽ":7320,"Ġlangg":7321,"Ġjati":7322,"ĠngÃ©l":7323,"ĠKl":7324,"ĠKol":7325,"ĠBatang":7326,"ĠBox":7327,"ĠMor":7328,"taun":7329,"ilap":7330,"ĠDKI":7331,"ĠCB":7332,"Ġcr":7333,"ĠNalika":7334,"imedia":7335,"ĠJang":7336,"Ġrak":7337,"ĠLow":7338,"ĠLama":7339,"ider":7340,"idget":7341,"ĠIjan":7342,"ĠRam":7343,"ĠReus":7344,"ĠRama":7345,"epkeun":7346,"ĠGrup":7347,"Ã©han":7348,"Ġtiang":7349,"Ġinstr":7350,"igi":7351,"igan":7352,"ĠFactor":7353,"egas":7354,"ipta":7355,"ĠEv":7356,"ĠEnya":7357,"ubuk":7358,"ublic":7359,"ugem":7360,"odi":7361,"Ġsalakina":7362,"ĠAlbania":7363,"Ġmanual":7364,"Ġsabalikna":7365,"Ġvol":7366,"alaikat":7367,"104":7368,"Ġkatresna":7369,"engka":7370,"engkap":7371,"Ġngajual":7372,"ĠNgar":7373,"ĠPerang":7374,"âĢ¦..":7375,"Ġpasang":7376,"umpang":7377,"á®Ĭ":7378,"Ġimages":7379,"ĠStasion":7380,"imbaran":7381,"Ġisu":7382,"ĠisÃ©":7383,"Ġulin":7384,"Ġindonesia":7385,"ĠKabataanKabataang":7386,"ights":7387,"Ġmerlukeun":7388,"Ġplay":7389,"ĠPasang":7390,"Ġoperasi":7391,"ĠQur":7392,"ÐµÑĢ":7393,"Ġpenj":7394,"ĠBerlin":7395,"ĠLatin":7396,"Ġtahu":7397,"ĠPangÃ©ran":7398,"Ġexp":7399,"ĠPanason":7400,"ĠCateg":7401,"ĠSakola":7402,"Ġangger":7403,"Ġpanteras":7404,"incin":7405,"incess":7406,"ĠAtuh":7407,"uksakan":7408,"Ġsyarat":7409,"ĠPenny":7410,"Ġpercetakan":7411,"alungtik":7412,"ĠDenmark":7413,"Extra":7414,"Ġujug":7415,"ululloh":7416,"ĠMyeyelashstore":7417,"Ġuing":7418,"ĠpopulÃ©r":7419,"Ġdomain":7420,"Ġdevot":7421,"ÂºC":7422,"razilian":7423,"Ġindividu":7424,"ĠFlour":7425,"Ġjahat":7426,"Ġcouple":7427,"InglÃ©s":7428,"Ġshots":7429,"ĠCrouch":7430,"Ġrombongan":7431,"ĠPanasonic":7432,"EE":7433,"Enya":7434,"Par":7435,"Toko":7436,"den":7437,"dip":7438,"fs":7439,"hw":7440,"hul":7441,"hana":7442,"mawar":7443,"nas":7444,"pt":7445,"sak":7446,"sus":7447,"sih":7448,"tg":7449,"tas":7450,"tis":7451,"val":7452,"ways":7453,"yarat":7454,"Â·":7455,"ÂĢ":7456,"ÑĪ":7457,"Ùĥ":7458,"Ġec":7459,"Ġunggul":7460,"Ĺı":7461,"Ġkayak":7462,"aling":7463,"atÃ©":7464,"Ġsobat":7465,"Ġsapanjang":7466,"Ġder":7467,"Ġdoc":7468,"Ġduring":7469,"ĠtÃ©r":7470,"Ġtaman":7471,"asuna":7472,"Ġpengk":7473,"ahi":7474,"Ġmor":7475,"Ġmic":7476,"Ġmisah":7477,"Ġmampuh":7478,"akr":7479,"Ġbusty":7480,"onia":7481,"onÃ¨ng":7482,"ĠAT":7483,"ĠPH":7484,"ĠPanc":7485,"ĠPapan":7486,"Ġlin":7487,"Ġlib":7488,"Ġliter":7489,"Ġlayar":7490,"orongan":7491,"Ġjamb":7492,"Ġjaga":7493,"Ġnganggap":7494,"Ġnginum":7495,"ĠMung":7496,"ĠMem":7497,"ĠMawar":7498,"ĠanunÈĽ":7499,"agad":7500,"agai":7501,"ĠTahan":7502,"ĠTempat":7503,"ĠTravel":7504,"apus":7505,"ule":7506,"Ġï¿½ï¿½ï¿½ï¿½,":7507,"ĠDel":7508,"ume":7509,"ĠCPNS":7510,"uksi":7511,"ĠNik":7512,"imantan":7513,"Ġkaamanan":7514,"Ġkauntungan":7515,"Ġway":7516,"ĠwÃ©tan":7517,"ĠLo":7518,"iday":7519,"ĠGM":7520,"ĠGlobal":7521,"ekasi":7522,"obi":7523,"Ġfac":7524,"igus":7525,"ĠFM":7526,"ĠFix":7527,"ĠFootball":7528,"ege":7529,"ipp":7530,"ĠUIN":7531,"ĠOl":7532,"Ġmahluk":7533,"Ġkasohor":7534,"Ġsaban":7535,"ĠspÃ©si":7536,"ĠKabayan":7537,"ĠYun":7538,"ĠYÃ©n":7539,"Ġ67":7540,"Ġmass":7541,"ĠIndustri":7542,"Ġayat":7543,"euwihan":7544,"ĠPres":7545,"ĠdibÃ©rÃ©":7546,"Ġkaputusan":7547,"asanÃ©":7548,"ava":7549,"Ġkaharti":7550,"Ġluhureun":7551,"shirt":7552,"Ð°ÑĤ":7553,"ĠKabupaten":7554,"à¤°":7555,"ĠSelangor":7556,"Ġpinter":7557,"ernur":7558,"Ġdipikah":7559,"Ġhasilna":7560,"Ġbrand":7561,"Ġcontona":7562,"Ġlembaga":7563,"Ġpapanggih":7564,"KAOS":7565,"ĠUniversitas":7566,"Ġpartisi":7567,"Baguhan":7568,"Ġqur":7569,"ĠOption":7570,"ociation":7571,"Ġgenerasi":7572,"Ġjujur":7573,"adcast":7574,"Dicomot":7575,"Ġngidinan":7576,"eundeun":7577,"yhose":7578,"Additional":7579,"ĠAmazon":7580,"Ġbreasts":7581,"ĠRoyal":7582,"Ġsataun":7583,"ĠGirilaya":7584,"\">":7585,"Br":7586,"DE":7587,"Do":7588,"Dec":7589,"GR":7590,"GIN":7591,"GGC":7592,"Gallery":7593,"Hal":7594,"bk":7595,"baya":7596,"can":7597,"cep":7598,"eel":7599,"gin":7600,"ging":7601,"ke":7602,"lar":7603,"mg":7604,"name":7605,"via":7606,"versi":7607,"we":7608,"yd":7609,"Â£":7610,"Ġ;":7611,"ĠÑģ":7612,"alun":7613,"Ġdec":7614,"Ġdapur":7615,"angtu":7616,"Ġting":7617,"asihan":7618,"Ġpe":7619,"Ġpac":7620,"Ġpangk":7621,"Ġmaw":7622,"Ġmeta":7623,"Ġmiharep":7624,"Ġneu":7625,"Ġneuteup":7626,"ĠSand":7627,"ĠSimp":7628,"ĠSuit":7629,"ĠAta":7630,"ĠPay":7631,"ĠPER":7632,"ĠPAS":7633,"ĠPuter":7634,"ĠPulo":7635,"isar":7636,"inget":7637,"Ġlemp":7638,"Ġlaun":7639,"Ġleup":7640,"oreng":7641,"Ġjuga":7642,"Ġngap":7643,"ĠKes":7644,"ĠKed":7645,"ĠKusabab":7646,"ĠBy":7647,"ĠBur":7648,"ĠBarang":7649,"ĠBaco":7650,"ĠMoh":7651,"ĠMangga":7652,"Ġhow":7653,"ĠTun":7654,"ĠTinggi":7655,"aps":7656,"ulum":7657,"Ġï¿½ï¿½ï¿½ï¿½.":7658,"Ġglobal":7659,"oskeun":7660,"osani":7661,"iro":7662,"ĠCut":7663,"ĠCai":7664,"Ġwall":7665,"Ġrap":7666,"Ġraya":7667,"ĠLog":7668,"ĠLong":7669,"ĠLelang":7670,"ajih":7671,"Ġnyekel":7672,"Ġnyegah":7673,"ĠIND":7674,"eph":7675,"ici":7676,"andap":7677,"Ã©nmark":7678,"ĠHood":7679,"ĠFebruary":7680,"ĠWaktu":7681,"arib":7682,"adiyah":7683,"Ġatikan":7684,"ĠEy":7685,"ĠAno":7686,"Ġ400":7687,"Ġvi":7688,"Ġpangeusi":7689,"Ġdisimpen":7690,"Ġthey":7691,"Ġprodus":7692,"ĠProgram":7693,"euheung":7694,"Ġkarena":7695,"Ġadult":7696,"arden":7697,"Ġsapuluh":7698,"evel":7699,"onald":7700,"ejo":7701,"ejala":7702,"isha":7703,"ĠKalawan":7704,"Ġmodern":7705,"Ġxk":7706,"ĠXL":7707,"ĠDesember":7708,"ÐµÐ»":7709,"arikna":7710,"Ġpulo":7711,"Ġarticle":7712,"Ġpantes":7713,"Ã¢n":7714,"Ġsumanget":7715,"clud":7716,"Ġpanyakit":7717,"Ġcocok":7718,"ĠContact":7719,"ĠMetal":7720,"Ġbebas":7721,"Ġkontak":7722,"Ġunder":7723,"Ġmemang":7724,"Ġtipe":7725,"Ġsakaligus":7726,"Ġnews":7727,"ĠmÃ©nta":7728,"firm":7729,"ï¼Į":7730,"ĠBotosani":7731,"Ġsimbol":7732,"Ġmimitina":7733,"Ġsempet":7734,"ĠVersion":7735,"amÃ©mÃ©hna":7736,"ĠanunÈĽul":7737,"De":7738,"EB":7739,"How":7740,"Kode":7741,"Pulo":7742,"Rel":7743,"Real":7744,"ST":7745,"Sar":7746,"VI":7747,"Width":7748,"cer":7749,"hmi":7750,"jaan":7751,"ll":7752,"mit":7753,"rs":7754,"sc":7755,"sen":7756,"sarah":7757,"vis":7758,"ying":7759,"{{":7760,"Ùĳ":7761,"anbul":7762,"aria":7763,"Ġkita":7764,"alengka":7765,"Ġsia":7766,"Ġsyar":7767,"ĠdÃ©n":7768,"ined":7769,"Ġtomb":7770,"Ġtentara":7771,"Ġpami":7772,"ahal":7773,"Ġmasa":7774,"Ġbest":7775,"Ġbilih":7776,"ĠSign":7777,"ĠSarik":7778,"Ġdisi":7779,"ĠAND":7780,"itish":7781,"ĠPu":7782,"ĠPing":7783,"ĠPri":7784,"ĠPekan":7785,"isk":7786,"unungan":7787,"Ġlanc":7788,"orian":7789,"oritas":7790,"Ġjangkung":7791,"Ġjuru":7792,"Ġngas":7793,"Ġngiring":7794,"ĠKL":7795,"ĠKot":7796,"ĠMir":7797,"ĠMov":7798,"Ġhigh":7799,"ĠTentang":7800,"uluku":7801,"ĠDum":7802,"awah":7803,"awara":7804,"Ġgem":7805,"eleng":7806,"ĠCos":7807,"ĠCusa":7808,"Ġcil":7809,"edes":7810,"ĠNar":7811,"imun":7812,"ĠJa":7813,"Ġkai":7814,"Ġraj":7815,"ĠLin":7816,"ĠLab":7817,"ĠImp":7818,"upon":7819,"ĠRiy":7820,"ihkeun":7821,"andungan":7822,"entingan":7823,"ĠHaris":7824,"obe":7825,"ĠFood":7826,"ijaksana":7827,"eget":7828,"euran":7829,"adiun":7830,"Ġatas":7831,"Ġai":7832,"ĠUR":7833,"iba":7834,"heap":7835,"Ġkalakuan":7836,"ofa":7837,"ĠkasÃ©hatan":7838,"Ġalas":7839,"00058":7840,"120":7841,"128":7842,"Ġsakit":7843,"aturkeun":7844,"Ġ88":7845,"Ġditangt":7846,"anjaran":7847,"130":7848,"Ġkaterangan":7849,"Ġparobahan":7850,"ĠAranjeunna":7851,"akshmi":7852,"Ġdibere":7853,"Ġngajelaskeun":7854,"ĠNgab":7855,"Ġngadon":7856,"Ġngaduruk":7857,"umpat":7858,"ayangkeun":7859,"ĠTerbaik":7860,"ejaan":7861,"ours":7862,"Ġkamamp":7863,"Ġsagalana":7864,"lamat":7865,"ĠÐ½":7866,"Ġmeny":7867,"Ġdaging":7868,"Ġoper":7869,"Ġsurabaya":7870,"Ġanggur":7871,"Ġpesta":7872,"Ġpesawat":7873,"ercayaan":7874,"ĠSuper":7875,"Ġinstitute":7876,"ergi":7877,"ĠUkra":7878,"ĠPakistan":7879,"erkahan":7880,"Ġlengkepna":7881,"Indian":7882,"à¥Ģ":7883,"Ġnawiskeun":7884,"Ã³n":7885,"ĠpamarÃ©ntahan":7886,"ĠmÃ©mang":7887,"Ġjangji":7888,"ĠBanarasi":7889,"Ġhurup":7890,"ĠDesigner":7891,"Ġgolongan":7892,"Ġbersih":7893,"ĠDouble":7894,"ĠEpis":7895,"Ġpannakabalin":7896,"ĠsapopoÃ©":7897,"Ġbeuteung":7898,"Ġperhatian":7899,"Ġilmiah":7900,"ĠHarisbaya":7901,"250":7902,"Ang":7903,"Ber":7904,"Ey":7905,"GAC":7906,"MB":7907,"MED":7908,"News":7909,"SA":7910,"SC":7911,"Sep":7912,"Tamil":7913,"__":7914,"bon":7915,"des":7916,"ftar":7917,"ners":7918,"noun":7919,"okeun":7920,"serv":7921,"uarga":7922,"vin":7923,"wat":7924,"wangunan":7925,"{\"":7926,"ÂŃ":7927,"Ġawan":7928,"ĠÙĪ":7929,"anak":7930,"arapkeun":7931,"Ã©di":7932,"Ġsid":7933,"Ġsih":7934,"Ġpics":7935,"Ġpedah":7936,"Ġphoto":7937,"Ġmama":7938,"Ġnahan":7939,"Ġneuleuman":7940,"akaan":7941,"Ġbus":7942,"Ġbeg":7943,"Ġbangs":7944,"Ġbank":7945,"ĠSH":7946,"ĠSci":7947,"onim":7948,"ĠdiÃ©dit":7949,"ĠPAR":7950,"Ġlong":7951,"abet":7952,"eskeun":7953,"Ġnganti":7954,"ĠKen":7955,"ĠBengk":7956,"ĠMac":7957,"ĠMAN":7958,"agon":7959,"Ġhana":7960,"Ġhost":7961,"ĠTihang":7962,"naw":7963,"ulkeun":7964,"ĠDon":7965,"ĠDeal":7966,"Ġgi":7967,"ĠCab":7968,"Ġceurik":7969,"Ġ250":7970,"imena":7971,"anaos":7972,"engen":7973,"ĠJalma":7974,"ĠLap":7975,"omongkeun":7976,"ajang":7977,"Ġnyimpen":7978,"ĠId":7979,"ĠIsa":7980,"ote":7981,"ĠRak":7982,"ĠRuns":7983,"ĠGun":7984,"udd":7985,"uduna":7986,"okerto":7987,"ĠHulu":7988,"sion":7989,"ekna":7990,"iaan":7991,"anggang":7992,"Ġatah":7993,"trik":7994,"ĠEU":7995,"ĠEce":7996,"lover":7997,"ambut":7998,"ĠkalÃ©r":7999,"Ġperan":8000,"Ġmany":8001,"Ġaliran":8002,"Ġï¿½ï¿½:":8003,"istory":8004,"Ġvis":8005,"ĠvÃ©k":8006,"ancy":8007,"alau":8008,"Ġdisk":8009,"106":8010,"ĠtoÃ©":8011,"Ġpamuter":8012,"Ġprice":8013,"anjeng":8014,"uwara":8015,"Ġayuh":8016,"ĠChar":8017,"Ġparanti":8018,"Ġdibagi":8019,"ashi":8020,"Ġsapa":8021,"ift":8022,"orts":8023,"IND":8024,"Ġsatu":8025,"Ġlatinos":8026,"tural":8027,"Ġpalsu":8028,"ouise":8029,"Ġpatarosan":8030,"Ġsiaran":8031,"Ġamal":8032,"Ġï¿½ï¿½ï¿½ï¿½ï¿½ï¿½ï¿½ï¿½ï¿½ï¿½ï¿½ï¿½ï¿½ï¿½ï¿½":8033,"atesan":8034,"ĠbalarÃ©a":8035,"ĠKabataanBaguhan":8036,"ĠPlus":8037,"Ngaran":8038,"Ġsuppli":8039,"2007":8040,"ĠBritish":8041,"ĠSanta":8042,"ĠAndrew":8043,"phone":8044,"ĠBatara":8045,"product":8046,"Ġawaknyan":8047,"ĠPutri":8048,"ĠÃ©fÃ©k":8049,"ĠSaterusna":8050,"Ã©nder":8051,"ĠImages":8052,"Ġpayun":8053,"Ġdosis":8054,"ĠsanÃ©sna":8055,"Ġgelar":8056,"ĠContona":8057,"uzu":8058,"ajiban":8059,"ĠAmerika":8060,"ĠengkÃ©":8061,"Ġtepung":8062,"Ġpitulung":8063,"ĠPendidikan":8064,"ĠOtomatis":8065,"Ġpintonan":8066,"Ġjerseys":8067,"Ġngumumkeun":8068,"ĠSarikat":8069,"Awaaz":8070,"Be":8071,"Bel":8072,"Cl":8073,"Cara":8074,"El":8075,"PT":8076,"Pad":8077,"Payat":8078,"Sing":8079,"Sap":8080,"Sanajan":8081,"col":8082,"ds":8083,"drop":8084,"pag":8085,"reg":8086,"rib":8087,"sara":8088,"ski":8089,"teu":8090,"toy":8091,"tato":8092,"ward":8093,"Â²":8094,"Âķ":8095,"Äķ":8096,"Ñİ":8097,"Ø©":8098,"Ġ<":8099,"Ġer":8100,"Ġemp":8101,"Ġkudut":8102,"Ġsajat":8103,"Ġsusah":8104,"Ġtinggal":8105,"asikeun":8106,"ahu":8107,"Ġment":8108,"Ġmaka":8109,"Ġning":8110,"Ġnasi":8111,"Ġningal":8112,"Ġnulungan":8113,"Ġbis":8114,"amimitian":8115,"ĠSamb":8116,"ĠSqu":8117,"ĠSEO":8118,"urÃ©":8119,"ĠAirl":8120,"ĠPÃ©r":8121,"ĠPada":8122,"adwal":8123,"isaran":8124,"unaan":8125,"orld":8126,"ayaran":8127,"Ġngolah":8128,"ĠKedah":8129,"ĠBang":8130,"ĠBata":8131,"ĠBuku":8132,"agas":8133,"ĠTbk":8134,"iler":8135,"ilbab":8136,"ĠDibutyl":8137,"awon":8138,"elaran":8139,"ĠCap":8140,"ĠCek":8141,"Ġcoun":8142,"uktikeun":8143,"uth":8144,"ĠName":8145,"ĠNatural":8146,"Ġ111":8147,"Ġrin":8148,"Ġrencana":8149,"ĠLengan":8150,"Ġnyangka":8151,"ĠRid":8152,"icial":8153,"udno":8154,"okok":8155,"ĠHan":8156,"arancang":8157,"ebetkeun":8158,"iguan":8159,"ĠFi":8160,"ĠWik":8161,"ĠWarna":8162,"iai":8163,"anggan":8164,"angkala":8165,"angkuriang":8166,"ects":8167,"opat":8168,"Ġkalimah":8169,"Ġkalepatan":8170,"Ã©rÃ©k":8171,"ĠIni":8172,"ocog":8173,"ewa":8174,"Ġalso":8175,"Ġ61":8176,"Ġdisc":8177,"Ġdisadiakeun":8178,"Ġpropinsi":8179,"Ġkarakter":8180,"Ã©lÃ©k":8181,"Ġadong":8182,"AHAN":8183,"Ġngagabung":8184,"pring":8185,"Ġkaperluan":8186,"ĠPerusahaan":8187,"ĠTerus":8188,"acking":8189,"Ġkawin":8190,"Ġsatria":8191,"ATA":8192,"Ġmuncul":8193,"Ġbabes":8194,"ombok":8195,"ĠbadÃ©":8196,"Ġindungna":8197,"Ġgedong":8198,"ella":8199,"Ã©ntar":8200,"ĠDaeng":8201,"Ð¾ÑĢ":8202,"Ġtulis":8203,"enggara":8204,"Ġpusat":8205,"ÃŃl":8206,"Ġngamekarkeun":8207,"Ġpantyhose":8208,"crip":8209,"Ġkimia":8210,"Ġmobile":8211,"Ġsumebar":8212,"ĠMuhammadiyah":8213,"ypsum":8214,"malayalam":8215,"ĠBushw":8216,"ĠMadjid":8217,"ĠRosululloh":8218,"Ġcerita":8219,"Ġnaskah":8220,"Ð¾Ð²":8221,"Ġeduc":8222,"Ġcalon":8223,"ĠDeposit":8224,"Ġbubuk":8225,"urrent":8226,"Ã±ana":8227,"ĠSajaba":8228,"ĠJagat":8229,"Display":8230,"Abdi":8231,"Ġnyalira":8232,"ĠHerbal":8233,"ĠPedro":8234,"ĠOsasuna":8235,"ĠJerman":8236,"ariwang":8237,"Ġbasisir":8238,"Ġdirobah":8239,"Regga":8240,"ĠKareena":8241,"sunami":8242,"ĠNyalindung":8243,"ĠngÃ©lÃ©hkeun":8244,"ÂĢÂ":8245,"ĠBushwick":8246,"BL":8247,"Buy":8248,"DI":8249,"Gal":8250,"JA":8251,"Nov":8252,"On":8253,"Pl":8254,"Sad":8255,"Tel":8256,"distro":8257,"eaker":8258,"ional":8259,"jaya":8260,"jug":8261,"mir":8262,"muwan":8263,"posh":8264,"ster":8265,"ty":8266,"uaran":8267,"xy":8268,"yc":8269,"Ç¡":8270,"ĠÃ©ks":8271,"ane":8272,"Ġkond":8273,"atah":8274,"Ġsta":8275,"Ġsent":8276,"Ġsuka":8277,"Ġsilaing":8278,"Ġdah":8279,"Ġdtg":8280,"Ġtud":8281,"Ġps":8282,"Ġport":8283,"Ġpituduh":8284,"Ġmemp":8285,"ĠmÃ©t":8286,"Ġnemen":8287,"Ġnetepkeun":8288,"Ġbud":8289,"Ġbeen":8290,"eunana":8291,"ĠSeri":8292,"ĠSersan":8293,"itam":8294,"ĠPB":8295,"ĠPhot":8296,"adb":8297,"Ġleu":8298,"Ġlulus":8299,"abit":8300,"Ġjaj":8301,"Ġjemp":8302,"Ġjantung":8303,"Ġjinis":8304,"esor":8305,"Ġngungk":8306,"ĠKudu":8307,"ĠBangsa":8308,"ĠMinggu":8309,"usia":8310,"Ġhamba":8311,"ĠTO":8312,"ĠTw":8313,"ĠTuluy":8314,"ulak":8315,"ules":8316,"uleng":8317,"ĠDin":8318,"ĠDek":8319,"ĠDib":8320,"awir":8321,"Ġgering":8322,"utang":8323,"ĠNama":8324,"ĠJon":8325,"ĠJudi":8326,"ĠJumlah":8327,"eting":8328,"0011":8329,"Ġwarta":8330,"Ġrid":8331,"Ġrata":8332,"ollywood":8333,"idy":8334,"ĠIN":8335,"ĠReb":8336,"ication":8337,"andan":8338,"Ġsarre":8339,"Ġfokus":8340,"ehan":8341,"ampahna":8342,"ĠWear":8343,"artina":8344,"ĠâĢİ":8345,"loud":8346,"uban":8347,"Ġpanarjam":8348,"Ġperenahna":8349,"Ġsabada":8350,"akali":8351,"ĠVan":8352,"Ġvay":8353,"ASH":8354,"Ġditu":8355,"Ġkabel":8356,"onso":8357,"uwat":8358,"Ġkatingali":8359,"anye":8360,"Ã©dah":8361,"Ġbaraya":8362,"Ġthem":8363,"Ġngaberkahan":8364,"á®¥":8365,"ĠZin":8366,"Ġmaen":8367,"Ġimahna":8368,"Ġrok":8369,"Ġtresna":8370,"Ġ2004":8371,"ĠAsy":8372,"Ġpating":8373,"Ġmerenah":8374,"ensor":8375,"Ġstruktur":8376,"unjul":8377,"ĠSakadang":8378,"Ġpositif":8379,"phy":8380,"ingsih":8381,"ĠMataram":8382,"cript":8383,"Ð½Ð¾":8384,"ĠMahat":8385,"Ġwarung":8386,"Ġmiara":8387,"Ġangklung":8388,"Ġkhusus":8389,"Ġwisata":8390,"ĠAhmad":8391,"ĠTeluk":8392,"AJU":8393,"euntas":8394,"faat":8395,"Ġucapan":8396,"Ġneruskeun":8397,"Ġsuplement":8398,"Ġsiswa":8399,"Polish":8400,"papers":8401,"Ġtilas":8402,"Ġbeca":8403,"ĠFacebook":8404,"eauty":8405,"ĠCarey":8406,"Ayeuna":8407,"ĠPOLOS":8408,"ĠSystems":8409,"ĠJambi":8410,"Ġpagawean":8411,"ĠRaden":8412,"Ġditambahkeun":8413,"ĠManaj":8414,"ĠSingapore":8415,"Ġolahraga":8416,"ĠYunani":8417,"ĠAirlines":8418,"(\"":8419,")ï¿½ï¿½ï¿½ï¿½ï¿½ï¿½":8420,"600":8421,"Available":8422,"Bi":8423,"Dupi":8424,"JP":8425,"Joh":8426,"JAD":8427,"MC":8428,"Mariah":8429,"NML":8430,"POD":8431,"Sub":8432,"Tempat":8433,"UZ":8434,"View":8435,"bodas":8436,"core":8437,"david":8438,"hak":8439,"hel":8440,"ions":8441,"ming":8442,"ned":8443,"pons":8444,"rb":8445,"rut":8446,"total":8447,"Ã£":8448,"ÌĤ":8449,"à¹":8450,"å¤":8451,"Ġingg":8452,"anoh":8453,"Ã©ang":8454,"Ã©keun":8455,"alin":8456,"atul":8457,"Ġsebut":8458,"Ġsome":8459,"Ġtata":8460,"Ġtemen":8461,"Ġpep":8462,"erb":8463,"ĠmÃ©s":8464,"Ġnet":8465,"Ġneda":8466,"akkeun":8467,"Ġbro":8468,"ĠbÃ©b":8469,"eunc":8470,"ĠSch":8471,"ĠSAW":8472,"onÃ©san":8473,"Ġdiatur":8474,"Ġdiagn":8475,"ĠAki":8476,"ĠAUD":8477,"ĠPage":8478,"ikmah":8479,"Ġlak":8480,"estiv":8481,"ĠBob":8482,"ĠBack":8483,"ĠBunk":8484,"Ġhome":8485,"apakan":8486,"iland":8487,"ulÃ©r":8488,"ĠDistance":8489,"awasa":8490,"umas":8491,"ĠgonÃ¨ng":8492,"Ġcotton":8493,"ukÃ©":8494,"ĠJel":8495,"ĠJuan":8496,"Ġ110":8497,"Ġkaunggulan":8498,"Ġwin":8499,"Ġwit":8500,"Ġri":8501,"Ġring":8502,"olakeun":8503,"Ġnyangk":8504,"Ġnyingk":8505,"upama":8506,"ĠRoh":8507,"ĠRail":8508,"ĠGallery":8509,"ude":8510,"udag":8511,"ĠHirup":8512,"Ã©hi":8513,"Ã©hat":8514,"ekt":8515,"Ġfollow":8516,"aranan":8517,"eheh":8518,"ehatan":8519,"ĠFt":8520,"ĠWA":8521,"arted":8522,"trim":8523,"ĠâĢ³":8524,"ecut":8525,"ugikeun":8526,"ught":8527,"tery":8528,"Ġï¿½ï¿½ï¿½ï¿½ï¿½..":8529,"Ġnaf":8530,"undang":8531,"Ġkaliwat":8532,"Ġkasar":8533,"Ġyear":8534,"empatan":8535,"Ġalbum":8536,"0006":8537,"999":8538,"ĠVer":8539,"Ġpangant":8540,"ĠÂĢ":8541,"euwas":8542,"Ġ71":8543,"Ġ74":8544,"Ġkabut":8545,"Ġkapentingan":8546,"Ġmaik":8547,"ĠKuta":8548,"Ġï¿½ï¿½ï¿½ï¿½ï¿½ï¿½ï¿½ï¿½ï¿½,":8549,"Ġï¿½ï¿½ï¿½ï¿½ï¿½ï¿½ï¿½ï¿½ï¿½.":8550,"Ġkomb":8551,"Ġ2003":8552,"asilan":8553,"Ġakang":8554,"Ġmilampah":8555,"quet":8556,"Ġberk":8557,"Ġbagja":8558,"Ġantukna":8559,"Ġcho":8560,"ĠSale":8561,"ĠblÃ¨h":8562,"ĠAgen":8563,"ĠPlat":8564,"Ġxxx":8565,"ĠaranÃ©":8566,"masu":8567,"Ġpusaka":8568,"Ġexalt":8569,"ariksa":8570,"Ġmetu":8571,"ooks":8572,"ĠBarb":8573,"ĠEnd":8574,"Ġkitab":8575,"Ġpelesir":8576,"Ġsuba":8577,"Ġclass":8578,"Ġhadir":8579,"Ġsolat":8580,"ĠSerdang":8581,"skate":8582,"Ġhakek":8583,"Ġkerja":8584,"Ġlapisan":8585,"Ġlaporan":8586,"ĠMadr":8587,"ould":8588,"Ġgalih":8589,"Ġnampa":8590,"Ġtuah":8591,"Ġformat":8592,"ĠReply":8593,"Ġmandi":8594,"ĠModel":8595,"ĠANAK":8596,"ograph":8597,"Ġtungtungna":8598,"Ġleungitna":8599,"Ġmlayu":8600,"ĠRobert":8601,"ĠÃ©konomi":8602,"adegkeun":8603,"Ġbungah":8604,"ĠUmum":8605,"ĠTipling":8606,"ĠWanita":8607,"Ġkeyword":8608,"Sizes":8609,"ĠBrown":8610,"ĠTechnology":8611,"Ġserius":8612,"ĠTurnamÃ©n":8613,"ĠÃ©ndah":8614,"JADIAN":8615,"'}":8616,"=-":8617,"DÃ©sa":8618,"Eng":8619,"Kit":8620,"Str":8621,"Sanggeus":8622,"TM":8623,"Us":8624,"Zone":8625,"con":8626,"dot":8627,"hup":8628,"hluk":8629,"kel":8630,"kini":8631,"merc":8632,"nal":8633,"vers":8634,"Ġih":8635,"Ġ][":8636,"Ġuang":8637,"eui":8638,"ĠkÃ©nging":8639,"Ã©ja":8640,"Ġsiji":8641,"ĠsÃ©k":8642,"Ġsugan":8643,"Ġdam":8644,"Ġtas":8645,"Ġtor":8646,"Ġtari":8647,"ĠtÃ©t":8648,"Ġtest":8649,"Ġtangga":8650,"Ġpaj":8651,"Ġmuh":8652,"Ġmeg":8653,"Ġmenta":8654,"Ġnand":8655,"Ġnungk":8656,"Ġname":8657,"Ġboc":8658,"Ġbantuan":8659,"ĠbÃ©ntang":8660,"ĠSit":8661,"ĠSedengkeun":8662,"ĠAY":8663,"ĠPadi":8664,"ĠPre":8665,"adaban":8666,"Ġlo":8667,"Ġloro":8668,"Ġlumpat":8669,"ayungan":8670,"Ġngem":8671,"Ġngartos":8672,"ĠKe":8673,"ĠKons":8674,"ĠBudaya":8675,"ĠBisnis":8676,"ĠMes":8677,"ĠMap":8678,"Ġhadiah":8679,"ĠTAN":8680,"ĠTER":8681,"ĠTisna":8682,"ilit":8683,"ility":8684,"ĠDur":8685,"ĠDAN":8686,"ĠDÃ©nmark":8687,"ument":8688,"Ġganti":8689,"Ġgajih":8690,"elit":8691,"iris":8692,"ĠCm":8693,"ĠNingsih":8694,"ĠJapan":8695,"004":8696,"eungg":8697,"eungh":8698,"Ġ120":8699,"Ġwater":8700,"Ġrack":8701,"ĠLas":8702,"ĠList":8703,"ĠLeuwih":8704,"omem":8705,"ots":8706,"ĠRek":8707,"ogohan":8708,"anduan":8709,"acap":8710,"ĠHij":8711,"ĠHatur":8712,"Ġfull":8713,"Ġinf":8714,"ĠFit":8715,"ĠFort":8716,"ĠFull":8717,"artprint":8718,"true":8719,"ĠEA":8720,"ĠEUR":8721,"Ġï¿½ï¿½ï¿½ï¿½ï¿½ï¿½ï¿½ï¿½.":8722,"Ġaudio":8723,"ĠUnggal":8724,"awai":8725,"ambungkeun":8726,"Ġpanit":8727,"ĠInt":8728,"Ġkasenian":8729,"Ġdipasang":8730,"ĠVir":8731,"ĠView":8732,"ĠVegas":8733,"ersihan":8734,"Ġvs":8735,"Ġval":8736,"Ġvideos":8737,"Ġngaluarkeun":8738,"ujur":8739,"Ġspatel":8740,"ĠYus":8741,"Ġ600":8742,"103":8743,"Ġprinter":8744,"aratis":8745,"ialis":8746,"ords":8747,"ungkus":8748,"ĠShort":8749,"ĠStage":8750,"Ġkawentar":8751,"outer":8752,"Ġkamajuan":8753,"kaosc":8754,"Ġ125":8755,"Ġminyak":8756,"ĠIsra":8757,"Kabatang":8758,"60624":8759,"Ġï¿½ï¿½ï¿½ï¿½ï¿½ï¿½ï¿½ï¿½ï¿½ï¿½,":8760,"Ġinterior":8761,"Ã©mbong":8762,"inier":8763,"ĠtaÃ©n":8764,"ĠAgus":8765,"InOther":8766,"Ġsamem":8767,"eureunkeun":8768,"ÐµÑĤ":8769,"2009":8770,"Ġpadahal":8771,"Ġtattootato":8772,"racle":8773,"ĠMasÃ©hi":8774,"Ġclose":8775,"Ġbatik":8776,"KAJADIAN":8777,"Ġjurig":8778,"Ġibarat":8779,"aktipkeun":8780,"APNum":8781,"ItemPrice":8782,"ItemId":8783,"ItemDisplay":8784,"ĠHotel":8785,"Ġtinimbang":8786,"Ġrequ":8787,"Salaku":8788,"ĠLaut":8789,"ĠDirector":8790,"Ġwadon":8791,"hamdul":8792,"oshua":8793,"Ġramo":8794,"Ġtongg":8795,"Ġpuasa":8796,"ĠSariÃ±ana":8797,"ĠBroadcast":8798,"tipling":8799,"eungitkeun":8800,"Imageid":8801,"ImageUr":8802,"ĠBeds":8803,"ĠPurwokerto":8804,"ĠCollection":8805,"Config":8806,"anglad":8807,"ĠTagged":8808,"ProductID":8809,"ArtistId":8810,"ArtistName":8811,"ANJANG":8812,"Ġbedog":8813,"ĠAfter":8814,"Ġworks":8815,"ĠChristian":8816,"ĠGROSIR":8817,"TypeID":8818,"Height":8819,"Ġsilaturahim":8820,"GalleryPage":8821,"ĠAtawa":8822,"ĠHoodie":8823,"AvailableInOther":8824,"PODConfig":8825,"ĠÂĢ',":8826,"ZoneProductID":8827,"artprintimages":8828,"ItemDisplayTypeID":8829,"ImageUrl":8830,"AvailableInOtherSizes":8831,"PODConfigID":8832,"Du":8833,"DAN":8834,"Detail":8835,"Fr":8836,"Hatur":8837,"Jam":8838,"Kam":8839,"Mi":8840,"Met":8841,"Mangga":8842,"NI":8843,"Oh":8844,"Para":8845,"SH":8846,"Sel":8847,"SAR":8848,"TH":8849,"bus":8850,"cc":8851,"ceu":8852,"dan":8853,"iam":8854,"kom":8855,"laku":8856,"mot":8857,"pak":8858,"salam":8859,"uis":8860,"uai":8861,"well":8862,"ï»":8863,"Ġos":8864,"Ġep":8865,"arjo":8866,"Ġkay":8867,"Ġkej":8868,"Ã©Ã©":8869,"atas":8870,"atawa":8871,"Ġsearch":8872,"Ġsudut":8873,"Ġdet":8874,"Ġdapat":8875,"Ġdunia":8876,"Ġtarik":8877,"Ġtravel":8878,"Ġpir":8879,"Ġmuc":8880,"Ġbeng":8881,"Ġbengk":8882,"Ġbangun":8883,"Ġbaca":8884,"ĠSir":8885,"ĠSec":8886,"ĠSarat":8887,"ĠSej":8888,"ĠSistem":8889,"ĠSMAN":8890,"ures":8891,"urut":8892,"onis":8893,"itter":8894,"itismo":8895,"ĠPidi":8896,"ĠPounds":8897,"adne":8898,"isl":8899,"isip":8900,"uneman":8901,"ikut":8902,"ablo":8903,"Ġjand":8904,"Ġngint":8905,"ĠKarang":8906,"ĠKualitas":8907,"ĠBit":8908,"ĠBeng":8909,"ĠBint":8910,"ĠBÃ©l":8911,"ĠMam":8912,"ĠMari":8913,"ageur":8914,"Ġhari":8915,"Ġhaji":8916,"ĠhÃ©sÃ©":8917,"ĠTeg":8918,"ĠTex":8919,"ĠDom":8920,"ĠDasa":8921,"ĠDra":8922,"ĠDupi":8923,"umic":8924,"Ġgl":8925,"Ġgun":8926,"Ġgambaran":8927,"Ġganjaran":8928,"eles":8929,"oskop":8930,"ĠCA":8931,"ĠCa":8932,"Ġcol":8933,"Ġcook":8934,"Ġcoklat":8935,"ution":8936,"edar":8937,"ĠNam":8938,"ĠNeb":8939,"ĠJul":8940,"ĠJOR":8941,"ether":8942,"eungp":8943,"Ġwengi":8944,"Ġradio":8945,"Ġruntuyan":8946,"ĠLove":8947,"ĠLayer":8948,"ĠLilis":8949,"Ġnyong":8950,"ĠIpil":8951,"uhna":8952,"ĠGad":8953,"ĠGames":8954,"ĠGarden":8955,"Ã©njo":8956,"enteuna":8957,"ĠHil":8958,"ĠHia":8959,"anth":8960,"Ġfisik":8961,"ianak":8962,"ĠWong":8963,"anggal":8964,"ĠatinÃ©":8965,"Ġieuh":8966,"eces":8967,"ĠOmo":8968,"Ġasing":8969,"Ġaslina":8970,"Ã©rman":8971,"Ġyus":8972,"Ġsabar":8973,"Ġdipap":8974,"Ġpangajaran":8975,"Ġngalaporkeun":8976,"uction":8977,"ĠYAMA":8978,"eulana":8979,"euleum":8980,"unganana":8981,"eupan":8982,"oyok":8983,"anjir":8984,"tual":8985,"uwang":8986,"Ã©dana":8987,"Ġkapercayaan":8988,"Ġmaraneh":8989,"ĠStills":8990,"ĠMark":8991,"Ġislam":8992,"ĠkamonÃ©san":8993,"iver":8994,"agean":8995,"Ġmakhluk":8996,"Ġbabak":8997,"Ġaktip":8998,"ĠUntuk":8999,"rowley":9000,"Ã©ntah":9001,"lorida":9002,"Ngamimitian":9003,"Ġpilih":9004,"ense":9005,"ĠRegular":9006,"ichi":9007,"Ġngamangpaatkeun":9008,"Ġpolah":9009,"ĠAwesome":9010,"Ġajak":9011,"Ġpeserta":9012,"Ġseks":9013,"Ġpendek":9014,"ĠSarawak":9015,"Ġotak":9016,"Ġtanggung":9017,"Ġwaruga":9018,"uchadne":9019,"Ġkompet":9020,"rahim":9021,"Ġlanguage":9022,"áº¡":9023,"Ġdrama":9024,"ĠinternÃ©t":9025,"Ġendi":9026,"Ġendog":9027,"Artikel":9028,"ĠMedan":9029,"ĠMenengah":9030,"erald":9031,"Ġkanyaho":9032,"SMC":9033,"ĠCoupons":9034,"Ġjawaban":9035,"Ġmisalna":9036,"ĠPiece":9037,"Carolina":9038,"Upload":9039,"ĠTangerang":9040,"ĠÐ¿ÑĢ":9041,"Contoh":9042,"ahlian":9043,"ĠKosong":9044,"Ġfucked":9045,"Ġcasinos":9046,"ĠmanajemÃ©n":9047,"ĠAfrika":9048,"Ġbingung":9049,"ĠaspÃ©k":9050,"ĠPrabhup":9051,"ĠPersiaran":9052,"Ġkundi":9053,"ĠFME":9054,"Ġmassage":9055,"firmasi":9056,"ĠRiyals":9057,"John":9058,"ĠNebuchadne":9059,"ĠYAMAHA":9060,"ĠPrabhupada":9061,"ĠNebuchadnezzar":9062,"50000":9063,"Cg":9064,"Dibutyl":9065,"GTC":9066,"Lain":9067,"Pa":9068,"Post":9069,"Teras":9070,"Wawacan":9071,"bir":9072,"buk":9073,"box":9074,"cor":9075,"du":9076,"deug":9077,"kara":9078,"pers":9079,"rar":9080,"ray":9081,"rana":9082,"rÃ©n":9083,"rent":9084,"yi":9085,"Ã¤":9086,"Æ°":9087,"áĢ":9088,"ãĤ":9089,"Ġarg":9090,"ĠÑĤ":9091,"ĠÅĭ":9092,"areup":9093,"Ġkara":9094,"Ġkuliah":9095,"atori":9096,"Ġsuc":9097,"Ġsasar":9098,"Ġsudah":9099,"Ġdog":9100,"Ġdeg":9101,"Ġdarah":9102,"Ġtangan":9103,"ĠtÃ©s":9104,"asina":9105,"Ġmom":9106,"Ġmec":9107,"Ġmuj":9108,"Ġmanggih":9109,"Ġmuji":9110,"Ġneng":9111,"Ġnona":9112,"Ġnonom":9113,"Ġnarkoba":9114,"Ġbac":9115,"Ġbeus":9116,"ĠbÃ©r":9117,"Ġbrow":9118,"Ġbungkusan":9119,"amo":9120,"ĠSC":9121,"ĠSos":9122,"ĠSent":9123,"ĠSoftware":9124,"enna":9125,"ĠApr":9126,"ĠPe":9127,"ĠPenc":9128,"ĠPilih":9129,"ĠPabrik":9130,"ĠPANJANG":9131,"adr":9132,"isÃ©":9133,"ikir":9134,"Ġlet":9135,"Ġlist":9136,"ĠlÃ©ngkah":9137,"Ġjan":9138,"Ġngany":9139,"Ġnganjang":9140,"Ġngurus":9141,"Ġngeunah":9142,"ĠKek":9143,"ĠMis":9144,"ĠMut":9145,"ĠMata":9146,"agen":9147,"Ġharta":9148,"ĠTaya":9149,"ĠTungt":9150,"ĠTenggara":9151,"ullah":9152,"ulator":9153,"ĠDat":9154,"ĠDut":9155,"ĠDog":9156,"ĠDays":9157,"ĠDunia":9158,"umuman":9159,"elÃ©":9160,"ĠCAR":9161,"Ġcul":9162,"Ġcep":9163,"ĠJen":9164,"roun":9165,"Ġkaahlian":9166,"Ġwah":9167,"Ġray":9168,"Ġrai":9169,"Ġrunt":9170,"Ġruang":9171,"ĠLoun":9172,"ĠLeutik":9173,"ĠLantaran":9174,"ĠLondon":9175,"otan":9176,"ĠRacing":9177,"iha":9178,"ĠGag":9179,"ĠGot":9180,"ĠGroup":9181,"acy":9182,"okter":9183,"ĠHasil":9184,"ĠHayu":9185,"obatan":9186,"ebet":9187,"igua":9188,"ĠFair":9189,"ijaya":9190,"ijikeun":9191,"ampur":9192,"ĠWah":9193,"arif":9194,"Ġatt":9195,"ections":9196,"Ã¨tan":9197,"ubah":9198,"ubernur":9199,"oper":9200,"ĠON":9201,"ĠOper":9202,"ĠOld":9203,"undan":9204,"Ã©ktur":9205,"ĠAlb":9206,"Ġala":9207,"Ġalami":9208,"123":9209,"aree":9210,"Ġngalah":9211,"ujuh":9212,"indungan":9213,"indakan":9214,"ĠPromosi":9215,"alikota":9216,"Ġkarir":9217,"lahu":9218,"Ġorgy":9219,"Ġkabeb":9220,"Ġkatempo":9221,"erie":9222,"unggu":9223,"anyi":9224,"Ġkacang":9225,"Ġadam":9226,"Ġmarket":9227,"Ġdibaca":9228,"Ġkapaksa":9229,"paay":9230,"ostik":9231,"imber":9232,"Ġkawates":9233,"kaospr":9234,"Ġ2002":9235,"Ġhalaman":9236,"Ġdilarang":9237,"ĠKalimantan":9238,"Ġuli":9239,"Ġmakam":9240,"Ġlalu":9241,"ĠBlanc":9242,"ĠÐ¸":9243,"Ġchat":9244,"338":9245,"shop":9246,"Ġamateur":9247,"ĠAbout":9248,"ĠGood":9249,"Ġbalad":9250,"ults":9251,"masing":9252,"ĠSpot":9253,"Ġpilarian":9254,"ĠkonÃ©ng":9255,"Ġshop":9256,"Ġurip":9257,"afe":9258,"Ġpoker":9259,"urni":9260,"Ġtekanan":9261,"All":9262,"ompet":9263,"jualan":9264,"Ġilmu":9265,"ĠAkang":9266,"Prof":9267,"Ġkagungan":9268,"eugdeug":9269,"hirt":9270,"Ãīta":9271,"á»ĩ":9272,"ĠKerala":9273,"Ġbatin":9274,"Ġwho":9275,"Ġkinagi":9276,"ĠhatÃ©na":9277,"ĠGrand":9278,"Ġklub":9279,"arÃ©ntah":9280,"Ġsebab":9281,"Ġwanoh":9282,"Ġraraga":9283,"ĠContoh":9284,"Ġsoal":9285,"ĠEuro":9286,"ĠsuwÃ©":9287,"ĠmÃ©mÃ©h":9288,"PCF":9289,"Ġsusunan":9290,"ĠRobot":9291,"Ġnepika":9292,"ĠColor":9293,"umeneng":9294,"asahiji":9295,"euleuyan":9296,"ĠCiamis":9297,"ĠwelÃ©h":9298,"Ġplatform":9299,"ĠsuksÃ©s":9300,"Ġpentru":9301,"Ã©nggal":9302,"Ġgatrik":9303,"Ġragrag":9304,"ĠVictoria":9305,"ĠsyarÃ©":9306,"Ġmamaos":9307,"estival":9308,"Ġkombinasi":9309,"ï»¿":9310,"Ġnonoman":9311,"720":9312,"Ak":9313,"Aw":9314,"CA":9315,"Cit":9316,"EUNG":9317,"Jumlah":9318,"Kang":9319,"Kop":9320,"Men":9321,"Port":9322,"SX":9323,"Sang":9324,"Tim":9325,"TER":9326,"Ximena":9327,"be":9328,"bol":9329,"cal":9330,"dn":9331,"gt":9332,"hs":9333,"kit":9334,"kap":9335,"los":9336,"mur":9337,"maha":9338,"pam":9339,"sing":9340,"sab":9341,"wangi":9342,"É¡":9343,"Ø¹":9344,"ä¸":9345,"Ã©ter":9346,"Ġsand":9347,"Ġsib":9348,"ĠsÃ©r":9349,"Ġsmp":9350,"Ġsidik":9351,"Ġduka":9352,"Ġdatabase":9353,"Ġtsunami":9354,"ased":9355,"asia":9356,"Ġpab":9357,"Ġmert":9358,"Ġnab":9359,"akhir":9360,"ĠbÃ©h":9361,"Ġbib":9362,"Ġbeusi":9363,"Ġbeuheung":9364,"Ġbanjir":9365,"ĠSoc":9366,"ĠSai":9367,"ĠSumbang":9368,"ĠAP":9369,"ĠAna":9370,"ĠAst":9371,"ĠAAA":9372,"ĠArea":9373,"itor":9374,"ĠPA":9375,"ĠParis":9376,"ĠPondok":9377,"Ġlawan":9378,"ĠKing":9379,"ĠBUNG":9380,"ĠBekasi":9381,"ĠMi":9382,"ĠMand":9383,"ĠMAL":9384,"ĠMOD":9385,"Ġann":9386,"agong":9387,"Ġhese":9388,"ĠhÃ©jo":9389,"Ġharatis":9390,"ĠTet":9391,"ĠTong":9392,"ĠTÃ©lÃ©":9393,"apuk":9394,"osen":9395,"ĠCur":9396,"ĠCop":9397,"ĠCall":9398,"ĠCnc":9399,"utin":9400,"ĠNPS":9401,"ĠJos":9402,"ĠJati":9403,"ĠJÃ©rman":9404,"etic":9405,"rot":9406,"ole":9407,"ĠLi":9408,"ĠLea":9409,"ĠLangsa":9410,"ident":9411,"Ġnyarankeun":9412,"ĠIz":9413,"epung":9414,"okal":9415,"ĠHP":9416,"ĠHub":9417,"Ġinpo":9418,"Ġinyana":9419,"ebah":9420,"ĠFC":9421,"ĠForm":9422,"ĠWi":9423,"ĠWatt":9424,"anggakeun":9425,"try":9426,"ipe":9427,"ipati":9428,"ipinas":9429,"ĠOracle":9430,"ĠInf":9431,"ĠInfo":9432,"ĠAlonso":9433,"ANI":9434,"ching":9435,"Ġsakapeung":9436,"Ġmangaruhan":9437,"euteuh":9438,"uce":9439,"ĠYayasan":9440,"Ġanda":9441,"Ġ89":9442,"Ġpamungkas":9443,"Ġkabupaten":9444,"Ã©lan":9445,"Ã©ling":9446,"ĠCheras":9447,"ĠPria":9448,"Ġthan":9449,"ĠPert":9450,"Ġpasir":9451,"Ġtaunan":9452,"Ġmau":9453,"ustom":9454,"aving":9455,"ishna":9456,"onday":9457,"imbing":9458,"Ġkawajiban":9459,"ĠdaÃ©k":9460,"Ġulian":9461,"Ġakar":9462,"Ġbiaya":9463,"Ġindian":9464,"And":9465,"Ġngawuluku":9466,"Ġupamana":9467,"OLD":9468,"alametkeun":9469,"Ġsaminggu":9470,"ĠKarangan":9471,"Ġtanaga":9472,"ĠBerkualitas":9473,"unjung":9474,"Ġliar":9475,"Ġasians":9476,"Ġartis":9477,"Ġajaran":9478,"ï¿½ï¿½ï¿½ï¿½ï¿½ï¿½ï¿½ï¿½ï¿½ï¿½ï¿½":9479,"ĠSurat":9480,"Ġteach":9481,"Ġ!!!":9482,"Produk":9483,"Ġsube":9484,"Ġcontoh":9485,"tifungsi":9486,"hytom":9487,"Ġreply":9488,"ĠWilli":9489,"ĠmÃ©ter":9490,"ĠBabakan":9491,"ĠParty":9492,"Ġtabuh":9493,"xxx":9494,"ĠKahirupan":9495,"Ġambek":9496,"ĠKristiano":9497,"Ġngaronjat":9498,"Ġinteg":9499,"ĠtÃ©ma":9500,"ĠEurope":9501,"ĠSekolah":9502,"Ġtegesna":9503,"aramid":9504,"Ġparip":9505,"Ġparibasa":9506,"eukeutan":9507,"Ġmendakan":9508,"Ġsikep":9509,"Ġmajalah":9510,"madja":9511,"antoek":9512,"ĠBanjar":9513,"Ġprinting":9514,"ĠÃ©nergi":9515,"Ã§a":9516,"Ġtokoh":9517,"ĠIstanbul":9518,"ĠMarketing":9519,"Ġaffumic":9520,"ĠMentri":9521,"ĠSrila":9522,"Komentar":9523,"Ġespiritismo":9524,"ĠTabanan":9525,"Ġongkos":9526,"Ġbalanja":9527,"iridit":9528,"ĠRemix":9529,"ĠMCSE":9530,"ĠFactory":9531,"ĠURL":9532,"ĠNPSN":9533,"hytomyr":9534,"!!âĢĿ":9535,"Aud":9536,"BP":9537,"Baju":9538,"CO":9539,"Ceuk":9540,"FA":9541,"Kur":9542,"La":9543,"Mil":9544,"Nadid":9545,"Pil":9546,"SD":9547,"Sim":9548,"TE":9549,"Tomboy":9550,"blous":9551,"caya":9552,"cent":9553,"che":9554,"eve":9555,"ford":9556,"hok":9557,"hori":9558,"hijina":9559,"link":9560,"mud":9561,"pant":9562,"pend":9563,"ron":9564,"red":9565,"rÃ©t":9566,"reme":9567,"rujukan":9568,"send":9569,"uel":9570,"uana":9571,"zi":9572,"Â®":9573,"Ãª":9574,"ØŃ":9575,"Ġita":9576,"ĠÃ©d":9577,"ĠÃ©p":9578,"Ġuwong":9579,"anna":9580,"Ġkasa":9581,"Ġkari":9582,"alat":9583,"alangan":9584,"ath":9585,"ĠsÃ©s":9586,"Ġters":9587,"Ġpaham":9588,"erat":9589,"eren":9590,"Ġmedia":9591,"Ġmature":9592,"Ġnow":9593,"Ġningkat":9594,"Ġnelepon":9595,"Ġbudi":9596,"ĠSind":9597,"ĠSUN":9598,"ĠSigana":9599,"ĠSeries":9600,"ĠSociety":9601,"enangkeun":9602,"urit":9603,"Ġdidi":9604,"ĠAks":9605,"ĠPRI":9606,"ĠPoÃ©":9607,"ĠPure":9608,"ĠPhoto":9609,"adat":9610,"iklop":9611,"Ġlant":9612,"Ġlomba":9613,"Ġlyrics":9614,"orak":9615,"Ġjog":9616,"Ġjualan":9617,"Ġjumeneng":9618,"Ġnguji":9619,"Ġngitung":9620,"ĠKant":9621,"ĠKembang":9622,"ĠKiai":9623,"ĠBER":9624,"ĠBAT":9625,"ĠBUM":9626,"ĠMong":9627,"ĠMama":9628,"ĠMall":9629,"ĠMore":9630,"ĠMini":9631,"Ġhum":9632,"ĠTU":9633,"ĠToh":9634,"ĠTEL":9635,"ils":9636,"ilujeng":9637,"ĠDaman":9638,"Ġgejala":9639,"ĠCyl":9640,"ĠCombed":9641,"ĠCrowley":9642,"utsal":9643,"imini":9644,"engse":9645,"ĠJantoek":9646,"Ġ1000":9647,"Ġwear":9648,"Ġwayah":9649,"Ġriw":9650,"Ġrump":9651,"Ġread":9652,"ĠLucu":9653,"ĠLife":9654,"ĠRanc":9655,"ĠRef":9656,"ĠRange":9657,"udy":9658,"Ġsare":9659,"okolakeun":9660,"Ġfeet":9661,"ebes":9662,"ĠFl":9663,"ĠFar":9664,"ĠWomen":9665,"asiat":9666,"ugia":9667,"undaan":9668,"Ġmahasiswa":9669,"ANAN":9670,"chi":9671,"charger":9672,"main":9673,"mainan":9674,"105":9675,"107":9676,"109":9677,"aliz":9678,"Ġpamar":9679,"ĠAcara":9680,"apanÃ©":9681,"Ġkaruhun":9682,"Ġkaruksakan":9683,"aratas":9684,"inggih":9685,"Ġsahenteuna":9686,"Ġstim":9687,"Ġngaganggu":9688,"Ġthread":9689,"âĢ¦âĢĿ":9690,"Ġngadang":9691,"roidery":9692,"ordin":9693,"á®©":9694,"ĠZingg":9695,"ĠTeras":9696,"ĠKuya":9697,"ĠAddress":9698,").[":9699,"imba":9700,"ĠIsyarat":9701,"Ġlalajo":9702,"asilitas":9703,"Ġbadan":9704,"Ġcomments":9705,"ĠUnited":9706,"Ġsiah":9707,"280":9708,"earning":9709,"ĠSalian":9710,"ĠtaÃ©":9711,"ĠOne":9712,"ĠmodÃ©r":9713,"abras":9714,"alametan":9715,"ĠXH":9716,"Ġdirancang":9717,"URAH":9718,"Ġtulang":9719,"ĠKarayan":9720,"lux":9721,"Ġkakabs":9722,"ÃŃd":9723,"Ġngamungkinkeun":9724,"Ġpoli":9725,"ĠBatuwangi":9726,"ectro":9727,"ĠSabah":9728,"ĠBiasana":9729,"ĠDrs":9730,"ĠKomo":9731,"Ãīdit":9732,"ĠKecamatan":9733,"Ġsimilar":9734,"ĠDisini":9735,"Ġcaritana":9736,"Ġserangan":9737,"engkepan":9738,"ĠMadrid":9739,"ĠKanak":9740,"Ġkorsi":9741,"ĠUkuran":9742,"ĠMeneer":9743,"à¥į":9744,"Ġnambahkeun":9745,"Ġsalamet":9746,"Ġgerakan":9747,"ĠOutdoor":9748,"amster":9749,"ĠRomawi":9750,"ĠAmerican":9751,"Ġsanggup":9752,"ĠInstitute":9753,"Ġeksp":9754,"Ġmimitian":9755,"EURO":9756,"Ġsluts":9757,"Original":9758,"ĠSenÃ©n":9759,"ĠBantal":9760,"Ġngumpulkeun":9761,"Ġsipat":9762,"ĠTokopedia":9763,"ĠPermai":9764,"posal":9765,"Ġpegat":9766,"Ġmundur":9767,"Ġuntung":9768,"ĠSWT":9769,"Ġhanteu":9770,"ĠtatanÃ©n":9771,"Ġtaktak":9772,"Panyekel":9773,"Author":9774,"Ġsuppliers":9775,"ĠAsyari":9776,"Ġdiagnostik":9777,"hamdulillah":9778,"ĠPidie":9779,"ĠBUNGA":9780,"ĠDamansara":9781,"(+":9782,"By":9783,"Bandung":9784,"CE":9785,"GB":9786,"Hayu":9787,"Jasa":9788,"Kah":9789,"Lagu":9790,"My":9791,"More":9792,"Nop":9793,"Pet":9794,"Pre":9795,"Sur":9796,"Sem":9797,"SMA":9798,"Tur":9799,"Taun":9800,"dik":9801,"gent":9802,"had":9803,"hil":9804,"hop":9805,"jÃ©n":9806,"jian":9807,"kam":9808,"lia":9809,"mis":9810,"uara":9811,"à¦":9812,"Ġey":9813,"Ġ....":9814,"Ġear":9815,"Ġkend":9816,"Ġkeuna":9817,"alasi":9818,"Ġsom":9819,"Ġsong":9820,"Ġsig":9821,"Ġsug":9822,"Ġsew":9823,"Ġsitu":9824,"Ġsaja":9825,"Ġsepi":9826,"Ġsema":9827,"Ġsilk":9828,"Ġdash":9829,"Ġdoll":9830,"inu":9831,"Ġtuh":9832,"Ġtog":9833,"Ġteb":9834,"Ġtri":9835,"Ġtai":9836,"Ġtali":9837,"asangan":9838,"Ġpasi":9839,"Ġpec":9840,"Ġpublik":9841,"erus":9842,"Ġmad":9843,"Ġmudu":9844,"Ġmula":9845,"Ġnumber":9846,"Ġbekel":9847,"ĠSK":9848,"ĠSon":9849,"ĠSis":9850,"ĠSaya":9851,"onc":9852,"Ġdiya":9853,"itmen":9854,"ĠPrevious":9855,"ĠPriv":9856,"ingerie":9857,"Ġlas":9858,"oria":9859,"Ġje":9860,"Ġjembar":9861,"esta":9862,"Ġngasupkeun":9863,"ĠKelas":9864,"ĠKawas":9865,"ĠKhan":9866,"ĠKorea":9867,"ĠKupon":9868,"ĠBalik":9869,"ĠBEA":9870,"ĠBupati":9871,"ĠMot":9872,"ĠMahar":9873,"agung":9874,"Ġhip":9875,"ĠTR":9876,"ĠTat":9877,"ĠTin":9878,"ĠTapan":9879,"aping":9880,"ulation":9881,"Ġï¿½ï¿½ï¿½ï¿½:":9882,"ĠDeugdeug":9883,"Ġgur":9884,"Ġgreat":9885,"ĠCL":9886,"ĠCoun":9887,"Ġcond":9888,"Ġcau":9889,"Ġcarios":9890,"edn":9891,"eder":9892,"ength":9893,"ĠJac":9894,"ĠJaman":9895,"Ġ116":9896,"Ġ140":9897,"Ġrub":9898,"Ġrev":9899,"Ġreal":9900,"Ġreuwas":9901,"olia":9902,"ĠLah":9903,"ĠLand":9904,"ĠLord":9905,"ĠLulus":9906,"ĠLyrics":9907,"idal":9908,"Ġnyayogikeun":9909,"uping":9910,"ĠRich":9911,"ogo":9912,"icks":9913,"andia":9914,"ĠGIMP":9915,"ongge":9916,"ĠHad":9917,"ĠHum":9918,"ĠHARGA":9919,"ĠHouse":9920,"antayo":9921,"ekaran":9922,"Ġinfo":9923,"ĠFir":9924,"egara":9925,"ĠWidi":9926,"ipr":9927,"ĠEst":9928,"loc":9929,"Ġteuas":9930,"ecap":9931,"ectr":9932,"tiang":9933,"odor":9934,"embur":9935,"ibig":9936,"ĠAnug":9937,"ĠAnime":9938,"Ġsale":9939,"Ġsalian":9940,"Ġsalasahiji":9941,"Ã©rang":9942,"ĠInc":9943,"ocas":9944,"Ġyeuh":9945,"ĠAlum":9946,"0009":9947,"ched":9948,"ĠtÃ©hnologi":9949,"Ġpangsa":9950,"Ġpangarang":9951,"ĠYah":9952,"ĠYesus":9953,"ĠYoung":9954,"Ġdistro":9955,"ĠProject":9956,"Ġpamust":9957,"Ġprakt":9958,"Ġditur":9959,"Ã©mium":9960,"eupaskeun":9961,"anja":9962,"Ġkabur":9963,"ONT":9964,"134":9965,"ormon":9966,"ĠÃ³":9967,"ĠArn":9968,"Ġngabantu":9969,"agaz":9970,"Ġmax":9971,"iful":9972,"imbangkeun":9973,"INING":9974,"Ġacc":9975,"iving":9976,"ĠKalung":9977,"ĠKalayan":9978,"Ġumurna":9979,"ross":9980,"Ġakma":9981,"ĠManager":9982,"ANGK":9983,"share":9984,"ĠAbu":9985,"ĠSaiki":9986,"assidy":9987,"ĠmodÃ©l":9988,"ĠPlaza":9989,"ĠTrading":9990,"\":{\"":9991,"achi":9992,"aptaran":9993,"Ġkolabor":9994,"Ġpolitik":9995,"Ġ1997":9996,"ected":9997,"Ġits":9998,"ĠKaayaan":9999,"ĠkÃ©nca":10000,"Ġdihasilkeun":10001,"ĠSaras":10002,"ĠPaul":10003,"Ġwaragad":10004,"Ġhidep":10005,"uhunkeun":10006,"aringa":10007,"Ġkrungu":10008,"Ġpoto":10009,"amily":10010,"ĠKatun":10011,"ĠProduksi":10012,"Ġmonth":10013,"Ġburuan":10014,"Ġkolotna":10015,"ĠdokumÃ©n":10016,"Ġnasabah":10017,"SMKS":10018,"Ġwaditra":10019,"ĠMajalengka":10020,"Ġwilujeng":10021,"awakil":10022,"Ġswap":10023,"Ġpuisi":10024,"self":10025,"Ġucing":10026,"Ġbuleud":10027,"ĠKepala":10028,"Ġgaib":10029,"ĠFakult":10030,"ĠValve":10031,"ĠBandara":10032,"Ġnepikeun":10033,"tttt":10034,"Ġdongeng":10035,"ĠCianjuran":10036,"ĠJackpot":10037,"ĠSababaraha":10038,"ĠbÃ©ja":10039,"Ġdakes":10040,"Ġnyatana":10041,"Ġhaneut":10042,"ĠKuningan":10043,"Ġstatus":10044,"Ġnovel":10045,"Ġngiringan":10046,"Ġbehold":10047,"ictionary":10048,"Bahasa":10049,"ĠCagayan":10050,"Tanah":10051,"ĠPictures":10052,"Ġkayakinan":10053,"ĠspÃ©siÃ©s":10054,"Ġleupas":10055,"ĠDealer":10056,"sterdam":10057,"Ġkabutuhan":10058,"Ġyuswa":10059,"ĠBlancos":10060,"Ġdidieu":10061,"iklopÃ©di":10062,"Nopember":10063,"ĠTapanuli":10064,"!''":10065,")ï¿½ï¿½ï¿½ï¿½ï¿½ï¿½ï¿½":10066,",+":10067,"?]":10068,"Alamat":10069,"BM":10070,"Cir":10071,"EX":10072,"IJ":10073,"Kac":10074,"Kota":10075,"Moh":10076,"Pi":10077,"Peter":10078,"Sun":10079,"Salah":10080,"Sabab":10081,"ble":10082,"ez":10083,"gar":10084,"hiji":10085,"hod":10086,"jad":10087,"kl":10088,"kn":10089,"key":10090,"lok":10091,"lagu":10092,"may":10093,"pel":10094,"pns":10095,"samÃ©mÃ©hna":10096,"ym":10097,"yu":10098,"yaman":10099,"zh":10100,"Â©":10101,"Äį":10102,"à¯":10103,"ãĢ":10104,"ĠÃ©ns":10105,"arangan":10106,"Ġkud":10107,"Ġkre":10108,"Ġkuda":10109,"Ġklorida":10110,"Ã©ma":10111,"Ã©wa":10112,"alo":10113,"aly":10114,"Ġsuhu":10115,"Ġdoor":10116,"Ġtump":10117,"Ġtempo":10118,"Ġpor":10119,"Ġpitu":10120,"Ġpapan":10121,"Ġphot":10122,"Ġpriv":10123,"ersa":10124,"erint":10125,"Ġmr":10126,"ĠmÃ©h":10127,"Ġmart":10128,"Ġmari":10129,"Ġmingg":10130,"Ġmugi":10131,"Ġnek":10132,"Ġnip":10133,"Ġnanyakeun":10134,"akak":10135,"Ġbogoh":10136,"amad":10137,"ĠSig":10138,"ĠSatu":10139,"Ġdiadegkeun":10140,"ĠAsa":10141,"ĠAudio":10142,"iture":10143,"orangan":10144,"Ġjas":10145,"Ġjud":10146,"Ġjangka":10147,"ayon":10148,"ayun":10149,"ayanth":10150,"esih":10151,"Ġngu":10152,"Ġnger":10153,"Ġnguc":10154,"Ġngangon":10155,"ĠKali":10156,"ĠKOTA":10157,"ĠBud":10158,"ĠBangkalan":10159,"ĠBPK":10160,"ĠMF":10161,"ĠMI":10162,"ĠMund":10163,"ĠMost":10164,"Ġhead":10165,"ĠTen":10166,"ĠTRA":10167,"tao":10168,"ilities":10169,"ĠDP":10170,"ĠDil":10171,"ĠDul":10172,"uminac":10173,"emÃ©":10174,"emes":10175,"Ġgra":10176,"Ġgudang":10177,"iritual":10178,"ĠCF":10179,"ĠCasa":10180,"Ġcarat":10181,"utah":10182,"edja":10183,"edalkeun":10184,"ĠNeng":10185,"ĠNias":10186,"ĠNBA":10187,"img":10188,"imana":10189,"ĠJe":10190,"ĠJose":10191,"002":10192,"Ġ115":10193,"roe":10194,"Ġrer":10195,"Ġris":10196,"Ġros":10197,"Ġraos":10198,"Ġritual":10199,"ĠLeg":10200,"ĠLAY":10201,"ĠLombok":10202,"ajal":10203,"Ġnyep":10204,"ĠIdi":10205,"otong":10206,"ĠRebo":10207,"ĠRendah":10208,"Ġ--":10209,".....âĢĿ":10210,"andaan":10211,"andra":10212,"ĠGolf":10213,"ĠHak":10214,"ĠHapon":10215,"ĠHUF":10216,"antang":10217,"antrÃ©n":10218,"Ġif":10219,"Ġfit":10220,"Ġfun":10221,"Ġfind":10222,"Ġinti":10223,"Ġinci":10224,"Ġkuant":10225,"ĠFashion":10226,"trans":10227,"Ġav":10228,"ugis":10229,"ĠOd":10230,"ĠORI":10231,"emban":10232,"ĠnaÅĭa":10233,"Ã©kah":10234,"Ã©kwa":10235,"Ġ\"$":10236,"owongan":10237,"ĠIns":10238,"Ġkasad":10239,"Ġkasuks":10240,"ĠVa":10241,"ersil":10242,"Ġ/>":10243,"india":10244,"Ġprot":10245,"ALL":10246,"stil":10247,"stock":10248,"Ġditutup":10249,"Ġngarep":10250,"Ġngaruksak":10251,"onto":10252,"anjut":10253,"Ġkabar":10254,"Ã©ngan":10255,"unggangan":10256,"uard":10257,"ulauan":10258,"ĠagÃ©n":10259,"Ġbaru":10260,"Ġngagem":10261,"ĠÃ¢":10262,"ĠArist":10263,"price":10264,"ĠNgah":10265,"ĠNgag":10266,"Ġkapang":10267,"ĠmaranÃ©h":10268,"ĠTerkini":10269,"eyuran":10270,"iff":10271,"Ġtatangkalan":10272,"ĠStation":10273,"akaisaran":10274,"kaosmurah":10275,"kaosskate":10276,"Ġminuhan":10277,"ATAN":10278,"antenkeun":10279,"Ġused":10280,"Ġtempatna":10281,"Ġapang":10282,"Ġbook":10283,"702":10284,"ĠKabataanN":10285,"ousand":10286,"Ġutusan":10287,"Ġsawarga":10288,"hailand":10289,"Ġdimekarkeun":10290,"290":10291,"Ngan":10292,"0875":10293,"AGAM":10294,"Ġkontr":10295,"2005":10296,"Ġlive":10297,"Ġexc":10298,"ĠâĢ¦âĢ¦âĢ¦":10299,"ĠAwal":10300,"awangi":10301,"urniture":10302,"Ġpakarang":10303,"Ġpentingna":10304,"Ġpanyadia":10305,"ĠSeragam":10306,"yright":10307,"Ġsyukur":10308,"Ġdalapan":10309,"ĠArtikel":10310,"OMB":10311,"OME":10312,"Ġdoes":10313,"Ġkersa":10314,"áº¿":10315,"ĠmÃ©ja":10316,"awanohkeun":10317,"ĠBabe":10318,"Ġtips":10319,"OKO":10320,"Euro":10321,"Ġnegara":10322,"ĠPosts":10323,"ĠRahwana":10324,"parent":10325,"Ġgoreng":10326,"ĠJaguar":10327,"********":10328,"ĠmÃ¨lu":10329,"ĠIluminac":10330,"ĠMoal":10331,"bagus":10332,"Black":10333,"ĠMilf":10334,"ĠIbrahim":10335,"Ġdewa":10336,"Ã´h":10337,"Ġtiket":10338,"tawis":10339,"ÑģÐºÐ¸":10340,"ahlawan":10341,"Ġnyatakeun":10342,"ĠumahÃ©":10343,"ĠRockwood":10344,"Ġsrc":10345,"Paliguan":10346,"Ġcabang":10347,"4990875":10348,"ĠTHE":10349,"ĠDewi":10350,"alisis":10351,"Ġfaktor":10352,"iksimini":10353,"Ġleaders":10354,"ĠSERAGAM":10355,"Ġmigunakeun":10356,"ĠSevÃŃl":10357,"nawaran":10358,"ĠMahatma":10359,"ĠMadrÃŃd":10360,"omemade":10361,"ĠTÃ©lÃ©charger":10362,"ĠXHamster":10363,"ĠBEAUZ":10364,"agazine":10365,"Ġkolaborasi":10366,"ĠÃ©nsiklopÃ©di":10367,"ĠIluminacion":10368,"ĠSevÃŃlla":10369,"'t":10370,"211":10371,"330":10372,"750":10373,"800":10374,"868":10375,"Air":10376,"Bus":10377,"Brow":10378,"Da":10379,"KN":10380,"Keur":10381,"Kursus":10382,"Pak":10383,"Puwit":10384,"RT":10385,"Set":10386,"Saha":10387,"Sarees":10388,"Tong":10389,"Uk":10390,"berg":10391,"duma":10392,"ekeun":10393,"med":10394,"post":10395,"panjang":10396,"pdf":10397,"rel":10398,"ss":10399,"sat":10400,"tah":10401,"wak":10402,"ÅĻ":10403,"Ð´":10404,"Ġ_":10405,"Ġangka":10406,"Ġera":10407,"ngan":10408,"Ġkani":10409,"Ã©tr":10410,"alian":10411,"Ġsung":10412,"Ġsot":10413,"Ġsasa":10414,"Ġtuk":10415,"Ġpon":10416,"Ġpig":10417,"Ġpeur":10418,"aharna":10419,"erkeun":10420,"Ġmont":10421,"Ġmuru":10422,"Ġnangk":10423,"Ġnama":10424,"akti":10425,"Ġbil":10426,"Ġbaku":10427,"Ġbert":10428,"Ġbiru":10429,"ĠbÃ©dana":10430,"aming":10431,"amina":10432,"ĠSP":10433,"ĠSaha":10434,"ĠSarah":10435,"ĠSongs":10436,"ĠSEK":10437,"ĠSpring":10438,"urch":10439,"Ġdiayakeun":10440,"Ġdiomongkeun":10441,"ĠAF":10442,"ĠAa":10443,"ĠAPI":10444,"itÃ©r":10445,"ĠPir":10446,"ĠPuguh":10447,"add":10448,"adua":10449,"ised":10450,"unas":10451,"Ġlu":10452,"Ġlim":10453,"Ġlambang":10454,"abungkeun":10455,"Ġjarang":10456,"Ġjaba":10457,"Ġngo":10458,"Ġngeu":10459,"Ġngangkat":10460,"ĠKak":10461,"ĠBA":10462,"ĠBO":10463,"ĠBung":10464,"ĠBari":10465,"ĠBAHAN":10466,"ĠBAJU":10467,"ĠMiy":10468,"ĠMach":10469,"ĠMesir":10470,"aging":10471,"agro":10472,"agih":10473,"Ġhulu":10474,"ĠTÃ©k":10475,"ĠTra":10476,"ulette":10477,"ungi":10478,"ĠDu":10479,"ĠDapat":10480,"awaran":10481,"Ġgod":10482,"Ġgaring":10483,"elakan":10484,"elasan":10485,"osp":10486,"iraan":10487,"ĠCic":10488,"ĠCanc":10489,"ĠCarita":10490,"ĠCocog":10491,"Ġcle":10492,"Ġcageur":10493,"Ġ230":10494,"utat":10495,"utus":10496,"ĠNor":10497,"ĠNavi":10498,"anafil":10499,"ĠJog":10500,"ĠJersey":10501,"ethy":10502,"Ġweh":10503,"Ġrujukan":10504,"olat":10505,"olongkeun":10506,"ĠLamb":10507,"ĠLex":10508,"ĠLoung":10509,"ĠLirik":10510,"oms":10511,"Ġnyalametkeun":10512,"ĠRS":10513,"ĠRON":10514,"Ġ---------":10515,"ihon":10516,"ando":10517,"ĠGel":10518,"ĠGre":10519,"ĠHarita":10520,"ĠHawu":10521,"sie":10522,"sial":10523,"anteng":10524,"ektur":10525,"Ġfin":10526,"Ġfix":10527,"Ġfriend":10528,"Ġfashion":10529,"ĠFabric":10530,"ĠFSX":10531,"ampar":10532,"ĠWork":10533,"iau":10534,"Ġatasan":10535,"ĠUNC":10536,"ecapan":10537,"opa":10538,"opati":10539,"embleng":10540,"ibat":10541,"ibah":10542,"ibet":10543,"MAL":10544,"undeur":10545,"ĠAnj":10546,"Ġsaluran":10547,"Ġperi":10548,"Ġï¿½ï¿½ï¿½,":10549,"save":10550,"Ġalias":10551,"cha":10552,"ĠViews":10553,"eutan":10554,"amix":10555,"ĠAmbu":10556,"ĠAmsterdam":10557,"indo":10558,"iwangi":10559,"alaunan":10560,"awanÃ©":10561,"Ġ86":10562,"Ġ87":10563,"ERS":10564,"Ġpract":10565,"ĠIndram":10566,"Ġkarana":10567,"Ġkatukang":10568,"Ġ1927":10569,"inggang":10570,"ĠChris":10571,"Ġagen":10572,"Ġstudi":10573,"Ġstyle":10574,"Ġpariksa":10575,"pret":10576,"ĠNgeunaan":10577,"Ġthere":10578,"Ġngabah":10579,"Ġngadaptar":10580,"á®§":10581,"á®ľ":10582,"ĠZini":10583,"ardinal":10584,"ĠShah":10585,"ences":10586,"Ġ91":10587,"Ġ94":10588,"oriasis":10589,"ĠkomÃ©ntar":10590,"Ġkomitmen":10591,"kaossur":10592,"kaosbandung":10593,"Ġwaktuna":10594,"ĠIsland":10595,"ĠMalahan":10596,"Ġaktif":10597,"Ġbadarat":10598,"UNA":10599,"Ġpatung":10600,"Ġbiantara":10601,"Ġberg":10602,"Ġberj":10603,"Ġuse":10604,"Ġusing":10605,"iyes":10606,"Ã©wang":10607,"Ġbox":10608,"Ġtitle":10609,"Ġtitipan":10610,"asso":10611,"ĠTresna":10612,"Ġsupados":10613,"ojongan":10614,"ĠBeroun":10615,"Ġpadum":10616,"ĠArizona":10617,"Ġextr":10618,"laim":10619,"Ġpuluhan":10620,"ĠAwards":10621,"Ġ1990":10622,"Ġ1999":10623,"Ġpakakas":10624,"ĠTeuing":10625,"hatikeun":10626,"Ġzat":10627,"ĠFlorence":10628,"IRT":10629,"Ġlebih":10630,"ĠMahas":10631,"ĠDisc":10632,"ĠhakÃ©kat":10633,"AXD":10634,"uchong":10635,"ĠWalang":10636,"ĠHalf":10637,"Ġheavi":10638,"ĠTurun":10639,"Ġpanggung":10640,"ĠPanthers":10641,"Ġjarak":10642,"Ġrahmat":10643,"Ġraray":10644,"ĠJatim":10645,"Ð¾Ð´":10646,"Ġnegeri":10647,"Ġsangapulo":10648,"Ġmapay":10649,"Ġnjaluk":10650,"ĠRahman":10651,"Ġmindahkeun":10652,"ĠDÃ¨sa":10653,"ĠKepulauan":10654,"ĠGeranium":10655,"krip":10656,"Ġboboran":10657,"Ġseniman":10658,"baguna":10659,"Ġengke":10660,"Upami":10661,"Ġdewasa":10662,"ĠpandÃ©":10663,"CTV":10664,"Ġhiber":10665,"ediksi":10666,"holesale":10667,"Ġcustom":10668,"ĠPKR":10669,"ĠPapua":10670,"ĠDigital":10671,"ĠLukis":10672,"Ġinvestasi":10673,"ĠSexy":10674,"Ġgigireun":10675,"utoarjo":10676,"cribd":10677,"ĠOFF":10678,"Ġmaipapan":10679,"âĢĺ][":10680,"eujeuhna":10681,"ĠPresiden":10682,"GINAL":10683,"Ġcilaka":10684,"Ġkamampuhan":10685,"Ġnasib":10686,"ĠRidwan":10687,"ponse":10688,"ĠRailway":10689,"ĠDirectory":10690,"Ġjandela":10691,"ĠDuty":10692,"Audition":10693,"ĠÃ©pÃ©k":10694,"ĠSUNDA":10695,"ĠsemaurÃ©":10696,"ĠIndramayu":10697,"kaossurfing":10698,")ï¿½ï¿½ï¿½ï¿½":10699,"BD":10700,"Bro":10701,"Dit":10702,"Fi":10703,"Free":10704,"HOME":10705,"Jan":10706,"Kul":10707,"LI":10708,"MS":10709,"Mur":10710,"May":10711,"Milan":10712,"Prop":10713,"Qu":10714,"Rob":10715,"Slot":10716,"Sens":10717,"TV":10718,"Taya":10719,"TAN":10720,"Web":10721,"WPCF":10722,"ZE":10723,"aay":10724,"cu":10725,"ciyes":10726,"dar":10727,"dbagus":10728,"hemat":10729,"jual":10730,"km":10731,"kang":10732,"kota":10733,"lum":10734,"lace":10735,"meul":10736,"mall":10737,"nagara":10738,"pikeun":10739,"rab":10740,"rug":10741,"sub":10742,"tang":10743,"tags":10744,"vision":10745,"zess":10746,"Ã¦":10747,"Ã½":10748,"ÄŁ":10749,"Ġuy":10750,"Ġ),":10751,"ĠÃ©nggal":10752,"euen":10753,"ĠkÃ©ta":10754,"Ġkanca":10755,"alem":10756,"Ġseng":10757,"Ġsistim":10758,"Ġduh":10759,"Ġdemen":10760,"Ġtwo":10761,"asm":10762,"astr":10763,"Ġpek":10764,"Ġpangkat":10765,"Ġpacking":10766,"Ġmup":10767,"Ġmasi":10768,"Ġnina":10769,"aktur":10770,"Ġbee":10771,"eunakeun":10772,"ĠSS":10773,"ĠSta":10774,"ĠSle":10775,"ĠSultan":10776,"uron":10777,"ĠPJ":10778,"ĠPidato":10779,"adas":10780,"ador":10781,"Ġlampahna":10782,"abatan":10783,"orejo":10784,"Ġji":10785,"ayasa":10786,"ayeuna":10787,"Ġngub":10788,"Ġngej":10789,"ĠKU":10790,"ĠKut":10791,"ĠKUR":10792,"ĠKawat":10793,"ĠBojong":10794,"ĠMangg":10795,"usuh":10796,"Ġhim":10797,"Ġhard":10798,"ĠTos":10799,"ĠTir":10800,"ĠTamil":10801,"apang":10802,"apatan":10803,"ille":10804,"ulture":10805,"ĠDE":10806,"ĠDia":10807,"ĠDÃ©w":10808,"umn":10809,"emah":10810,"Ġgamat":10811,"ĠCD":10812,"ĠCN":10813,"ĠCamp":10814,"ĠCov":10815,"ĠCCTV":10816,"Ġcaw":10817,"Ġcec":10818,"Ġcdot":10819,"ĠNok":10820,"ĠNusa":10821,"imat":10822,"ĠJud":10823,"ĠJero":10824,"ĠJAK":10825,"ĠJuly":10826,"ĠJimbaran":10827,"Ġ101":10828,"Ġ160":10829,"Ġwali":10830,"Ġwidget":10831,"Ġrac":10832,"ĠrÃ©h":10833,"olahan":10834,"olobaan":10835,"olution":10836,"ĠLor":10837,"ĠLum":10838,"ĠIa":10839,"upaning":10840,"ĠRuth":10841,"ĠGaya":10842,"ĠGod":10843,"ĠGirl":10844,"acak":10845,"uduk":10846,"ongton":10847,"ĠHow":10848,"ektrik":10849,"Ġinch":10850,"ĠFat":10851,"ĠFestival":10852,"ĠWas":10853,"ĠWedding":10854,"angganan":10855,"aries":10856,"adies":10857,"adium":10858,"ipud":10859,"ĠUy":10860,"ibusi":10861,"lej":10862,"ĠAnia":10863,"Ġkalina":10864,"Ġmahal":10865,"Ġsalwar":10866,"itive":10867,"Ġkasalametan":10868,"ewara":10869,"Ġalim":10870,"Ġdipang":10871,"ĠVacan":10872,"125":10873,"Ġvir":10874,"Ġpangaj":10875,"ancing":10876,"ancara":10877,"indahkeun":10878,"Ġandroid":10879,"alav":10880,"Ġpamil":10881,"ontak":10882,"ĠkabÃ¨h":10883,"115":10884,"umba":10885,"137":10886,"erix":10887,"Ġ1945":10888,"Ġsababna":10889,"Ġterbaik":10890,"lied":10891,"Ġagpaay":10892,"astiti":10893,"âĢĻ][":10894,"Ġstock":10895,"Ġparis":10896,"Ġngajantenkeun":10897,"Ġngabantosan":10898,"Ġngabejaan":10899,"ĠkadÃ©ngÃ©":10900,"ĠZhytomyr":10901,"Ġabang":10902,"tÃ©ri":10903,"Ġtatangga":10904,"Ġtatapakan":10905,"Ġtattao":10906,"ĠStock":10907,"ĠAdobe":10908,"Ġsatia":10909,"ĠÂ»Â»":10910,"ĠAsÃ©p":10911,"ATI":10912,"Ġdilarapkeun":10913,"ĠKalÃ©nder":10914,"Ġdiganti":10915,"Ġdigawe":10916,"lamy":10917,"Ġaksi":10918,"Ġmilik":10919,"Ġï¿½ï¿½ï¿½ï¿½ï¿½ï¿½ï¿½ï¿½ï¿½ï¿½.":10920,"Ġpatalina":10921,"Ġberh":10922,"Ġdikal":10923,"inium":10924,"ĠSalt":10925,"ĠSave":10926,"Ġï¿½ï¿½ï¿½ï¿½ï¿½ï¿½ï¿½ï¿½ï¿½ï¿½ï¿½,":10927,"ulty":10928,"ĠKabataanKabataan":10929,"ĠDau":10930,"Ġmaterial":10931,"atoan":10932,"Ġdisebutna":10933,"Ġpaguneman":10934,"Ġrespon":10935,"Ġkonv":10936,"ĠJohar":10937,"Ð¸Ð»":10938,"Ã¨kna":10939,"Ġsampai":10940,"Ġdiwanoh":10941,"ĠSakab":10942,"ĠAwan":10943,"ĠMasjid":10944,"Ġ1996":10945,"roll":10946,"rolog":10947,"bitkeun":10948,"Ġdidik":10949,"produk":10950,"Ġilahar":10951,"incak":10952,"incip":10953,"Ġjaminan":10954,"ĠPinuh":10955,"eresih":10956,"Ġeff":10957,"ĠSareng":10958,"Ġclos":10959,"Ġcontact":10960,"'''":10961,"ĠSingaraja":10962,"Ġpengel":10963,"ĠSemarang":10964,"Ġkepada":10965,"ĠElectro":10966,"ĠItalia":10967,"Ġnurut":10968,"Ġwhite":10969,"tanian":10970,"Ġident":10971,"Ġprofess":10972,"Ġserta":10973,"Ġklasik":10974,"Ġcaina":10975,"ĠBalmaha":10976,"ĠBabul":10977,"Ġrahayu":10978,"ĠFrank":10979,"ĠKurt":10980,"Kalayan":10981,"ĠPullover":10982,"ĠZingler":10983,"ĠKeluarga":10984,"arso":10985,"Ġnapsu":10986,"Ä±n":10987,"Ġkunanti":10988,"Ġmandiri":10989,"Ġndad":10990,"ĠramÃ©":10991,"Ġnambihan":10992,"ĠSMS":10993,"Ġsuwara":10994,"Ġdadduma":10995,"Ġucap":10996,"Ġgenerator":10997,"brand":10998,"ĠMultifungsi":10999,"ĠGerman":11000,"ĠValerix":11001,"ĠsintrÃ¨nÃ©":11002,"ĠBandel":11003,"Ġpupus":11004,"aboratori":11005,"ĠCollege":11006,"IONAL":11007,"Ġimpian":11008,"ĠDayeuh":11009,"Ġbanyu":11010,"kabÄ±":11011,"Ġnikah":11012,"Special":11013,"Ġengine":11014,"Ġtanduk":11015,"Ġtibatan":11016,"Ġsignup":11017,"ĠBiblia":11018,"Ġkantong":11019,"Ġnyampeurkeun":11020,"Reply":11021,"ĠBosch":11022,"ĠKowen":11023,"ĠMimiti":11024,"ĠDiyos":11025,"Ġinovasi":11026,"ĠDvd":11027,"Ġcirc":11028,"ĠStephen":11029,"Categories":11030,"FLASH":11031,"ĠPupuh":11032,"Ġlanggeng":11033,"ĠCategories":11034,"ĠCosmos":11035,"ĠÃ©fÃ©ktif":11036,"Ġsajatining":11037,"cription":11038,"Ġeducation":11039,"ecutive":11040,"=-=-":11041,"eungharan":11042,"Ġkanyahoan":11043,"Ġteachers":11044,"Ġparipolah":11045,"ĠYahudi":11046,"ĠSarasota":11047,"ĠORIGINAL":11048,"ĠkasuksÃ©san":11049,"ĠMiyako":11050,"ĠVacanze":11051,":$":11052,"::":11053,"Distance":11054,"Es":11055,"Gag":11056,"Hasil":11057,"Jawa":11058,"Joshua":11059,"Kr":11060,"Kow":11061,"LAH":11062,"LMi":11063,"NAL":11064,"Ol":11065,"Ora":11066,"SG":11067,"Sc":11068,"Sedengkeun":11069,"Shirt":11070,"TD":11071,"To":11072,"UC":11073,"VEN":11074,"balik":11075,"cat":11076,"daya":11077,"far":11078,"gu":11079,"gani":11080,"jack":11081,"koh":11082,"lÃ©":11083,"lay":11084,"lap":11085,"lami":11086,"mang":11087,"mul":11088,"mata":11089,"rec":11090,"rame":11091,"top":11092,"ved":11093,"wh":11094,"was":11095,"your":11096,"yoo":11097,"Ãĥ":11098,"Å£":11099,"Å¾":11100,"ÆĴ":11101,"Ð³":11102,"ÑĨ":11103,"âŃ":11104,"ngah":11105,"arap":11106,"ared":11107,"Ġkilang":11108,"Ġkandang":11109,"allahu":11110,"atuan":11111,"Ġsit":11112,"Ġsama":11113,"Ġscr":11114,"Ġdaw":11115,"Ġdown":11116,"ĠdÃ¨wÃ¨k":11117,"inh":11118,"ination":11119,"Ġtake":11120,"Ġtihang":11121,"ĠtanganÃ©":11122,"Ġtoday":11123,"Ġpah":11124,"Ġpeta":11125,"Ġpanggih":11126,"erit":11127,"Ġmaan":11128,"ĠmÃ©g":11129,"Ġnin":11130,"Ġnear":11131,"Ġnawang":11132,"akang":11133,"Ġbeu":11134,"Ġbij":11135,"Ġbula":11136,"ament":11137,"ĠSud":11138,"ĠSofa":11139,"onic":11140,"Ġdiasupkeun":11141,"ĠPit":11142,"ĠPasi":11143,"ĠPlan":11144,"ĠPiran":11145,"ĠPuchong":11146,"adesh":11147,"ikaan":11148,"Ġlun":11149,"Ġlec":11150,"Ġlike":11151,"abad":11152,"abkeun":11153,"orÃ©":11154,"Ġjun":11155,"Ġjol":11156,"Ġnging":11157,"Ġngangg":11158,"Ġngumb":11159,"ĠKlik":11160,"ĠBina":11161,"ĠBudi":11162,"ĠBÃ©bas":11163,"ĠBulu":11164,"ĠMakÃ©":11165,"ĠMaksud":11166,"ĠMiu":11167,"ĠMagazine":11168,"agement":11169,"agjaan":11170,"Ġhawu":11171,"Ġhitut":11172,"Ġheureuy":11173,"ĠTap":11174,"ĠTid":11175,"ĠTown":11176,"ĠTÃ©mbongkeun":11177,"apÃ©":11178,"ulin":11179,"ulir":11180,"ĠDh":11181,"ĠData":11182,"ĠDictionary":11183,"umur":11184,"umsi":11185,"umahan":11186,"Ġguna":11187,"Ġgamelan":11188,"eling":11189,"eliti":11190,"ĠCR":11191,"ĠCim":11192,"ĠCot":11193,"ĠCusan":11194,"ĠCasting":11195,"ĠCOW":11196,"ĠCalif":11197,"Ġcit":11198,"Ġceng":11199,"Ġcatur":11200,"Ġcall":11201,"ĠNag":11202,"ĠNep":11203,"ĠJo":11204,"etara":11205,"eungkeut":11206,"Ġkaopat":11207,"Ġwant":11208,"Ġwijaksana":11209,"Ġru":11210,"Ġren":11211,"ĠLarge":11212,"Ġnyir":11213,"Ġnyawang":11214,"ĠID":11215,"ĠIng":11216,"ĠIde":11217,"upakeun":11218,"upakan":11219,"ĠRasa":11220,"epat":11221,"andal":11222,"ĠGener":11223,"udes":11224,"Ã©nta":11225,"entes":11226,"enteng":11227,"ongo":11228,"ĠHimal":11229,"Ġfir":11230,"Ġfav":11231,"Ġinohong":11232,"ebulÃ©":11233,"igit":11234,"ĠFly":11235,"ĠWast":11236,"ĠWewengkon":11237,"Ġ||":11238,"ĠEvent":11239,"ectron":11240,"options":11241,"tib":11242,"Ġ399":11243,"heim":11244,"atani":11245,"Ã©kam":11246,"ambu":11247,"ambalan":11248,"Ġkalurahan":11249,"Ġsalira":11250,"Ġkasakit":11251,"Ġkasundaan":11252,"empar":11253,"Ġï¿½ï¿½ï¿½ï¿½ï¿½ï¿½..":11254,"Ġaltern":11255,"0005":11256,"Ġdipilih":11257,"Ġï¿½ï¿½ï¿½ï¿½ï¿½ï¿½ï¿½:":11258,"ĠVia":11259,"129":11260,"endari":11261,"Ġview":11262,"Ġonly":11263,"Ġdiseb":11264,"ints":11265,"108":11266,"ĠProt":11267,"akuw":11268,"Ġ82":11269,"Ġprestasi":11270,"Ġditinggalkeun":11271,"Ġngarana":11272,"Ġngarop":11273,"Ġngarupakeun":11274,"Ġkabawa":11275,"Ġkabuka":11276,"Ġkaton":11277,"ungguan":11278,"Ġkacamata":11279,"eukeuh":11280,"Ã©dakeun":11281,"190":11282,"Ġmariksa":11283,"ĠPerk":11284,"ordan":11285,"iframe":11286,"Ġtatali":11287,"Ġtatotato":11288,"ĠStudi":11289,"Ġsinga":11290,"Ġngahaja":11291,"kaosf":11292,"uhurna":11293,"ĠAsep":11294,"Ġmaksa":11295,"Ġarista":11296,"ombo":11297,"Ġpatut":11298,"Ġberb":11299,"Ġcompil":11300,"Ġcomment":11301,"ĠUni":11302,"Ġdepan":11303,"shin":11304,"iyan":11305,"Ġamin":11306,"ological":11307,"Ð°Ñı":11308,"Ġdicar":11309,"Ġdicandak":11310,"Ġblok":11311,"Ã©ntahkeun":11312,"ĠDaud":11313,"ĠPlafon":11314,"Ð¾Ð»":11315,"ĠTrump":11316,"ĠXS":11317,"Ã©publik":11318,"spir":11319,"Ġbuta":11320,"Ġbuahna":11321,"ĠApay":11322,"à¤¨":11323,"ize":11324,"Ġkulaw":11325,"cient":11326,"Ġlaeng":11327,"Ġshow":11328,"2002":11329,"Ġobserv":11330,"ĠSanur":11331,"nyataan":11332,"ĠkolÃ©":11333,"ĠPanon":11334,"Ġteka":11335,"Ġkelompok":11336,"Ġitem":11337,"ï¿½ï¿½ï¿½ï¿½ï¿½ï¿½ï¿½ï¿½ï¿½ï¿½":11338,"Ġilaharna":11339,"Ġpesan":11340,"ĠAkar":11341,"ĠpaÃ©h":11342,"Ġlebak":11343,"Ġkurban":11344,"pangna":11345,"Ġpengiriman":11346,"ĠSatria":11347,"ĠPeny":11348,"Ġpapayung":11349,"Ġdaytoy":11350,"malink":11351,"Ġwhol":11352,"Ġpercobaan":11353,"Ġideu":11354,"!!!":11355,"ĠAmateurAdos":11356,"ĠLounds":11357,"ĠWild":11358,"uncak":11359,"Ġpangged":11360,"Ġbeban":11361,"Ġbebeneran":11362,"...âĢĿâĢľ":11363,"Ġmony":11364,"Ġangkutan":11365,"Ġpanasaran":11366,"ĠUniversal":11367,"ĠZinger":11368,"Shell":11369,"Ġquality":11370,"ĠMajalah":11371,"Ġmandeng":11372,"ĠKonv":11373,"ĠBanyumas":11374,"Ġkesenian":11375,"eunteu":11376,"inyur":11377,"ĠBanxxx":11378,"ĠMelihat":11379,"Ã¼r":11380,"Ġserver":11381,"Ġpupuhu":11382,"Ġratus":11383,"Ġembung":11384,"ĠOffice":11385,"ĠProfile":11386,"ĠsanggÃ©d":11387,"Ġafter":11388,"adidas":11389,"Ġgoogle":11390,"eautiful":11391,"Ġbanyak":11392,"ĠLanza":11393,"Ġnyerat":11394,"Ã©kuÃ©nsi":11395,"Ġtagged":11396,"ĠWallpapers":11397,"ĠCitakan":11398,"jaguar":11399,"ĠtakonÃ©":11400,"Sanibel":11401,"Ġoct":11402,"Ġpingping":11403,"ĠPowerShell":11404,"ĠTumuwuh":11405,"IVE":11406,"Ġnyebarkeun":11407,"Ġcintamu":11408,"ĠNavel":11409,"ugemakeun":11410,"Ġlempeng":11411,"ĠLabuhan":11412,"ĠUkraina":11413,"ĠScience":11414,"ĠBengkulu":11415,"ĠSquare":11416,"Ġpsoriasis":11417,"Ġpanarjamahan":11418,"ĠBarbuda":11419,"mercial":11420,"ĠBitcoin":11421,"ĠBÃ©lis":11422,"Ġcookies":11423,"Uploadet":11424,"Ġannakna":11425,"horiz":11426,"sendai":11427,"Ġkakabsatna":11428,"Ġdollar":11429,"Ġpamustunganana":11430,"Cirebon":11431,"ĠLAYER":11432,"ĠLexmark":11433,"Ġheaviest":11434,"meulikeun":11435,"ĠElectrolux":11436,"LMiC":11437,"ĠPiranuk":11438,"ĠCOWOK":11439,"215":11440,"Af":11441,"Ba":11442,"Ben":11443,"Cik":11444,"Carita":11445,"Coll":11446,"COM":11447,"Dr":11448,"February":11449,"GI":11450,"HARGA":11451,"KC":11452,"Kap":11453,"Kanggo":11454,"Lab":11455,"Min":11456,"Matt":11457,"Oct":11458,"SR":11459,"Simp":11460,"TI":11461,"Tat":11462,"UI":11463,"backs":11464,"burg":11465,"cÃ©s":11466,"cadc":11467,"det":11468,"fin":11469,"giru":11470,"heu":11471,"hum":11472,"kk":11473,"len":11474,"late":11475,"linÃ©":11476,"muna":11477,"metik":11478,"nÃŃ":11479,"news":11480,"pe":11481,"pet":11482,"rd":11483,"ruk":11484,"sareng":11485,"tab":11486,"tic":11487,"vel":11488,"with":11489,"á¸":11490,"âĸ":11491,"Ġuta":11492,"ĠÙħ":11493,"ĠÃ©wan":11494,"anul":11495,"Ġkeg":11496,"Ġkanti":11497,"Ġkumpulan":11498,"Ã©Ã©p":11499,"along":11500,"atip":11501,"atiaan":11502,"Ġsada":11503,"Ġsmart":11504,"Ġsual":11505,"Ġsidang":11506,"Ġsehat":11507,"Ġdasa":11508,"Ġdate":11509,"Ġtadina":11510,"Ġtante":11511,"Ġpri":11512,"ĠpÃ©s":11513,"Ġpunten":11514,"erm":11515,"erek":11516,"erian":11517,"eria":11518,"erea":11519,"Ġmeh":11520,"Ġmuan":11521,"Ġmiw":11522,"Ġmoy":11523,"ĠmÃ©d":11524,"Ġmost":11525,"Ġnimb":11526,"ĠnÃ©mb":11527,"akers":11528,"Ġbes":11529,"Ġbek":11530,"Ġbedah":11531,"Ġbengi":11532,"Ġbuntut":11533,"eune":11534,"amond":11535,"ĠSed":11536,"ĠSeni":11537,"urungkeun":11538,"Ġdiad":11539,"Ġdiid":11540,"Ġdiff":11541,"ito":11542,"ĠPI":11543,"ĠPack":11544,"ĠPorn":11545,"ĠPENG":11546,"ington":11547,"ikum":11548,"ĠlÃ©g":11549,"abbat":11550,"Ġjawa":11551,"Ġjukut":11552,"esialis":11553,"Ġngon":11554,"Ġngay":11555,"Ġngawanohkeun":11556,"ĠKR":11557,"ĠKim":11558,"ĠKomp":11559,"ĠBoy":11560,"ĠBlow":11561,"ĠBook":11562,"ĠBrazil":11563,"ĠBanglad":11564,"ĠMb":11565,"ĠMusa":11566,"ĠMadu":11567,"ĠMonday":11568,"agin":11569,"agangan":11570,"Ġhij":11571,"Ġheur":11572,"Ġhariwang":11573,"ĠTj":11574,"ĠTÃ©t":11575,"ĠTva":11576,"ĠThailand":11577,"ilna":11578,"ilaw":11579,"ilkeun":11580,"ildr":11581,"uling":11582,"ĠDun":11583,"ĠDik":11584,"ĠDol":11585,"ĠDub":11586,"ĠDoc":11587,"awana":11588,"awona":11589,"emical":11590,"Ġgul":11591,"Ġgabung":11592,"Ġgypsum":11593,"ĠgÃ¦":11594,"elum":11595,"osis":11596,"ĠCer":11597,"Ġcim":11598,"Ġcama":11599,"Ġcukang":11600,"Ġcantik":11601,"Ġcetak":11602,"Ġ270":11603,"edak":11604,"ĠNot":11605,"ĠNeck":11606,"etas":11607,"Ġ170":11608,"Ġwat":11609,"Ġwangi":11610,"Ġrun":11611,"Ġranc":11612,"ĠrÃ©b":11613,"Ġremen":11614,"ĠLeu":11615,"ĠLuc":11616,"ĠLima":11617,"ĠLei":11618,"Ġnyiksa":11619,"otam":11620,"ĠRm":11621,"ĠRan":11622,"ĠRena":11623,"ĠRangga":11624,"ogÃ©":11625,"andu":11626,"andapan":11627,"ĠGen":11628,"ĠGuar":11629,"ĠHari":11630,"antar":11631,"antika":11632,"Ġij":11633,"Ġinform":11634,"ebang":11635,"ĠFX":11636,"ĠFiksimini":11637,"egui":11638,"trian":11639,"ĠEth":11640,"ĠEli":11641,"Ġaustralia":11642,"loy":11643,"Ã¨a":11644,"ĠOh":11645,"ĠOrang":11646,"ĠOgÃ©":11647,"Ġ350":11648,"hevy":11649,"Ġpanumpang":11650,"Ġyak":11651,"ĠyÃ©k":11652,"Ġ520":11653,"ĠAlami":11654,"Ġmanipud":11655,"Ġsabagian":11656,"Ġald":11657,"00055":11658,"00064":11659,"aiz":11660,"endak":11661,"Ġvirus":11662,"Ġngaleuwihan":11663,"ujang":11664,"Ġspin":11665,"overn":11666,"inds":11667,"Ġmasang":11668,"Ġmassa":11669,"Ġsaat":11670,"Ġtour":11671,"Ġpamanggih":11672,"Ġditambah":11673,"Ġditarikna":11674,"133":11675,"135":11676,"139":11677,"anyataan":11678,"Ġ1920":11679,"Ġago":11680,"Ġagus":11681,"Ġsahijina":11682,"Ġstart":11683,"Ġstabil":11684,"ĠparÃ©ntah":11685,"aksÃ©s":11686,"ĠPradesh":11687,"Ġthese":11688,"Ġthousand":11689,"Ġngadadak":11690,"á®ĵ":11691,"inansial":11692,"ĠTerminal":11693,"ĠsapoÃ©":11694,"ifikasi":11695,"even":11696,"iller":11697,"illÃ¢":11698,"Ġ95":11699,"ĠAdmin":11700,"ĠAdipati":11701,"Ġforums":11702,"ĠMary":11703,"ĠMarantika":11704,"303":11705,"Ġkawilang":11706,"Ġkawijakan":11707,"Ġistri":11708,"Ġacak":11709,"ATC":11710,"too":11711,"ĠKalong":11712,"180":11713,"Ġdeal":11714,"Ġ180":11715,"orning":11716,"ombak":11717,"Ġmilagro":11718,"romat":11719,"ouquet":11720,"Ġ155":11721,"Ġpatih":11722,"ĠÐ¾":11723,"iyama":11724,"Ġboa":11725,"Ð°Ð»":11726,"Ġdicekel":11727,"ĠOnly":11728,"eft":11729,"Ġsajak":11730,"ĠXia":11731,"URAN":11732,"span":11733,"Ġplastik":11734,"Ġharepan":11735,"à¤ķ":11736,"mba":11737,"Ġmusim":11738,"AGA":11739,"ĠObot":11740,"Ġassociation":11741,"aptarkeun":11742,"ÐµÐ½":11743,"ojo":11744,"Ġdesa":11745,"ustrial":11746,"empoan":11747,"ĠThomas":11748,"idio":11749,"Ġsampel":11750,"Ġeleh":11751,"ĠSaksi":11752,"Ġputih":11753,"Ġmetot":11754,"Ġdipikanyaho":11755,"Ġsasatoan":11756,"Ġkelamin":11757,"ĠSablon":11758,"ĠSurya":11759,"ĠÃ©lÃ©k":11760,"Ġmulya":11761,"ports":11762,"ĠkonsÃ©r":11763,"Program":11764,"100338":11765,"Ġpendaptaran":11766,"ĠBelanda":11767,"Arizona":11768,"altev":11769,"Ġlebet":11770,"Ġcontr":11771,"ĠKomersil":11772,"Ġduaan":11773,"ĠSerbaguna":11774,"ĠKerajaan":11775,"ĠKecap":11776,"skat":11777,"ĠElektrik":11778,"Ġidin":11779,"Ġngadegna":11780,"ĠRasta":11781,"Ġperkawis":11782,"Ġmiang":11783,"áº£":11784,"Ġseja":11785,"Ġnggo":11786,"ĠGreg":11787,"Ġbeberesih":11788,"ĠKanada":11789,"Ġnembe":11790,"Ġpersonal":11791,"ĠPamarÃ©ntah":11792,"Ġestu":11793,"ĠJaye":11794,"Ġrarasaan":11795,"ĠAhli":11796,"ĠBiradir":11797,"Ġpamaen":11798,"Ġmaparin":11799,"ĠDepartment":11800,"files":11801,"ĠtÃ©kad":11802,"Ġpariw":11803,"ĠOutbound":11804,"rainian":11805,"Ġngantep":11806,"Ġanalis":11807,"EWEK":11808,"This":11809,"Ġlogam":11810,"Ġrasu":11811,"Ġpresent":11812,"Ġbikang":11813,"OUVEN":11814,"ulyaan":11815,"ĠEpstein":11816,"penaltev":11817,"Ġsecond":11818,"Ġworld":11819,"ĠrÃ©siko":11820,"ĠWebsite":11821,"Ġmaksudna":11822,"Ġkampanye":11823,"ĠSundana":11824,"ĠnyetÃ©l":11825,"ĠNaskah":11826,"Ġpangluhurna":11827,"Ġgugur":11828,"ĠRattan":11829,"ĠpÃ©rak":11830,"ĠPublikoPalikuran":11831,"OVA":11832,"Rusong":11833,"Ġdiantarana":11834,"ĠVitamix":11835,"vertis":11836,"Ġnyiapkeun":11837,"Sawates":11838,"abutuh":11839,"Ġpangbadag":11840,"ĠWhite":11841,"Related":11842,"Ġtombol":11843,"ĠPingat":11844,"Ġditangtukeun":11845,"September":11846,"ĠPÃ©rsia":11847,"adbce":11848,"ĠRebate":11849,"ĠmÃ©sÃ©r":11850,"Ġnafsu":11851,"Ġbocah":11852,"ĠFortune":11853,"Ġpanitia":11854,"Ġtonggong":11855,"Ġbengkel":11856,"ĠBintaro":11857,"Ġseksual":11858,"Ġbrowser":11859,"Professional":11860,"ĠsÃ©sana":11861,"Ġtogether":11862,"ĠRichard":11863,"ayanthara":11864,"ĠTRAINING":11865,"ĠAristegui":11866,"emblengna":11867,"ĠMahasajati":11868,"aboratorium":11869,"ĠgÃ¦st":11870,"OUVENIR":11871,"Ġpangbadagna":11872,"ĠAristeguieta":11873,"315":11874,"AMP":11875,"AMAT":11876,"AMAN":11877,"Alej":11878,"Bet":11879,"CR":11880,"Cop":11881,"En":11882,"Emb":11883,"Email":11884,"FI":11885,"Ge":11886,"Gar":11887,"HD":11888,"HAN":11889,"JI":11890,"Kusabab":11891,"Lingerie":11892,"Mac":11893,"Nama":11894,"Numutkeun":11895,"NOVA":11896,"Pen":11897,"Pot":11898,"Pand":11899,"Photos":11900,"Suk":11901,"Taman":11902,"bed":11903,"bonus":11904,"cil":11905,"friend":11906,"ien":11907,"jana":11908,"kai":11909,"koo":11910,"know":11911,"nor":11912,"nap":11913,"oes":11914,"pust":11915,"penting":11916,"rics":11917,"rinj":11918,"sol":11919,"sari":11920,"tal":11921,"time":11922,"uong":11923,"ving":11924,"wiki":11925,"Ãº":11926,"Ðĳ":11927,"×Ļ":11928,"è¦":11929,"Ġå":11930,"Ġé":11931,"Ġeun":11932,"Ġ??":11933,"Ġ......":11934,"Ĥ¹":11935,"aras":11936,"arms":11937,"Ġkemp":11938,"alp":11939,"atayo":11940,"Ġsind":11941,"Ġsuit":11942,"Ġseug":11943,"Ġdon":11944,"Ġdemi":11945,"inata":11946,"information":11947,"angen":11948,"anges":11949,"Ġtub":11950,"Ġtarg":11951,"Ġtumb":11952,"Ġtindakan":11953,"asc":11954,"Ġple":11955,"Ġpita":11956,"erhana":11957,"Ġmm":11958,"Ġmid":11959,"Ġmade":11960,"Ġmargi":11961,"Ġnut":11962,"Ġned":11963,"Ġnambah":11964,"Ġnonton":11965,"aking":11966,"akukan":11967,"ĠbÃ¨":11968,"Ġbopati":11969,"ĠSET":11970,"ĠSugan":11971,"ĠSOUVENIR":11972,"enue":11973,"enno":11974,"enyana":11975,"oning":11976,"onÃ©n":11977,"ĠPani":11978,"ĠPÃ©tr":11979,"ikulum":11980,"Ġluk":11981,"Ġlot":11982,"Ġlobana":11983,"Ġlepas":11984,"Ġlalaunan":11985,"abo":11986,"orowok":11987,"Ġjst":11988,"Ġjanji":11989,"Ġngos":11990,"Ġngeureunkeun":11991,"ĠKum":11992,"ĠKent":11993,"ĠKong":11994,"ĠKod":11995,"ĠKra":11996,"ĠKej":11997,"ĠKuda":11998,"ĠKumpulan":11999,"ĠKanjeng":12000,"ĠKutoarjo":12001,"ĠBI":12002,"ĠBub":12003,"ĠBada":12004,"ĠBAND":12005,"ĠMik":12006,"ĠMain":12007,"ĠMAR":12008,"ĠMult":12009,"ĠMURAH":12010,"Ġhere":12011,"ĠTE":12012,"ĠTas":12013,"ĠTatar":12014,"ilo":12015,"ilt":12016,"ilat":12017,"ungun":12018,"ĠDV":12019,"ĠDaya":12020,"ĠDij":12021,"ĠDate":12022,"ĠDasar":12023,"ĠDEW":12024,"awesi":12025,"emahan":12026,"Ġgood":12027,"Ġgeni":12028,"Ġgajah":12029,"Ġgampil":12030,"elak":12031,"elet":12032,"ĠCup":12033,"ĠCEWEK":12034,"Ġcam":12035,"Ġcanggih":12036,"Ġcase":12037,"Ġcheap":12038,"utuhkeun":12039,"ĠNGA":12040,"ĠNagar":12041,"ĠNEW":12042,"engahan":12043,"engers":12044,"ĠJEUNG":12045,"eto":12046,"005":12047,"eungitan":12048,"Ġ130":12049,"Ġword":12050,"Ġwawakil":12051,"Ġwenno":12052,"Ġreb":12053,"Ġrama":12054,"olek":12055,"ĠLal":12056,"ĠLink":12057,"ĠLayar":12058,"ĠLoker":12059,"idan":12060,"ĠIp":12061,"otland":12062,"upsi":12063,"upload":12064,"Ġ(\"":12065,"ĠRT":12066,"ĠRi":12067,"icine":12068,"ically":12069,"andro":12070,"andhar":12071,"andÃ©kwa":12072,"ĠGP":12073,"ĠGat":12074,"ĠGamb":12075,"ĠGempar":12076,"aces":12077,"acana":12078,"ĠsarÃ©bu":12079,"Ġsaragih":12080,"Ã©nna":12081,"ĠHang":12082,"ĠHubungan":12083,"ĠHanging":12084,"ĠHolder":12085,"antangan":12086,"asai":12087,"Ġfed":12088,"Ġfeat":12089,"Ġfield":12090,"Ġinto":12091,"Ġinclud":12092,"ige":12093,"ĠWel":12094,"ĠWorld":12095,"anggihan":12096,"ipping":12097,"ĠEX":12098,"ĠEc":12099,"ĠEg":12100,"asieun":12101,"ĠUmb":12102,"Ã¨mb":12103,"ugr":12104,"ĠOTR":12105,"Ġ365":12106,"iban":12107,"Ġnav":12108,"Ġsalami":12109,"itions":12110,"Ġperj":12111,"Ġï¿½ï¿½ï¿½.":12112,"00096":12113,"chu":12114,"Ġdipil":12115,"Ġdipingpin":12116,"Ġngali":12117,"Ġngaliwat":12118,"Ġngalebetkeun":12119,"Ġngaleungitkeun":12120,"Ġsakuduna":12121,"ances":12122,"indera":12123,"141":12124,"149":12125,"Ġsaiki":12126,"Ġprobl":12127,"Ġpamikiran":12128,"stant":12129,"Ġkarot":12130,"diy":12131,"ains":12132,"Ġngarugikeun":12133,"Ġkabuk":12134,"Ġkateg":12135,"Ġ1972":12136,"Ġadil":12137,"uyukeun":12138,"Ġagar":12139,"Ġageman":12140,"Ġsahabat":12141,"Ġpark":12142,"ĠmarÃ©ntahkeun":12143,"prÃ©s":12144,"ĠPrec":12145,"ĠPrincess":12146,"Ġdibagikeun":12147,"Ġngajarkeun":12148,"ĠNgad":12149,"Ġngabuktikeun":12150,"Ġngadukung":12151,"Ġngadeukeutan":12152,"á®Ĵ":12153,"ardinals":12154,"ifikan":12155,"Ġimut":12156,"Ġrobot":12157,"Ġroulette":12158,"ĠAdam":12159,"ejang":12160,"Ġngahargaan":12161,"Ġngahuleng":12162,"Ġkawasa":12163,"ĠÃīl":12164,"Ġarus":12165,"lamine":12166,"ouch":12167,"ĠManusia":12168,"ĠBlonde":12169,"Ġberesih":12170,"Ġngaing":12171,"Ġngawaler":12172,"ANGAN":12173,"arki":12174,"arkan":12175,"ĠSaf":12176,"Ġblue":12177,"Ġbanget":12178,"Ġdirasa":12179,"Ġwithout":12180,"ĠKarawang":12181,"Ġ138":12182,"ĠIkat":12183,"Ġbuin":12184,"Ġ''":12185,"Ġharus":12186,"izi":12187,"388":12188,"ĠExp":12189,"Ġkontrak":12190,"istrasi":12191,"Ġpeneliti":12192,"azz":12193,"Ġpinunjul":12194,"ACT":12195,"Ġext":12196,"Ġkecanduan":12197,"ĠAyak":12198,"akoni":12199,"Ġsinareng":12200,"ĠSakumaha":12201,"Ġanggaran":12202,"ĠUtong":12203,"ĠMasalah":12204,"Ġteknis":12205,"EST":12206,"Allah":12207,"Alloh":12208,"Ġsasaha":12209,"ĠðŁĺ":12210,"Ġajian":12211,"ĠSabun":12212,"Ġpesind":12213,"Ġlanang":12214,"eresan":12215,"Ġbrush":12216,"Ġcontrol":12217,"tivities":12218,"Ġconv":12219,"ĠMahdi":12220,"Ã©nsor":12221,"ÙĦØ§":12222,"Ġsetelan":12223,"ĠSerikat":12224,"ĠDisney":12225,"Ġmikaresep":12226,"Ġnurun":12227,"ĠAirbr":12228,"Ġprofessional":12229,"ĠArticle":12230,"Ġkinasihan":12231,"Ġlapak":12232,"Ġnatural":12233,"uncat":12234,"ĠProduktivitas":12235,"Ġpayung":12236,"Ġnembus":12237,"ĠSetia":12238,"ĠDeep":12239,"Ġperson":12240,"angtung":12241,"esional":12242,"Ġpembekal":12243,"Ġinstalasi":12244,"Ġmemori":12245,"ĠKursi":12246,"Ġkorban":12247,"Ġgelem":12248,"Ġmurag":12249,"Ġtabel":12250,"ĠComments":12251,"ĠBireuen":12252,"ĠOptra":12253,"ÄĹr":12254,"à¥ĩ":12255,"Ġnjero":12256,"ĠSlots":12257,"ECT":12258,"Design":12259,"Ġpoean":12260,"Ġswasta":12261,"Ġpopulasi":12262,"Ġbeunghar":12263,"uluyna":12264,"uluykeun":12265,"ĠWithdrawalExclusive":12266,"ĠWithdrawalAdditional":12267,"ĠpoÃ©k":12268,"Ġmotong":12269,"ĠManufacturers":12270,"Dipidangkeun":12271,"Contact":12272,"ĠBeach":12273,"ĠDistributor":12274,"ĠRoad":12275,"ĠMuslimin":12276,"ĠLanguage":12277,"Ġkampus":12278,"Ġhanjakal":12279,"ĠTutorial":12280,"ĠMaranÃ©hanana":12281,"ĠCeuceu":12282,"Ġsukses":12283,"NTV":12284,"nbcAwaaz":12285,"Sajarah":12286,"Ġkunaon":12287,"Ġdingaranan":12288,"ĠToraja":12289,"ĠDariyah":12290,"ĠlisÃ©nsi":12291,"ĠDongeng":12292,"ĠpidÃ©o":12293,"ĠmawulÃ©":12294,"Ġstaf":12295,"Ġsebutan":12296,"ĠkÃ©ngingkeun":12297,"Ġrequir":12298,"Ġgunana":12299,"Ġkompetisi":12300,"Ġngalahirkeun":12301,"Ġaffumicata":12302,"ĠAksara":12303,"Ġditurunkeun":12304,"ĠArnold":12305,"Ġcarats":12306,"ethylamy":12307,"pretasi":12308,"kripsi":12309,"Sloto":12310,"ĠJudeo":12311,"âŃĲ":12312,"Ġkulawargana":12313,"Ġmuani":12314,"ildren":12315,"rinjski":12316,"ĠPÃ©trus":12317,"ĠAirbrush":12318,"ethylamylamine":12319,"%.":12320,"'.":12321,")...":12322,".:":12323,".***":12324,"1000":12325,"BI":12326,"Bern":12327,"BLE":12328,"Bireun":12329,"CD":12330,"Cina":12331,"Eta":12332,"Enyong":12333,"Hot":12334,"KO":12335,"Kon":12336,"Kep":12337,"Light":12338,"Live":12339,"Lowongan":12340,"NO":12341,"Nang":12342,"Nur":12343,"PL":12344,"Point":12345,"RM":12346,"UAN":12347,"WS":12348,"YK":12349,"bs":12350,"bing":12351,"fan":12352,"ges":12353,"hur":12354,"hap":12355,"ios":12356,"jung":12357,"kh":12358,"kÃ©":12359,"kem":12360,"lila":12361,"mÃ©n":12362,"mara":12363,"mod":12364,"mode":12365,"meme":12366,"nh":12367,"paran":12368,"ply":12369,"reb":12370,"sir":12371,"simp":12372,"tara":12373,"tek":12374,"tempat":12375,"vato":12376,"wir":12377,"yon":12378,"ycl":12379,"zat":12380,"Ã«":12381,"Ñħ":12382,"Ġener":12383,"ares":12384,"arsa":12385,"aruan":12386,"Ġkotor":12387,"atihan":12388,"atmadja":12389,"ĠsanÃ©":12390,"Ġsono":12391,"Ġsangkuriang":12392,"Ġdeng":12393,"Ġdamel":12394,"Ġdaster":12395,"Ġtv":12396,"Ġtih":12397,"asat":12398,"assi":12399,"Ġpib":12400,"ĠpÃ©k":12401,"Ġpej":12402,"Ġpublished":12403,"Ġmeu":12404,"Ġmalik":12405,"Ġmember":12406,"Ġmudah":12407,"Ġmitra":12408,"Ġmabalin":12409,"Ġnen":12410,"Ġnolak":12411,"aksian":12412,"ĠbÃ¨n":12413,"Ġbeub":12414,"eunasah":12415,"ĠSay":12416,"ĠSya":12417,"ĠSmart":12418,"ĠSuri":12419,"ĠSawarga":12420,"ĠSaham":12421,"enko":12422,"urai":12423,"Ġdiaj":12424,"Ġdiangg":12425,"Ġditaw":12426,"ĠAu":12427,"ĠAlex":12428,"itasi":12429,"itoy":12430,"ituna":12431,"ĠPosted":12432,"adai":12433,"isc":12434,"ikh":12435,"iket":12436,"ĠlÃ©":12437,"Ġlag":12438,"Ġlatan":12439,"Ġlast":12440,"ĠlÃ¢":12441,"Ġlakukeun":12442,"abas":12443,"ablish":12444,"orÃ©ng":12445,"Ġjin":12446,"esoris":12447,"Ġngokolakeun":12448,"ĠKana":12449,"ĠKilang":12450,"ĠBon":12451,"ĠBakal":12452,"ĠBayan":12453,"ĠBoj":12454,"ĠMangka":12455,"ĠMamah":12456,"Ġantrian":12457,"Ġhay":12458,"Ġhel":12459,"Ġhau":12460,"Ġhormat":12461,"Ġheueuh":12462,"Ġhilap":12463,"Ġhikmah":12464,"Ġhormon":12465,"ĠTF":12466,"ĠTÃ©h":12467,"ĠTech":12468,"ĠTonton":12469,"apah":12470,"iles":12471,"naon":12472,"ulat":12473,"Ġï¿½ï¿½ï¿½ï¿½..":12474,"unghul":12475,"ĠDA":12476,"ĠDih":12477,"ĠDuka":12478,"ĠDuit":12479,"ĠDOU":12480,"ĠDarso":12481,"ĠDhevy":12482,"Ġganda":12483,"Ġgapu":12484,"elu":12485,"elkeun":12486,"ird":12487,"irÃ¨a":12488,"ĠCC":12489,"ĠCis":12490,"ĠCre":12491,"ĠCAS":12492,"ĠCincin":12493,"ĠCafe":12494,"Ġceuli":12495,"Ġcewek":12496,"utra":12497,"ĠNanging":12498,"ĠNastiti":12499,"ĠJobs":12500,"eth":12501,"etah":12502,"00100":12503,"rolan":12504,"Ġkaja":12505,"Ġwangs":12506,"Ġwira":12507,"Ġwargi":12508,"Ġwould":12509,"Ġweuteuh":12510,"Ġnud":12511,"olon":12512,"ĠLI":12513,"ĠLot":12514,"ĠLant":12515,"ĠLiga":12516,"ĠLIVE":12517,"idity":12518,"Ġnyuk":12519,"Ġnyoba":12520,"otoh":12521,"ĠRs":12522,"ĠRel":12523,"ications":12524,"andy":12525,"andaran":12526,"ĠGi":12527,"ĠGand":12528,"ĠGirls":12529,"acher":12530,"Ġsarwa":12531,"entos":12532,"ongÃ©":12533,"okrasi":12534,"ĠHi":12535,"ĠHis":12536,"ĠHung":12537,"ĠHartina":12538,"ekah":12539,"Ġfans":12540,"Ġflor":12541,"Ġfram":12542,"Ġfasilitas":12543,"Ġfinansial":12544,"igo":12545,"igireun":12546,"ĠWS":12547,"eurat":12548,"Ġatom":12549,"ĠEduc":12550,"ĠEdit":12551,"ĠEnyong":12552,"loom":12553,"ĠUlu":12554,"ugaran":12555,"opan":12556,"ĠOR":12557,"Ġï¿½ï¿½ï¿½ï¿½ï¿½:":12558,"undut":12559,"Ã©ksi":12560,"Ġkalebet":12561,"Ġkalolobaan":12562,"Ġnyaah":12563,"anganana":12564,"Ġperd":12565,"ocap":12566,"ĠAlbum":12567,"Ġmanjing":12568,"Ġsabulan":12569,"Ġalum":12570,"00068":12571,"Ġdipidangkeun":12572,"121":12573,"Ġvid":12574,"ĠpangÃ©ran":12575,"Ġpangwangunan":12576,"Ġsakedik":12577,"ĠYap":12578,"overy":12579,"indu":12580,"145":12581,"Ġmasak":12582,"Ġmasuk":12583,"Ġmasjid":12584,"alazz":12585,"aturna":12586,"102":12587,"Ã©tat":12588,"Ġpamekar":12589,"Ġpamasaran":12590,"Ġpred":12591,"Ġlatar":12592,"Ġkarayan":12593,"Ġngarob":12594,"Ġoriginal":12595,"anjakal":12596,"allilaw":12597,"isanÃ©":12598,"uwu":12599,"uwur":12600,"inggir":12601,"Ġkacatur":12602,"ĠagÃ©nsi":12603,"âĢĻ.":12604,"Ġparam":12605,"preh":12606,"ĠPress":12607,"Ġdibarengan":12608,"paÃ±":12609,"ĠPerak":12610,"ĠPersib":12611,"Ġngadenge":12612,"Ġngadalikeun":12613,"lower":12614,"ifi":12615,"Ġ1080":12616,"illon":12617,"169":12618,"Ġforex":12619,"imbit":12620,"ĠMarongge":12621,"RESS":12622,"INE":12623,"Ġsatuan":12624,"Ġisin":12625,"outube":12626,"Ġkameez":12627,"Ġkamampuh":12628,"Ġkamulyaan":12629,"Ġhalimun":12630,"Ġminimal":12631,"ĠIslands":12632,"Ġsagemblengna":12633,"ornia":12634,"Ġaktivitas":12635,"Ġinteraksi":12636,"ĠâĹı":12637,"Ġcompl":12638,"antenan":12639,"ĠÐ´":12640,"ĠÐ·":12641,"ĠÐł":12642,"Ġsize":12643,"333":12644,"Ġï¿½ï¿½ï¿½ï¿½ï¿½ï¿½ï¿½ï¿½ï¿½ï¿½ï¿½ï¿½ï¿½ï¿½ï¿½ï¿½":12645,"ĠSalila":12646,"ĠSaint":12647,"Ð°Ñģ":12648,"ĠAgama":12649,"Ġmerupakan":12650,"anka":12651,"Inter":12652,"usahakeun":12653,"Ð¾ÑĤ":12654,"547":12655,"Ġmeneng":12656,"Ngal":12657,"special":12658,"ĠApartemen":12659,"Ġsupir":12660,"Ġpilari":12661,"Ġpilules":12662,"Ġharam":12663,"wordpress":12664,"ÑģÑĮ":12665,"Ġpenari":12666,"Ġpenampilan":12667,"field":12668,"ĠBritan":12669,"toskeun":12670,"nyÃ©":12671,"AKAS":12672,"Ġmalem":12673,"lais":12674,"Ġkasajatianana":12675,"imalkeun":12676,"Ġelyaman":12677,"ensif":12678,"ryst":12679,"ĠAwak":12680,"ocket":12681,"urnakeun":12682,"Ġ1995":12683,"ĠAnggotaS":12684,"ĠBattery":12685,"Ġdidaptarkeun":12686,"ĠBarudak":12687,"ĠSabung":12688,"ĠMatak":12689,"ĠForum":12690,"esepuh":12691,"Ġzaman":12692,"lesh":12693,"Ġtutunggul":12694,"ĠÃ©cÃ©s":12695,"ÐºÐ°":12696,"ĠPalabras":12697,"facebook":12698,"ĠParirÃ¨a":12699,"Ġdarajat":12700,"Ġpanjangna":12701,"jamahkeun":12702,"ĠItam":12703,"ĠItem":12704,"Ġreput":12705,"Ġrepublik":12706,"Ġreplied":12707,"ĠHighbay":12708,"Ġnurunkeun":12709,"Ġpotongan":12710,"ĠidÃ©":12711,"Ġkinap":12712,"Ġgagal":12713,"ĠOrgan":12714,"Ġpangguna":12715,"ograf":12716,"Stasion":12717,"Started":12718,"ĠInternasional":12719,"Ġtarung":12720,"ĠtarÃ©kah":12721,"ÙİÙĳ":12722,"ĠPants":12723,"ĠKadua":12724,"Ġtapno":12725,"Ġinstall":12726,"Ġolih":12727,"ĠUkur":12728,"ysis":12729,"ĠIII":12730,"ĠGaruda":12731,"ĠCommun":12732,"AdosAdos":12733,"ENGAN":12734,"Ġjaguar":12735,"ĠKahiji":12736,"issan":12737,"ĠRahayu":12738,"ĠsuwaranÃ©":12739,"Ġworkout":12740,"Ġcampur":12741,"ĠTransposh":12742,"Ġpeteng":12743,"Ġanimasi":12744,"Ġrumasa":12745,"Ġrumaja":12746,"Ġnganteurkeun":12747,"ounted":12748,"ĠKituna":12749,"ĠErciyes":12750,"aksanaan":12751,"Ġkekek":12752,"ĠÃ©ntÃ©":12753,"Ġmuatan":12754,"ĠPurworejo":12755,"Ġrasul":12756,"adiredja":12757,"Ġ{{":12758,"ĠDistribu":12759,"ĠSastra":12760,"olotna":12761,"Ġsedih":12762,"ĠKemis":12763,"ĠLukisan":12764,"Ġnikmat":12765,"ĠAjouter":12766,"ussar":12767,"alifah":12768,"arjamahkeun":12769,"ĠpagawÃ©an":12770,"Ġtawaran":12771,"Ġsignifikan":12772,"Ġweleh":12773,"appy":12774,"Ġtimbul":12775,"Super":12776,"ĠNGN":12777,"Ġespiritu":12778,"ĠakhirÃ©":12779,"supreme":12780,"Ġadministrasi":12781,"Ġreueus":12782,"Ġnyumput":12783,"Magandang":12784,"Katresna":12785,"Ġdevotees":12786,"ĠPancan":12787,"ĠGMNTV":12788,"Doel":12789,"ĠPriangan":12790,"ĠEpisode":12791,"ĠRakyat":12792,"Ġpayuneun":12793,"Reggae":12794,"Sadaya":12795,"ĠTwitter":12796,"ĠtÃ©tÃ©la":12797,"ĠTANDA":12798,"Ġmucunghul":12799,"Ġngintunkeun":12800,"mudahan":12801,"Ġpasien":12802,"Pieces":12803,"ĠBPKB":12804,"Ġgrafik":12805,"Ġsungut":12806,"Ġngeusian":12807,"Ġdikaluarkeun":12808,"ĠndadÃ¨kna":12809,"yourmeme":12810,"Ġfavorit":12811,"ĠWastap":12812,"Ġwholesale":12813,"ĠyÃ©kun":12814,"knowyourmeme":12815,"pustakaan":12816,"ĠPanier":12817,"ĠDEWASA":12818,"ĠDOUBLE":12819,"'m":12820,"+)":12821,"700":12822,":\"":12823,"AZ":12824,"Bas":12825,"Best":12826,"Col":12827,"Cotton":12828,"Dog":12829,"Ed":12830,"Edit":12831,"Fac":12832,"Hum":12833,"Jindera":12834,"Key":12835,"LER":12836,"Label":12837,"Mo":12838,"Muh":12839,"MIN":12840,"Make":12841,"Mga":12842,"Mbok":12843,"Net":12844,"New":12845,"Nuju":12846,"Ont":12847,"Pag":12848,"Qur":12849,"RJ":12850,"Sok":12851,"Seb":12852,"Silk":12853,"TON":12854,"UP":12855,"VER":12856,"WD":12857,"WN":12858,"bas":12859,"bahan":12860,"bros":12861,"barang":12862,"brazilian":12863,"cg":12864,"cord":12865,"dai":12866,"data":12867,"eja":12868,"ease":12869,"file":12870,"gp":12871,"hra":12872,"jah":12873,"just":12874,"kata":12875,"leg":12876,"list":12877,"mant":12878,"more":12879,"neum":12880,"nanÃ©":12881,"rul":12882,"rÃ©g":12883,"rical":12884,"sana":12885,"tengah":12886,"uangan":12887,"vide":12888,"yawan":12889,"°Ķ":12890,"âĹı":12891,"åĽ":12892,"ï·":12893,"Ġanggeus":12894,"nga":12895,"Ġkir":12896,"Ġkenc":12897,"Ġkeukeuh":12898,"alak":12899,"alit":12900,"atic":12901,"atujuan":12902,"Ġsund":12903,"Ġsoc":12904,"Ġsms":12905,"Ġdur":12906,"Ġdays":12907,"Ġdampak":12908,"info":12909,"inner":12910,"Ġten":12911,"Ġtem":12912,"Ġtext":12913,"Ġtungkul":12914,"Ġtotal":12915,"asok":12916,"Ġpiw":12917,"Ġpeup":12918,"Ġpower":12919,"ĠpÃ©ri":12920,"ahaman":12921,"Ġmara":12922,"Ġmengg":12923,"Ġmix":12924,"Ġmurni":12925,"Ġmeujeuhna":12926,"Ġnor":12927,"Ġnungt":12928,"ĠnÃ©g":12929,"Ġnalungtik":12930,"Ġbug":12931,"Ġbola":12932,"Ġborder":12933,"Ġbupati":12934,"Ġbewara":12935,"amak":12936,"ĠSom":12937,"ĠSamp":12938,"ĠSiti":12939,"ĠSaka":12940,"ĠSumber":12941,"ĠSabrina":12942,"Ġdiob":12943,"Ġdilah":12944,"ĠAhir":12945,"ĠPo":12946,"ĠPy":12947,"ĠPeta":12948,"ĠPunj":12949,"ĠPVC":12950,"ĠPocket":12951,"adana":12952,"adangan":12953,"isir":12954,"isuk":12955,"unci":12956,"Ġlob":12957,"Ġleul":12958,"Ġlinggih":12959,"oral":12960,"Ġja":12961,"Ġjung":12962,"Ġjani":12963,"ĠjÃ©mb":12964,"Ġjarah":12965,"ĠjÃ©ntr":12966,"ayna":12967,"ayangan":12968,"esis":12969,"ĠKeun":12970,"ĠKÃ©n":12971,"ĠKarat":12972,"ĠKanggo":12973,"ĠKayu":12974,"ĠKEC":12975,"ĠBAL":12976,"ĠBayu":12977,"ĠBesi":12978,"ĠBeat":12979,"ĠML":12980,"ĠMÃ©m":12981,"ĠMass":12982,"ĠMuda":12983,"ĠMekar":12984,"ĠMadiun":12985,"agoan":12986,"Ġhudang":12987,"Ġhampura":12988,"Ġhutang":12989,"ĠTam":12990,"ĠTank":12991,"apul":12992,"apura":12993,"taur":12994,"ilas":12995,"ilir":12996,"ĠDest":12997,"ĠDES":12998,"ĠDeli":12999,"ĠDinar":13000,"ĠDrive":13001,"umat":13002,"umasar":13003,"Ġgob":13004,"Ġgreen":13005,"elis":13006,"eluk":13007,"ellow":13008,"iron":13009,"ĠCO":13010,"ĠCV":13011,"ĠCons":13012,"ĠCOT":13013,"ĠCerita":13014,"Ġcing":13015,"Ġcode":13016,"Ġ215":13017,"Ġ240":13018,"utur":13019,"utung":13020,"edÃ©":13021,"ĠNarkoba":13022,"imet":13023,"ĠJur":13024,"ĠJust":13025,"ĠJoe":13026,"ĠJawab":13027,"ĠJabar":13028,"ĠJava":13029,"rough":13030,"Ġwhat":13031,"Ġwadah":13032,"Ġwidth":13033,"Ġwasiat":13034,"Ġrarancang":13035,"olih":13036,"ĠLD":13037,"ĠLu":13038,"ĠLawas":13039,"ĠLoka":13040,"ĠLadang":13041,"idas":13042,"ides":13043,"ajag":13044,"Ġnyusul":13045,"Ġnyugemakeun":13046,"ĠIrak":13047,"oti":13048,"ĠRum":13049,"ĠRear":13050,"ĠResep":13051,"ĠRadio":13052,"ĠRasso":13053,"ĠRojongan":13054,"ogan":13055,"andana":13056,"ĠGa":13057,"ĠGas":13058,"ĠGoreng":13059,"uduh":13060,"udara":13061,"ente":13062,"ĠHy":13063,"ĠHam":13064,"ĠHus":13065,"ĠHel":13066,"ĠHayang":13067,"ektor":13068,"Ġtig":13069,"Ġfik":13070,"Ġfabric":13071,"iani":13072,"ĠFE":13073,"ĠFrom":13074,"ĠFinal":13075,"ĠFirst":13076,"artika":13077,"eureu":13078,"adip":13079,"ĠET":13080,"ĠEma":13081,"ĠEmp":13082,"yaah":13083,"Ġanjeuna":13084,"ĠUdin":13085,"ĠUmar":13086,"ugjug":13087,"ĠOm":13088,"ĠOlah":13089,"embaban":13090,"ĠasÃ©tat":13091,"undul":13092,"ĠAntar":13093,"Ġkalian":13094,"rifat":13095,"Ġpanulis":13096,"Ġperadaban":13097,"ahanan":13098,"Ġkasab":13099,"Ġkasta":13100,"Ġsabung":13101,"Ġalun":13102,"00054":13103,"ANC":13104,"124":13105,"extra":13106,"Ġpangarti":13107,"uja":13108,"ĠÂ©":13109,"Ġspec":13110,"ĠAmb":13111,"indeng":13112,"indrical":13113,"148":13114,"intu":13115,"argo":13116,"ĠProyÃ©k":13117,"Ã©tang":13118,"Ġpamahaman":13119,"ĠAcum":13120,"stitus":13121,"Ġditemb":13122,"Ġditempo":13123,"Ġditilik":13124,"Ġditarima":13125,"Ġditarjamahkeun":13126,"Ã©mp":13127,"Ġkabagjaan":13128,"umbul":13129,"131":13130,"Ġ1930":13131,"veaz":13132,"euku":13133,"EME":13134,"159":13135,"Ġï¿½.":13136,"Ġstudio":13137,"Ġngagol":13138,"Ġparah":13139,"ĠPremium":13140,"ĠPrawir":13141,"Ġkapas":13142,"ĠPerc":13143,"âĢ¦,":13144,"ĠpasantrÃ©n":13145,"Ġngadawuh":13146,"ARAN":13147,"roidered":13148,"á®¦":13149,"á®Ģ":13150,"ĠZrinjski":13151,"erty":13152,"Ġ105":13153,"encan":13154,"encar":13155,"ĠState":13156,"Ġ92":13157,"Ġtrib":13158,"ĠAda":13159,"ikanyaah":13160,"imbulan":13161,"Ġkahuripan":13162,"ĠMaria":13163,"Ġkomunitas":13164,"INT":13165,"Ġ202":13166,"Ġsatuju":13167,"Ġkamana":13168,"Ġbaik":13169,"kaosmus":13170,"Ġminimum":13171,"Ġsagara":13172,"Ġbaba":13173,"Ġaktor":13174,"rome":13175,"Ġinterpretasi":13176,"ouis":13177,"ĠManunggal":13178,"Ġpatuh":13179,"ĠBlang":13180,"Ġberlaku":13181,"Ġdijual":13182,"Ġdikon":13183,"Ġngawitan":13184,"Ġjalanna":13185,"sha":13186,"Ġï¿½ï¿½ï¿½ï¿½ï¿½ï¿½ï¿½ï¿½ï¿½ï¿½ï¿½ï¿½.":13187,"ĠSalveaz":13188,"ĠSaatos":13189,"usiahan":13190,"Ġï¿½ï¿½ï¿½ï¿½ï¿½ï¿½ï¿½ï¿½ï¿½ï¿½ï¿½.":13191,"ĠIndonÃ©sie":13192,"Ġdicitak":13193,"alamang":13194,"haz":13195,"Ð¾Ð½":13196,"ĠNyieun":13197,"808":13198,"untungkeun":13199,"split":13200,"Ġplafon":13201,"ĠApp":13202,"ĠSpicy":13203,"Ġsuper":13204,"utera":13205,"Ġ175":13206,"izer":13207,"ĠQatar":13208,"ĠQuality":13209,"Ġsholat":13210,"istry":13211,"2006":13212,"luores":13213,"ĠBrand":13214,"ternal":13215,"Ġpadang":13216,"Ġliya":13217,"ĠâĢ¦..":13218,"Ġmalahan":13219,"ĠPantai":13220,"risis":13221,"ĠCatalog":13222,"ĠAwewe":13223,"Ġmetal":13224,"Ġtekad":13225,"Ġ1992":13226,"Ġ1998":13227,"Ġpakas":13228,"ĠSyi":13229,"ĠAkhir":13230,"ipsum":13231,"ĠKredit":13232,"ategory":13233,"Ġnaraka":13234,"Ġnarjamahkeun":13235,"ĠAtl":13236,"ĠAturan":13237,"eresna":13238,"Ġbrings":13239,"Ġsekitar":13240,"ĠCoaching":13241,"Ġbasura":13242,"Ġothers":13243,"Ġbeja":13244,"itude":13245,"Ġlebaran":13246,"fact":13247,"Ġsimulasi":13248,"Ġwasta":13249,"uloan":13250,"Ġkrasa":13251,"Ġpots":13252,"Ġseru":13253,"Ġjumlahna":13254,"ĠLoundagin":13255,"áº¥":13256,"Ġproses":13257,"point":13258,"Ġselamat":13259,"ĠmÃ©akkeun":13260,"Asyano":13261,"eater":13262,"ooth":13263,"eudeuh":13264,"Nyong":13265,"Salian":13266,"Ġformulir":13267,"ĠControl":13268,"ĠRuso":13269,"ĠBird":13270,"Ġkuno":13271,"à®¿":13272,"ĠÄ°":13273,"Ġramah":13274,"Desain":13275,"Ġkosih":13276,"Ġbakti":13277,"ĠHarapan":13278,"Ġnerangkeun":13279,"ĠPiala":13280,"Ã±o":13281,"ĠSajak":13282,"Ġtetempoan":13283,"ĠAvenue":13284,"Ð°Ð¼":13285,"Ġefisi":13286,"Äĥm":13287,"Ġknow":13288,"Blue":13289,"Blonde":13290,"ĠPandan":13291,"ï¼ļ":13292,"ĠKitab":13293,"Ġkekecapan":13294,"soem":13295,"ĠCanon":13296,"Ġtumuwuhna":13297,"ÑĩÐ°":13298,"ĠKawasa":13299,"etails":13300,"Ãłng":13301,"ĠSulawesi":13302,"ĠngancÃ©ng":13303,"ĠDamai":13304,"Ġkutang":13305,"forma":13306,"Ġjerona":13307,"Ġmirip":13308,"ĠViet":13309,"idadari":13310,"ĠMuin":13311,"Ġbandara":13312,"veyor":13313,"ĠPDAM":13314,"chester":13315,"Ġtolay":13316,"Ã¡nÃŃ":13317,"ĠPoster":13318,"ĠrainÃ©":13319,"Forward":13320,"uxury":13321,"Cartus":13322,"Model":13323,"Ġleso":13324,"Ġpeople":13325,"ĠSimpang":13326,"ĠPuisi":13327,"ĠJaip":13328,"Ġoperator":13329,"ĠIsaac":13330,"uddle":13331,"ĠFiLMiC":13332,"Ã£o":13333,"å¤©":13334,"Ġrieut":13335,"Ġnyingkahan":13336,"Ġpanganteur":13337,"Ġmegatkeun":13338,"Ġsamemeh":13339,"ĠSosial":13340,"Ġkabebeng":13341,"ĠLeaf":13342,"Ġkasaimbangan":13343,"ĠMongolia":13344,"ĠCylindrical":13345,"PreÅ£":13346,"Ġcariosan":13347,"Mohabbat":13348,"Ġkreatif":13349,"Ġjudg":13350,"ĠMunding":13351,"Business":13352,"ĠLounge":13353,"ĠJeroen":13354,"ĠUyut":13355,"Ġjunun":13356,"ĠDubai":13357,"ĠrÃ©buan":13358,"Ġkategori":13359,"ĠAyakkabÄ±":13360,"ĠDistribuie":13361,"Ontario":13362,"Ġdilahirkeun":13363,"ĠSalveazÄĥ":13364,"-\")":13365,"320":13366,"350":13367,"Angg":13368,"Ban":13369,"BAR":13370,"Cute":13371,"Current":13372,"GAG":13373,"Gambar":13374,"Hair":13375,"Iya":13376,"Jalma":13377,"Klik":13378,"Li":13379,"OUR":13380,"Pu":13381,"Publiko":13382,"PASS":13383,"RO":13384,"Rom":13385,"Ser":13386,"Sam":13387,"Saya":13388,"Sumber":13389,"Time":13390,"Ulah":13391,"Unggal":13392,"VA":13393,"We":13394,"Wilujeng":13395,"[[":13396,"bud":13397,"cence":13398,"ean":13399,"gia":13400,"ground":13401,"hid":13402,"hali":13403,"hahu":13404,"jal":13405,"kad":13406,"kÃ©n":13407,"leu":13408,"mes":13409,"muk":13410,"ntri":13411,"ought":13412,"sw":13413,"sar":13414,"sah":13415,"sung":13416,"saan":13417,"tak":13418,"til":13419,"tech":13420,"wp":13421,"waktu":13422,"ÙĤ":13423,"äº":13424,"æĸ":13425,"çļ":13426,"Ġ]":13427,"Ġenc":13428,"ngal":13429,"Ġkot":13430,"Ġkeus":13431,"Ġkew":13432,"Ġkumpul":13433,"Ġkorea":13434,"alusna":13435,"alindungan":13436,"Ġsend":13437,"Ġsukur":13438,"Ġski":13439,"ĠsÃ©si":13440,"Ġsiling":13441,"Ġsanaos":13442,"ĠsÃ©wang":13443,"Ġsesepuh":13444,"Ġdv":13445,"Ġdahan":13446,"Ġdampal":13447,"Ġdemon":13448,"Ġtug":13449,"Ġtingk":13450,"ĠtÃ©mb":13451,"Ġtingal":13452,"Ġtenang":13453,"Ġtohan":13454,"Ġtechn":13455,"asakna":13456,"aska":13457,"Ġpener":13458,"Ġpidato":13459,"Ġpungkur":13460,"Ġpudno":13461,"ahah":13462,"eru":13463,"Ġmisi":13464,"ĠmÃ©ng":13465,"Ġnice":13466,"Ġnoko":13467,"Ġnincak":13468,"Ġbh":13469,"Ġball":13470,"Ġbilik":13471,"ĠShe":13472,"ĠSuw":13473,"ĠSora":13474,"ĠSamat":13475,"ĠSAB":13476,"ĠSimpen":13477,"ĠSkr":13478,"ĠSÃ©nsor":13479,"ural":13480,"urther":13481,"âĢº":13482,"ites":13483,"ĠPEN":13484,"ĠPUT":13485,"ĠPANG":13486,"ĠPayat":13487,"ĠPocas":13488,"adam":13489,"ingly":13490,"Ġlip":13491,"ĠlÃ©l":13492,"Ġlengan":13493,"abai":13494,"orks":13495,"orage":13496,"Ġngen":13497,"Ġngaman":13498,"Ġngudag":13499,"ĠKus":13500,"ĠBing":13501,"ĠBatur":13502,"ĠBener":13503,"ĠBaca":13504,"ĠBALI":13505,"ĠMU":13506,"ĠMid":13507,"ĠMaks":13508,"ĠMaju":13509,"ĠMony":13510,"ĠMesh":13511,"usu":13512,"usak":13513,"ĠanakÃ©":13514,"Ġhub":13515,"Ġheran":13516,"Ġhambalan":13517,"ĠTK":13518,"ĠTit":13519,"ĠTangan":13520,"ĠTimb":13521,"ĠTingkat":13522,"ĠTumbu":13523,"ĠType":13524,"ilin":13525,"ilingan":13526,"iliki":13527,"ulia":13528,"ulloh":13529,"ulintas":13530,"ĠDC":13531,"ĠDuk":13532,"ĠDeng":13533,"ĠDinas":13534,"ĠDVD":13535,"ĠDÃ©wan":13536,"Ġgeu":13537,"Ġgemb":13538,"Ġgove":13539,"Ġganggang":13540,"elat":13541,"eless":13542,"oshi":13543,"ĠCJ":13544,"ĠCub":13545,"ĠCAD":13546,"ĠCantik":13547,"ĠConstr":13548,"Ġcib":13549,"Ġcua":13550,"Ġcalik":13551,"Ġcomb":13552,"Ġcover":13553,"ĠcÃ©ri":13554,"Ġcaket":13555,"ukun":13556,"ukota":13557,"uten":13558,"ĠNina":13559,"ĠNair":13560,"ĠNaz":13561,"ĠNagsasalsal":13562,"ĠNaci":13563,"ĠJas":13564,"ĠJauh":13565,"ete":13566,"etro":13567,"eungsi":13568,"keunana":13569,"Ġkaom":13570,"Ġwanda":13571,"Ġwatch":13572,"ĠrÃ©g":13573,"Ġrapat":13574,"Ġrutin":13575,"Ġnug":13576,"oleh":13577,"ĠLoc":13578,"ĠLakshmi":13579,"ĠLinier":13580,"ĠLadies":13581,"Ġnyic":13582,"Ġnyiar":13583,"uha":13584,"ĠRik":13585,"ĠRap":13586,"ĠRÃ©k":13587,"ĠRoll":13588,"icu":13589,"ĠGl":13590,"ĠGum":13591,"ĠGancang":13592,"ĠGudang":13593,"Ġsarerea":13594,"entu":13595,"okasi":13596,"ĠHon":13597,"ĠHead":13598,"ĠHindia":13599,"antina":13600,"010":13601,"Ġtiyang":13602,"Ġfutsal":13603,"Ġinfr":13604,"Ġkuya":13605,"ĠFriend":13606,"ijat":13607,"ĠWak":13608,"ĠWoven":13609,"angguan":13610,"artikeun":13611,"Ġatra":13612,"ipi":13613,"angkep":13614,"ĠUL":13615,"ĠUng":13616,"ĠUlo":13617,"ective":13618,"ubi":13619,"ĠOc":13620,"odaya":13621,"Ġ360":13622,"teras":13623,"left":13624,"Ġkaleungitan":13625,"Ġ450":13626,"rif":13627,"owel":13628,"ohok":13629,"Ġsaluyu":13630,"Ã©rÃ©t":13631,"Ġperawan":13632,"ĠInv":13633,"ĠInformasi":13634,"Ġï¿½ï¿½ï¿½:":13635,"Ġyate":13636,"empl":13637,"empang":13638,"ewah":13639,"Ġalb":13640,"Ġalm":13641,"Ġalusna":13642,"00053":13643,"00087":13644,"Ġdipedar":13645,"122":13646,"ends":13647,"ended":13648,"Ġvows":13649,"ĠvÃ©rsi":13650,"Ġpangd":13651,"Ġsaksi":13652,"ĠKabÃ©h":13653,"euleuh":13654,"Ġ#:":13655,"Ġsae":13656,"Ġsaacan":13657,"ĠProdus":13658,"ĠProRes":13659,"Ġ750":13660,"auna":13661,"stad":13662,"euheus":13663,"ĠKasih":13664,"ĠKasano":13665,"Ġkarangan":13666,"Ġkarusiahan":13667,"Ġorok":13668,"Ġkaba":13669,"Ġkabeneran":13670,"allÃ´h":13671,"uwangan":13672,"uwisÃ©":13673,"138":13674,"akanan":13675,"Ġ1970":13676,"ĠChampa":13677,"EMI":13678,"Ġtermurah":13679,"astikeun":13680,"Ġstop":13681,"ĠparÃ©":13682,"ĠÃ¡":13683,"ĠÃł":13684,"ĠArc":13685,"ĠPrÃ©mium":13686,"Ġawon":13687,"Ġngajar":13688,"Ġngabentuk":13689,"Ġngabagikeun":13690,"ARTA":13691,"á®Ľ":13692,"alahkeun":13693,"pasan":13694,"ardcore":13695,"ungkir":13696,"eves":13697,"eved":13698,"evisi":13699,"Ġtatar":13700,"ingkang":13701,"illar":13702,"Ġrong":13703,"ustaka":13704,"160":13705,"Ã¨ni":13706,"ortir":13707,"ources":13708,"READ":13709,"REAM":13710,"INK":13711,"ĠBLACK":13712,"Ġsatelit":13713,"ivery":13714,"Ġdaek":13715,"Ġdilakonan":13716,"240":13717,"Ġdigambarkeun":13718,"Ġaram":13719,"ĠarÃ©k":13720,"Ġbabari":13721,"Ġbabagi":13722,"ombu":13723,"Ġakur":13724,"Ġmiliter":13725,"Ġpalaku":13726,"Ġluhurna":13727,"Ġcommun":13728,"Ġdijelaskeun":13729,"ĠUnit":13730,"ĠÐŁ":13731,"Ġdepart":13732,"Ġdiken":13733,"Ġusik":13734,"Ġupacara":13735,"alse":13736,"idae":13737,"Ġtau":13738,"uruf":13739,"Ã©ntÃ©ng":13740,"abrak":13741,"235":13742,"Ġuteuk":13743,"Ġmeni":13744,"Ġmenjadi":13745,"343":13746,"Ġpagelaran":13747,"ĠSpecial":13748,"Ġ'.":13749,"à¤¿":13750,"aptop":13751,"UMI":13752,"ĠsakabÃ©hna":13753,"TAC":13754,"ampahkeun":13755,"2001":13756,"ĠPolina":13757,"ĠBrun":13758,"ĠBrasil":13759,"Ġsurelek":13760,"Ġtahap":13761,"Ġmagic":13762,"Ð¸ÑĤ":13763,"Ġmaling":13764,"Ġpulsa":13765,"ĠProvin":13766,"ĠMasyarakat":13767,"Ġtekenan":13768,"ĠAnggotaC":13769,"ĠBaro":13770,"ĠajÃ©n":13771,"Ġkelir":13772,"Ø§Ø±":13773,"Ø§Øª":13774,"Ġbutut":13775,"Ġdihapus":13776,"ĠKamlesh":13777,"ismillah":13778,"ĠPuteri":13779,"ercedes":13780,"Ġtutunggangan":13781,"ĠKapuas":13782,"TCC":13783,"ĠPetaling":13784,"Ġkursus":13785,"Ġlumrah":13786,"Ġhakim":13787,"Ġbuktina":13788,"Ġbatir":13789,"Ġmikiran":13790,"angkalih":13791,"ĠpotÃ©nsi":13792,"ĠConrad":13793,"Ġcarpon":13794,"ĠMakeupMakeup":13795,"verage":13796,"Ġá®ŀ":13797,"Ġtarjam":13798,"Ġdosage":13799,"Ġsebagai":13800,"Ġujung":13801,"pirasi":13802,"Ġlemak":13803,"Ġtangtuna":13804,"ĠCikarang":13805,"Ġformal":13806,"Saatos":13807,"Ġpostdate":13808,"Ġmengh":13809,"ĠKahuripan":13810,"Ġlumangsungna":13811,"Ġmedal":13812,"Ġnawaran":13813,"Ġmapag":13814,"ĠPhilip":13815,"ĠPusaka":13816,"Ġperlakuan":13817,"nikahan":13818,"ĠtÃ©ori":13819,"ĠCartoon":13820,"ĠCasual":13821,"seluar":13822,"Ġukuranana":13823,"Ġgareng":13824,"ĠTours":13825,"Unsur":13826,"Tagalog":13827,"ĠAvengers":13828,"ĠMagic":13829,"ĠmÃ¨sih":13830,"Ġratusan":13831,"PINS":13832,"ĠTomboyBaguhang":13833,"ĠSuppliers":13834,"ĠSimkuring":13835,"paper":13836,"ĠBaik":13837,"Ã¶n":13838,"Ã©rsial":13839,"Ġekslusif":13840,"Ġudan":13841,"Ġudud":13842,"Ġmabasa":13843,"ĠKajuruan":13844,"ĠMurphy":13845,"ufaktur":13846,"Ð¸Ð¹":13847,"Ġestablish":13848,"Ġsipatna":13849,"Ġtawen":13850,"Ġlulugu":13851,"content":13852,"Ġkantun":13853,"Ġlubong":13854,"Ġcollection":13855,"ãĥ»":13856,"Ġdistrict":13857,"ĠSantang":13858,"ĠKowÃ©":13859,"ĠDalem":13860,"ĠJaringan":13861,"Ġtraining":13862,"Ã©rÃ©skeun":13863,"Ġmudik":13864,"ĠGeorgette":13865,"ĠShirts":13866,"ĠFaith":13867,"annel":13868,"Ġjangkungna":13869,"ĠKotmi":13870,"dropship":13871,"ĠBatavia":13872,"Ġrinci":13873,"ĠDekhahu":13874,"(\"-\")":13875,"Ġpepelakan":13876,"Ġhakekatna":13877,"Ġnungkulan":13878,"kaoscowok":13879,"Ġpendekatan":13880,"Æ°á»":13881,"Ġsuccess":13882,"kaospremium":13883,"Ġshopping":13884,"kitab":13885,"Ġmertimbangkeun":13886,"ĠTetap":13887,"ĠWilliam":13888,"ĠBUMN":13889,"ĠTELES":13890,"ĠRangeela":13891,"ĠSonar":13892,"ĠMostar":13893,"utahiran":13894,"Ġkasadaran":13895,"Ġpractice":13896,"AuditionCasting":13897,"Ġpengeluar":13898,"Ġbulao":13899,"ĠHimalayan":13900,"ĠFlyer":13901,"Ġalternatif":13902,"Ġcompilation":13903,"Ġdiidinan":13904,"ĠTÃ©tÃ©h":13905,"Ġcimata":13906,"ĠRmX":13907,"ĠGregorian":13908,"pentingna":13909,"Ġnedunan":13910,"Ġngarobih":13911,"ĠjÃ©ntrÃ©":13912,"ĠCOTTON":13913,"çļĦ":13914,"ĠSamatiga":13915,"ĠNacional":13916,"(\"-\")[":13917,"'ll":13918,")>":13919,"?''":13920,"Bal":13921,"CB":13922,"Co":13923,"Cr":13924,"CAA":13925,"Duh":13926,"Dua":13927,"Dumasar":13928,"Go":13929,"Gr":13930,"GAT":13931,"Hi":13932,"Jack":13933,"Kapt":13934,"Kiwari":13935,"Mic":13936,"Mai":13937,"Main":13938,"Mark":13939,"MIL":13940,"Niti":13941,"North":13942,"PA":13943,"Pat":13944,"Pus":13945,"Part":13946,"Prom":13947,"Ro":13948,"RÃ©":13949,"Ref":13950,"Sid":13951,"Sara":13952,"Span":13953,"Search":13954,"Solo":13955,"Ta":13956,"Tingali":13957,"Tanjung":13958,"Tube":13959,"URE":13960,"WANG":13961,"YAR":13962,"bih":13963,"batu":13964,"download":13965,"depend":13966,"donia":13967,"eon":13968,"hips":13969,"hmina":13970,"jects":13971,"king":13972,"kari":13973,"kebat":13974,"nag":13975,"png":13976,"rung":13977,"rem":13978,"rata":13979,"ruit":13980,"rite":13981,"sin":13982,"sap":13983,"text":13984,"uet":13985,"uuh":13986,"vanc":13987,"weet":13988,"},\"":13989,"Ã®":13990,"Å«":13991,"Ì²":13992,"Ð¡":13993,"åħ":13994,"æ°Ķ":13995,"Ġown":13996,"Ġump":13997,"Ġ).":13998,"ĠÑĢ":13999,"euing":14000,"arÃ©":14001,"arab":14002,"arya":14003,"arantos":14004,"Ġkayat":14005,"Ġkoran":14006,"alus":14007,"attoo":14008,"Ġsayang":14009,"Ġsingk":14010,"Ġsame":14011,"Ġstress":14012,"Ġsuch":14013,"Ġscient":14014,"Ġdol":14015,"Ġdaga":14016,"Ġteng":14017,"Ġtaj":14018,"Ġtema":14019,"Ġtunggul":14020,"Ġtiris":14021,"asu":14022,"asur":14023,"asti":14024,"Ġpp":14025,"Ġpis":14026,"Ġpim":14027,"Ġpeut":14028,"Ġpublish":14029,"ĠpÃ©dah":14030,"Ġpahlawan":14031,"ahil":14032,"eret":14033,"Ġmeun":14034,"Ġmum":14035,"ĠmÃ©r":14036,"ĠmÃ©kan":14037,"Ġmalaikat":14038,"Ġmeungp":14039,"Ġmikanyaah":14040,"Ġnr":14041,"Ġnad":14042,"Ġnuk":14043,"Ġnini":14044,"Ġnight":14045,"Ġneundeun":14046,"aktif":14047,"Ġbant":14048,"Ġbra":14049,"Ġbanda":14050,"Ġbasana":14051,"Ġborongan":14052,"ĠSR":14053,"ĠSid":14054,"ĠSug":14055,"ĠSib":14056,"ĠSAL":14057,"ĠSumb":14058,"ĠSeum":14059,"ĠSedeng":14060,"ĠSamana":14061,"ĠSagar":14062,"ĠSIMP":14063,"ĠSUK":14064,"ĠSARI":14065,"ĠSistim":14066,"ench":14067,"uridar":14068,"Ġdiam":14069,"Ġdiaku":14070,"Ġdianj":14071,"Ġdide":14072,"âĢ²":14073,"âĢļ":14074,"ĠAustr":14075,"iting":14076,"itical":14077,"itamin":14078,"ĠPAK":14079,"ĠPES":14080,"ĠPeuting":14081,"ĠPET":14082,"ĠPayung":14083,"ĠPoker":14084,"ader":14085,"isina":14086,"isim":14087,"isika":14088,"unes":14089,"ikin":14090,"iker":14091,"Ġling":14092,"Ġlab":14093,"Ġlaw":14094,"Ġlos":14095,"Ġlic":14096,"Ġlisan":14097,"Ġladang":14098,"Ġlirik":14099,"Ġlintas":14100,"original":14101,"Ġjeng":14102,"aykeun":14103,"esti":14104,"eska":14105,"Ġngec":14106,"Ġngop":14107,"Ġngasang":14108,"Ġnguntungkeun":14109,"ĠKay":14110,"ĠKir":14111,"ĠKuk":14112,"ĠKAR":14113,"ĠKAB":14114,"ĠKlang":14115,"ĠKanyataan":14116,"ĠKuddle":14117,"ĠBT":14118,"ĠBalan":14119,"ĠBeureum":14120,"ĠBGR":14121,"ĠMaya":14122,"ĠMarg":14123,"ĠMont":14124,"ĠMeunang":14125,"ĠMED":14126,"ĠMÃ©dia":14127,"ĠMAJ":14128,"agia":14129,"Ġhom":14130,"Ġhajat":14131,"Ġhungkul":14132,"ĠTon":14133,"ĠTom":14134,"ĠTÃ¼":14135,"ĠTujuh":14136,"ilana":14137,"ulah":14138,"uler":14139,"ĠDinten":14140,"ĠDistro":14141,"ĠDonald":14142,"ĠDeui":14143,"awahan":14144,"awasan":14145,"Ġgab":14146,"Ġgelas":14147,"Ġgive":14148,"Ġgirang":14149,"Ġgamot":14150,"elna":14151,"oso":14152,"ĠCS":14153,"ĠCig":14154,"ĠCour":14155,"ĠCOL":14156,"ĠCute":14157,"ĠCloth":14158,"Ġci":14159,"Ġcah":14160,"Ġcare":14161,"Ġcincin":14162,"Ġ260":14163,"ukon":14164,"utes":14165,"ĠNap":14166,"ĠNaga":14167,"enga":14168,"ĠJilbab":14169,"room":14170,"roduc":14171,"rojong":14172,"Ġwish":14173,"Ġwartos":14174,"Ġraks":14175,"Ġranjang":14176,"ĠLine":14177,"ĠLuhur":14178,"ĠLuck":14179,"ĠLhok":14180,"ĠLearning":14181,"omim":14182,"Ġnyorang":14183,"ĠIc":14184,"ĠIf":14185,"ĠIran":14186,"other":14187,"upkeun":14188,"ĠRupa":14189,"icara":14190,"icated":14191,"andika":14192,"ĠGap":14193,"ĠGreat":14194,"ĠGawÃ©":14195,"enti":14196,"ĠHur":14197,"ĠHong":14198,"ĠHyang":14199,"ĠHindi":14200,"obian":14201,"Ġfeed":14202,"Ġfoot":14203,"Ġfurther":14204,"Ġkuu":14205,"ehrad":14206,"igher":14207,"ĠFin":14208,"ĠFOR":14209,"ĠFile":14210,"amparan":14211,"eger":14212,"ĠWis":14213,"ĠWhat":14214,"ĠWalikota":14215,"Ġatos":14216,"ĠEyang":14217,"ĠEBS":14218,"Ġaub":14219,"ĠOng":14220,"ĠOjo":14221,"MAH":14222,"unduh":14223,"Ã©konomi":14224,"Ġkalangkang":14225,"oha":14226,"ohokeun":14227,"Ġpans":14228,"Ġpanongton":14229,"Ã©rÃ©a":14230,"Ġperba":14231,"ocoran":14232,"Ġkasajati":14233,"ĠyÃ©ku":14234,"ĠAlp":14235,"ĠAlue":14236,"Ġalt":14237,"00065":14238,"raf":14239,"Ġdiper":14240,"Ġdipib":14241,"Ġdiperk":14242,"][/":14243,"Ġï¿½ï¿½ï¿½ï¿½ï¿½ï¿½ï¿½..":14244,"ĠVD":14245,"endar":14246,"Ġvon":14247,"Ġngalih":14248,"ujarat":14249,"Ġspesialis":14250,"ĠKabel":14251,"ĠYud":14252,"ovÃ¡nÃŃ":14253,"ĠAminah":14254,"inde":14255,"iwir":14256,"Ġdisiksa":14257,"Ġdisababkeun":14258,"into":14259,"Ġsaenyana":14260,"Ġproyek":14261,"Ġ888":14262,"Ġpamay":14263,"Ġpamutahiran":14264,"ĠAcadem":14265,"Ġprincess":14266,"ĠKasajatian":14267,"Ġkaryawan":14268,"Ġditump":14269,"Ġditanya":14270,"Ġditempatkeun":14271,"Ġditetepkeun":14272,"ontianak":14273,"Ġkabogoh":14274,"Ġkabudayaan":14275,"Ġkabeungharan":14276,"119":14277,"Ġkatun":14278,"Ġkatangt":14279,"Ã©lakeun":14280,"unggung":14281,"unggalan":14282,"Ġade":14283,"Ġadoh":14284,"Ġadegan":14285,"Ã©dÃ©ng":14286,"370":14287,"ORT":14288,"estor":14289,"195":14290,"Ġpareum":14291,"ĠÃŃ":14292,"ĠArgo":14293,"Ġkapir":14294,"Ġkapilih":14295,"Ġngabutuhkeun":14296,"âĢ¦]":14297,"Ġpass":14298,"Ġpasualan":14299,"Ġpashmina":14300,"Ġjalu":14301,"ordania":14302,"Ġkadali":14303,"ĠZel":14304,"ostone":14305,"Ġunion":14306,"ify":14307,"ingkir":14308,"Ġimam":14309,"Ġimpro":14310,"ĠDiakses":14311,"ĠStudio":14312,"ĠStadium":14313,"Ġ96":14314,"ĠAdvent":14315,"164":14316,"166":14317,"imbag":14318,"ĠMaroon":14319,"Ġacadem":14320,"170":14321,"kaosb":14322,"Ġdaftar":14323,"Ġnanging":14324,"apait":14325,"Ġdigolongkeun":14326,"ĠMalayalam":14327,"Ġlalulintas":14328,"ornel":14329,"........":14330,"Ġpalatih":14331,"ĠManusa":14332,"Ġpatepung":14333,"Ġdikawasa":14334,"Ġchina":14335,"OLAH":14336,"ĠSaulus":14337,"Ġdicatet":14338,"ultasi":14339,"Ã©nten":14340,"ankan":14341,"Ġtangtos":14342,"Ġsawawa":14343,"Ð¾Ñı":14344,"ĠTrip":14345,"rated":14346,"formance":14347,"embangkeun":14348,"Ġmenang":14349,"Ngar":14350,"Ngaj":14351,"Ngeunaan":14352,"Ġsorana":14353,"Ġbuuk":14354,"Ġpageuh":14355,"eroan":14356,"uitar":14357,"à¤²":14358,"Ġmusic":14359,"Ġmusibah":14360,"ĠPasundan":14361,"Ġpornografi":14362,"ojaya":14363,"Ġkakurangan":14364,"fier":14365,"ammad":14366,"ammut":14367,"unjungan":14368,"ruity":14369,"ĠâĢ¦âĢ¦âĢ¦âĢ¦âĢ¦":14370,"ĠAyat":14371,"Ġsinuhun":14372,"ĠPanas":14373,"Ġtambang":14374,"Ġdiwenangkeun":14375,"AYU":14376,"ĠAndhra":14377,"Ġbudakna":14378,"Ġdidahar":14379,"Ġsasaran":14380,"juu":14381,"Ġaji":14382,"Ã¨ngin":14383,"Ã¡s":14384,"Ġilang":14385,"Ġpesenan":14386,"ĠÃ©lmuwan":14387,"Ġmayoritas":14388,"Ġgadis":14389,"inggalkan":14390,"ĠkonsÃ©p":14391,"Ġnaros":14392,"ĠhotÃ©l":14393,"Ġpeluang":14394,"Ġsekali":14395,"ĠFlorist":14396,"ĠSarung":14397,"Ġsemua":14398,"Ġtelat":14399,"Ġtutorial":14400,"Ġ);":14401,"ayseri":14402,"ÐºÐ»":14403,"apatos":14404,"Ġmantra":14405,"ĠKomentar":14406,"á»±":14407,"ĠCashable":14408,"Ġlumaku":14409,"Ġpanyalindungan":14410,"ĠSatin":14411,"ĠPareum":14412,"ĠPenang":14413,"Ġrekening":14414,"ongkok":14415,"ITY":14416,"jamin":14417,"Ġbetah":14418,"ĠKacamata":14419,"ĠBusana":14420,"ĠKangjeng":14421,"ĠRasti":14422,"Ġdouble":14423,"Stock":14424,"Ġpayil":14425,"Ġpersis":14426,"ĠRosihon":14427,"eather":14428,"Ġgalaksi":14429,"ĠUkrainian":14430,"Shop":14431,"Ġtablet":14432,"AWA":14433,"Bagian":14434,"abatara":14435,"Ġjeneng":14436,"ĠCentre":14437,"ĠCentral":14438,"asisir":14439,"Ġwadahna":14440,"ĠambÃ©h":14441,"issance":14442,"Ġtalaga":14443,"Ġsangat":14444,"ĠSumatera":14445,"actical":14446,"ĠbaktÃ©ri":14447,"eunteun":14448,"Aturan":14449,"urric":14450,"Ġnerapkeun":14451,"ĠWaruga":14452,"ĠMelayu":14453,"Ġamanat":14454,"ĠAvanafil":14455,"Ġsisimbulan":14456,"Ġanjing":14457,"ĠBaguhanKabataang":14458,"Ġpamajikanana":14459,"Kasajatian":14460,"March":14461,"ĠPandora":14462,"poration":14463,"ĠIbnu":14464,"ĠTangtu":14465,"ĠfrÃ©kuÃ©nsi":14466,"Ġsuasana":14467,"utiara":14468,"Diposting":14469,"ĠbÃ©ak":14470,"ĠCalarasi":14471,"ĠØ§ÙĦÙĦ":14472,"Ġekstrim":14473,"ĠCilacap":14474,"ĠFaculty":14475,"Ġngancik":14476,"ÑĭÐ":14477,"ĠSiliwangi":14478,"Islam":14479,"Sumuhun":14480,"ĠGiribig":14481,"Ġsecara":14482,"Ġreviews":14483,"Ġsateuacanna":14484,"Babakan":14485,"ĠBhd":14486,"ĠTaloja":14487,"Ġindividual":14488,"Ġlulusan":14489,"contoh":14490,"Ġmultip":14491,"ĠJalandhar":14492,"ĠMaranÃ©hna":14493,"Ġmaksimal":14494,"Matanda":14495,"Ġmolek":14496,"ĠSebab":14497,"Ġlelemb":14498,"Ġjudulna":14499,"Ġhantem":14500,"ĠĠĠĠ":14501,"Ġmaipaay":14502,"ĠMimin":14503,"Ġfounding":14504,"ĠAngkatan":14505,"Ġadministratif":14506,"Ġcintaku":14507,"ĠHardware":14508,"Ġbenef":14509,"ĠCBT":14510,"ĠFixtures":14511,"Ġpangkolotna":14512,"ĠprodusÃ©n":14513,"Ġlanceuk":14514,"Anglais":14515,"Ġbegin":14516,"abetes":14517,"ĠSamber":14518,"Online":14519,"Ġyears":14520,"English":14521,"okteran":14522,"ĠFormula":14523,"Ġtersebut":14524,"iprostone":14525,"ĠpangsaÃ©na":14526,"à¯į":14527,"Ġpituin":14528,"ĠDildo":14529,"ĠSEKOLAH":14530,"ĠCancel":14531,"ĠDÃ©wi":14532,"Ġdiwanohkeun":14533,"ĠTidur":14534,"ĠCusanus":14535,"ĠCalifornia":14536,"Ġcengata":14537,"ĠIdeas":14538,"ĠngaropÃ©a":14539,"Labels":14540,"ĠDunarea":14541,"overnment":14542,"Alejandro":14543,"Ġngosongkeun":14544,"ĠBANDUNG":14545,"Ġngalieuk":14546,"Ġproblem":14547,"Ġbrushes":14548,"Ġditawarkeun":14549,"ĠBritania":14550,"ĠidÃ©al":14551,"Doggy":14552,"ï·¼":14553,"ĠOlahraga":14554,"ĠConstruction":14555,"ĠSIMPLE":14556,"ehradun":14557,")-":14558,".âĢĶ":14559,"501":14560,"BB":14561,"Bank":14562,"Beauty":14563,"Cul":14564,"CAD":14565,"Dinten":14566,"Diter":14567,"EZ":14568,"FO":14569,"GO":14570,"Good":14571,"Grosir":14572,"Group":14573,"Homemade":14574,"Hardcore":14575,"IH":14576,"Itu":14577,"Jun":14578,"JUAL":14579,"KT":14580,"Kem":14581,"Kart":14582,"Lalaki":14583,"Mus":14584,"Najan":14585,"Nayanthara":14586,"Panc":14587,"PER":14588,"Perk":14589,"Sag":14590,"Sund":14591,"Saree":14592,"Tin":14593,"Trad":14594,"TWN":14595,"ait":14596,"bd":14597,"bis":14598,"but":14599,"bro":14600,"bant":14601,"buku":14602,"category":14603,"dat":14604,"dib":14605,"dadu":14606,"flow":14607,"false":14608,"gat":14609,"grup":14610,"guruan":14611,"hes":14612,"hari":14613,"hai":14614,"iara":14615,"iatan":14616,"juk":14617,"jasa":14618,"jee":14619,"jawab":14620,"kg":14621,"kun":14622,"kes":14623,"kul":14624,"kandar":14625,"kadang":14626,"kendi":14627,"lt":14628,"mic":14629,"pul":14630,"pcs":14631,"rani":14632,"rich":14633,"sch":14634,"sayang":14635,"suit":14636,"tes":14637,"tian":14638,"tapi":14639,"vo":14640,"vats":14641,"wear":14642,"yy":14643,"yas":14644,"yum":14645,"zb":14646,"²è¦":14647,"Ä«":14648,"ÌĪ":14649,"ÙĢ":14650,"à²":14651,"å®":14652,"ç¾":14653,"Ġov":14654,"Ġungg":14655,"Ġoj":14656,"Ġotor":14657,"Ġuji":14658,"ĸ²è¦":14659,"arv":14660,"Ġkangg":14661,"Ã©lo":14662,"atin":14663,"atide":14664,"Ġsv":14665,"Ġsonic":14666,"Ġdug":14667,"ĠdÃ©m":14668,"Ġdomba":14669,"ĠdÃ©ku":14670,"Ġdunungan":14671,"inet":14672,"inci":14673,"Ġtimp":14674,"Ġpake":14675,"Ġpsik":14676,"ĠpakÃ©an":14677,"Ġpatani":14678,"erence":14679,"Ġmawar":14680,"Ġnum":14681,"Ġnunda":14682,"Ġnanj":14683,"Ġnungguan":14684,"akh":14685,"akilan":14686,"Ġbeun":14687,"Ġbum":14688,"Ġbos":14689,"amaya":14690,"ĠSE":14691,"ĠSif":14692,"ĠSunan":14693,"ĠSka":14694,"ĠSilih":14695,"ĠSoft":14696,"ĠSUL":14697,"ĠSeks":14698,"ĠSakali":14699,"enh":14700,"enatide":14701,"url":14702,"uro":14703,"Ġdihar":14704,"Ġdihareup":14705,"Ġdiajak":14706,"Ġdiatas":14707,"ĠPac":14708,"ĠPEL":14709,"ĠPagar":14710,"ĠPompa":14711,"ĠPuwit":14712,"admin":14713,"unning":14714,"uninga":14715,"iku":14716,"Ġluw":14717,"Ġluncat":14718,"abol":14719,"orec":14720,"Ġjet":14721,"Ġjust":14722,"Ġjack":14723,"Ġjigana":14724,"Ġjadwal":14725,"Ġngus":14726,"Ġngong":14727,"Ġngungsi":14728,"Ġngundeur":14729,"ĠKK":14730,"ĠKud":14731,"ĠKamp":14732,"ĠKurn":14733,"ĠKokok":14734,"ĠBE":14735,"ĠBoh":14736,"ĠBers":14737,"ĠBurung":14738,"ĠBintang":14739,"ĠBubuk":14740,"ĠMeh":14741,"ĠMani":14742,"ĠMIN":14743,"ĠMerah":14744,"ĠMeunangkeun":14745,"ĠMutiara":14746,"Ġani":14747,"Ġantawis":14748,"aged":14749,"agkeun":14750,"Ġhijian":14751,"Ġhref":14752,"ĠTv":14753,"ĠTub":14754,"ĠTiga":14755,"ĠTonj":14756,"ĠTeam":14757,"apay":14758,"apter":14759,"tac":14760,"ilÃ©":14761,"ulk":14762,"ĠDid":14763,"ĠDual":14764,"ĠDhar":14765,"ĠDomba":14766,"umani":14767,"Ġgog":14768,"Ġgre":14769,"Ġgeut":14770,"irakeun":14771,"ĠCE":14772,"ĠCÃ©k":14773,"ĠCerv":14774,"ĠCock":14775,"ĠCenah":14776,"ĠCraft":14777,"Ġcung":14778,"Ġcic":14779,"Ġcuc":14780,"Ġcpns":14781,"Ġ220":14782,"edur":14783,"ĠNum":14784,"ĠNombu":14785,"imen":14786,"ĠJess":14787,"ĠJanten":14788,"Ġ112":14789,"Ġ113":14790,"Ġ133":14791,"rob":14792,"rov":14793,"ĠwÃ©h":14794,"Ġreng":14795,"Ġret":14796,"Ġremp":14797,"Ġragu":14798,"Ġrebu":14799,"ĠrÃ©bu":14800,"olis":14801,"olong":14802,"ĠLit":14803,"ĠLim":14804,"ĠLiter":14805,"ĠLalaki":14806,"ĠLouise":14807,"ĠLENGAN":14808,"Ġnyel":14809,"Ġnyungsi":14810,"Ġnyusun":14811,"Ġnyembah":14812,"Ġnyambungkeun":14813,"upun":14814,"uhung":14815,"Ġ()":14816,"ĠRent":14817,"ihna":14818,"icles":14819,"andeg":14820,
[...]
