{"version":"1.0","truncation":null,"padding":null,"added_tokens":[{"id":0,"special":true,"content":"[UNK]","single_word":false,"lstrip":false,"rstrip":false,"normalized":false},{"id":1,"special":true,"content":"[SEP]","single_word":false,"lstrip":false,"rstrip":false,"normalized":false},{"id":2,"special":true,"content":"[PAD]","single_word":false,"lstrip":false,"rstrip":false,"normalized":false},{"id":3,"special":true,"content":"[CLS]","single_word":false,"lstrip":false,"rstrip":false,"normalized":false},{"id":4,"special":true,"content":"[MASK]","single_word":false,"lstrip":false,"rstrip":false,"normalized":false}],"normalizer":{"type":"BertNormalizer","clean_text":true,"handle_chinese_chars":true,"strip_accents":null,"lowercase":true},"pre_tokenizer":{"type":"BertPreTokenizer"},"post_processor":null,"decoder":{"type":"WordPiece","prefix":"##","cleanup":true},"model":{"type":"WordPiece","unk_token":"[UNK]","continuing_subword_prefix":"##","max_input_chars_per_word":100,"vocab":{"[UNK]":0,"[SEP]":1,"[PAD]":2,"[CLS]":3,"[MASK]":4,"!":5,"\"":6,"#":7,"$":8,"%":9,"&":10,"'":11,"(":12,")":13,"*":14,"+":15,",":16,"-":17,".":18,"/":19,"0":20,"1":21,"2":22,"3":23,"4":24,"5":25,"6":26,"7":27,"8":28,"9":29,":":30,";":31,"<":32,"=":33,">":34,"?":35,"@":36,"[":37,"\\":38,"]":39,"^":40,"_":41,"`":42,"a":43,"b":44,"c":45,"d":46,"e":47,"f":48,"g":49,"h":50,"i":51,"j":52,"k":53,"l":54,"m":55,"n":56,"o":57,"p":58,"q":59,"r":60,"s":61,"t":62,"u":63,"v":64,"w":65,"x":66,"y":67,"z":68,"{":69,"|":70,"}":71,"~":72,"¢":73,"£":74,"¤":75,"¥":76,"¦":77,"§":78,"¨":79,"©":80,"ª":81,"«":82,"¬":83,"®":84,"¯":85,"°":86,"±":87,"²":88,"³":89,"´":90,"µ":91,"¶":92,"·":93,"¸":94,"º":95,"»":96,"¼":97,"½":98,"¾":99,"×":100,"æ":101,"ð":102,"ø":103,"đ":104,"ħ":105,"ı":106,"ł":107,"ŋ":108,"œ":109,"ƒ":110,"ȝ":111,"ȡ":112,"ɑ":113,"ɒ":114,"ə":115,"ɛ":116,"ɡ":117,"ɪ":118,"ɱ":119,"ɺ":120,"ɾ":121,"ʃ":122,"ʕ":123,"ʡ":124,"ʻ":125,"ʼ":126,"ʿ":127,"ˈ":128,"ˌ":129,"ː":130,"˚":131,"ˡ":132,"ͽ":133,"α":134,"β":135,"γ":136,"ε":137,"η":138,"θ":139,"ι":140,"κ":141,"λ":142,"μ":143,"ν":144,"ο":145,"π":146,"ρ":147,"ς":148,"σ":149,"τ":150,"ω":151,"ϡ":152,"а":153,"б":154,"в":155,"г":156,"д":157,"е":158,"ж":159,"з":160,"и":161,"к":162,"л":163,"м":164,"н":165,"о":166,"п":167,"р":168,"с":169,"т":170,"у":171,"ф":172,"х":173,"ц":174,"ч":175,"ш":176,"щ":177,"ъ":178,"ы":179,"ь":180,"э":181,"ю":182,"я":183,"є":184,"ѕ":185,"і":186,"њ":187,"ѡ":188,"ѣ":189,"ѿ":190,"ғ":191,"қ":192,"ҡ":193,"ҷ":194,"ә":195,"ӡ":196,"ա":197,"ե":198,"ի":199,"հ":200,"յ":201,"ն":202,"ո":203,"ր":204,"ւ":205,"ב":206,"ד":207,"ה":208,"ו":209,"י":210,"כ":211,"ל":212,"ם":213,"ס":214,"ע":215,"ק":216,"ר":217,"ש":218,"ת":219,"،":220,"ء":221,"ا":222,"ب":223,"ة":224,"ت":225,"ث":226,"ج":227,"ح":228,"خ":229,"د":230,"ذ":231,"ر":232,"ز":233,"س":234,"ش":235,"ص":236,"ض":237,"ط":238,"ظ":239,"ع":240,"غ":241,"ـ":242,"ف":243,"ق":244,"ك":245,"ل":246,"م":247,"ن":248,"ه":249,"و":250,"ى":251,"ي":252,"١":253,"٢":254,"٣":255,"٤":256,"٥":257,"٩":258,"ٱ":259,"پ":260,"چ":261,"ښ":262,"ڡ":263,"ڤ":264,"ک":265,"ڪ":266,"گ":267,"ڷ":268,"ہ":269,"ۈ":270,"ی":271,"ە":272,"۶":273,"ݡ":274,"ݺ":275,"ޡ":276,"ߡ":277,"अ":278,"आ":279,"ई":280,"औ":281,"क":282,"ख":283,"ग":284,"घ":285,"च":286,"ज":287,"ट":288,"ठ":289,"ड":290,"ण":291,"त":292,"थ":293,"द":294,"ध":295,"न":296,"प":297,"ब":298,"भ":299,"म":300,"य":301,"र":302,"ल":303,"व":304,"श":305,"ष":306,"स":307,"ह":308,"ा":309,"ि":310,"ी":311,"ॉ":312,"ो":313,"ौ":314,"ং":315,"ক":316,"ত":317,"ব":318,"ম":319,"ল":320,"া":321,"ি":322,"৳":323,"ਜ":324,"ਪ":325,"ਬ":326,"ਾ":327,"ੀ":328,"ગ":329,"જ":330,"ત":331,"દ":332,"ધ":333,"ન":334,"ર":335,"હ":336,"ા":337,"િ":338,"ી":339,"ଆ":340,"ଓ":341,"ଡ":342,"அ":343,"ஐ":344,"க":345,"ச":346,"ஜ":347,"ண":348,"த":349,"ந":350,"ன":351,"ப":352,"ம":353,"ர":354,"ழ":355,"வ":356,"ஸ":357,"ா":358,"ி":359,"ு":360,"ெ":361,"ே":362,"ௗ":363,"గ":364,"త":365,"ల":366,"ు":367,"ಕ":368,"ಡ":369,"ನ":370,"ം":371,"മ":372,"യ":373,"ല":374,"ള":375,"ാ":376,"ල":377,"හ":378,"ค":379,"ง":380,"ช":381,"ด":382,"ถ":383,"ท":384,"น":385,"ป":386,"ฟ":387,"ม":388,"ย":389,"ร":390,"ล":391,"ว":392,"ส":393,"อ":394,"า":395,"เ":396,"โ":397,"ไ":398,"๑":399,"๓":400,"ລ":401,"າ":402,"་":403,"ད":404,"ཡ":405,"န":406,"ဘ":407,"မ":408,"သ":409,"ာ":410,"ြ":411,"ა":412,"გ":413,"თ":414,"ი":415,"ლ":416,"მ":417,"რ":418,"უ":419,"ქ":420,"ᄀ":421,"ᄂ":422,"ᄃ":423,"ᄅ":424,"ᄇ":425,"ᄉ":426,"ᄋ":427,"ᄌ":428,"ᄎ":429,"ᄐ":430,"ᄑ":431,"ᄒ":432,"ᅡ":433,"ᅢ":434,"ᅣ":435,"ᅥ":436,"ᅦ":437,"ᅧ":438,"ᅩ":439,"ᅮ":440,"ᅲ":441,"ᅳ":442,"ᅵ":443,"ᆨ":444,"ᆫ":445,"ᆮ":446,"ᆯ":447,"ᆷ":448,"ᆼ":449,"ማ":450,"ር":451,"ኛ":452,"አ":453,"ᐃ":454,"ᑎ":455,"ᑐ":456,"ᑦ":457,"ᒃ":458,"ᓄ":459,"ភ":460,"រ":461,"ស":462,"ា":463,"ែ":464,"ᮂ":465,"ᮃ":466,"ᮄ":467,"ᮅ":468,"ᮆ":469,"ᮇ":470,"ᮈ":471,"ᮉ":472,"ᮊ":473,"ᮌ":474,"ᮍ":475,"ᮎ":476,"ᮏ":477,"ᮑ":478,"ᮒ":479,"ᮓ":480,"ᮔ":481,"ᮕ":482,"ᮘ":483,"ᮙ":484,"ᮚ":485,"ᮛ":486,"ᮜ":487,"ᮝ":488,"ᮞ":489,"ᮠ":490,"ᮦ":491,"ᮧ":492,"᮪":493,"᮱":494,"᮲":495,"᮳":496,"᮵":497,"᮷":498,"᮹":499,"ᴰ":500,"–":501,"—":502,"‘":503,"’":504,"‚":505,"“":506,"”":507,"„":508,"•":509,"…":510,"‰":511,"′":512,"″":513,"‹":514,"›":515,"※":516,"‿":517,"₦":518,"€":519,"₹":520,"₺":521,"℃":522,"™":523,"←":524,"↑":525,"→":526,"↔":527,"−":528,"√":529,"∞":530,"∼":531,"≤":532,"≥":533,"⊂":534,"⋅":535,"⋆":536,"⏱":537,"⏳":538,"①":539,"▪":540,"▲":541,"►":542,"▼":543,"●":544,"◕":545,"◽":546,"★":547,"☏":548,"☜":549,"☞":550,"♥":551,"♦":552,"♫":553,"♬":554,"✅":555,"✆":556,"✔":557,"✕":558,"✨":559,"✳":560,"❤":561,"⟩":562,"⟵":563,"⟶":564,"⭐":565,"⭕":566,"ⰲ":567,"ⰽ":568,"ⱀ":569,"ⱄ":570,"ⱏ":571,"ⱐ":572,"ⱑ":573,"、":574,"。":575,"」":576,"『":577,"【":578,"】":579,"あ":580,"い":581,"う":582,"か":583,"き":584,"し":585,"す":586,"つ":587,"と":588,"な":589,"ね":590,"の":591,"ま":592,"れ":593,"わ":594,"イ":595,"ウ":596,"エ":597,"カ":598,"ケ":599,"コ":600,"サ":601,"シ":602,"ス":603,"タ":604,"チ":605,"ッ":606,"ト":607,"ネ":608,"ハ":609,"フ":610,"メ":611,"ラ":612,"ル":613,"ロ":614,"ン":615,"・":616,"ー":617,"ㅎ":618,"万":619,"三":620,"上":621,"下":622,"专":623,"中":624,"乐":625,"了":626,"于":627,"云":628,"五":629,"亚":630,"些":631,"亩":632,"京":633,"人":634,"什":635,"今":636,"他":637,"以":638,"仳":639,"价":640,"伊":641,"传":642,"体":643,"信":644,"倨":645,"僦":646,"公":647,"共":648,"关":649,"円":650,"况":651,"凱":652,"凿":653,"分":654,"则":655,"利":656,"刷":657,"前":658,"功":659,"加":660,"务":661,"动":662,"助":663,"包":664,"北":665,"升":666,"华":667,"单":668,"印":669,"即":670,"厅":671,"原":672,"及":673,"収":674,"发":675,"号":676,"名":677,"否":678,"吴":679,"告":680,"味":681,"呷":682,"和":683,"咯":684,"咲":685,"哪":686,"嘉":687,"嘟":688,"囍":689,"回":690,"国":691,"图":692,"在":693,"地":694,"坝":695,"型":696,"城":697,"堂":698,"士":699,"夏":700,"外":701,"多":702,"大":703,"天":704,"头":705,"奈":706,"奶":707,"妻":708,"姝":709,"娘":710,"婚":711,"媾":712,"字":713,"安":714,"定":715,"宜":716,"实":717,"客":718,"室":719,"宴":720,"宵":721,"察":722,"寧":723,"寫":724,"对":725,"寺":726,"對":727,"小":728,"尼":729,"属":730,"岛":731,"島":732,"崎":733,"嶂":734,"州":735,"市":736,"布":737,"希":738,"年":739,"店":740,"度":741,"張":742,"当":743,"彡":744,"彩":745,"影":746,"怎":747,"恝":748,"患":749,"您":750,"悻":751,"情":752,"意":753,"成":754,"或":755,"户":756,"戸":757,"所":758,"打":759,"报":760,"拍":761,"括":762,"拼":763,"持":764,"按":765,"接":766,"推":767,"故":768,"数":769,"文":770,"料":771,"新":772,"方":773,"旗":774,"日":775,"时":776,"易":777,"是":778,"晴":779,"曲":780,"更":781,"書":782,"月":783,"有":784,"服":785,"未":786,"本":787,"村":788,"来":789,"東":790,"果":791,"查":792,"根":793,"案":794,"椋":795,"極":796,"槎":797,"槻":798,"樂":799,"樟":800,"樱":801,"次":802,"气":803,"氣":804,"汐":805,"洌":806,"洧":807,"洪":808,"洳":809,"活":810,"测":811,"消":812,"涠":813,"淡":814,"渝":815,"滋":816,"漆":817,"照":818,"片":819,"特":820,"状":821,"狂":822,"率":823,"瑜":824,"環":825,"生":826,"田":827,"电":828,"登":829,"的":830,"益":831,"目":832,"眉":833,"看":834,"真":835,"码":836,"硌":837,"碧":838,"示":839,"礼":840,"神":841,"福":842,"私":843,"秘":844,"稲":845,"積":846,"空":847,"站":848,"等":849,"箱":850,"篠":851,"粵":852,"紗":853,"索":854,"紫":855,"結":856,"維":857,"線":858,"线":859,"细":860,"绩":861,"网":862,"美":863,"羲":864,"羽":865,"者":866,"聴":867,"能":868,"腌":869,"自":870,"臺":871,"與":872,"舒":873,"若":874,"苴":875,"茨":876,"茬":877,"茶":878,"荃":879,"莉":880,"著":881,"蒂":882,"蘭":883,"蛄":884,"行":885,"衣":886,"表":887,"裸":888,"西":889,"見":890,"視":891,"覧":892,"观":893,"解":894,"言":895,"詩":896,"話":897,"語":898,"警":899,"计":900,"设":901,"评":902,"详":903,"语":904,"请":905,"象":906,"贛":907,"越":908,"趣":909,"辑":910,"运":911,"近":912,"还":913,"进":914,"递":915,"道":916,"邻":917,"郎":918,"部":919,"都":920,"鄹":921,"酒":922,"里":923,"鉄":924,"録":925,"链":926,"镇":927,"閲":928,"间":929,"闾":930,"阪":931,"阵":932,"阿":933,"限":934,"险":935,"雷":936,"靠":937,"面":938,"音":939,"预":940,"风":941,"餐":942,"香":943,"马":944,"高":945,"鱼":946,"黑":947,"ꦏ":948,"ꦛ":949,"ꦤ":950,"ꦱ":951,"ꦲ":952,"ꭹ":953,"ꮃ":954,"ꮳ":955,"ﳏ":956,"ﷲ":957,"﷼":958,"ﺍ":959,"ﺪ":960,"ﻤ":961,"，":962,"１":963,"４":964,"９":965,"：":966,"＜":967,"＞":968,"？":969,"ａ":970,"ｃ":971,"ｌ":972,"ｏ":973,"ｒ":974,"ｓ":975,"ｙ":976,"～":977,"🌞":978,"🌟":979,"🌸":980,"🍰":981,"🎁":982,"🐉":983,"👁":984,"💎":985,"💐":986,"💗":987,"💰":988,"💵":989,"🔘":990,"🔥":991,"😀":992,"😂":993,"😅":994,"😆":995,"😉":996,"😍":997,"😎":998,"😜":999,"🙁":1000,"🙂":1001,"🙏":1002,"🤓":1003,"🥂":1004,"##n":1005,"##g":1006,"##l":1007,"##i":1008,"##s":1009,"##h":1010,"##5":1011,"##2":1012,"##o":1013,"##a":1014,"##u":1015,"##k":1016,"##t":1017,"##v":1018,"##p":1019,"##e":1020,"##r":1021,"##y":1022,"##0":1023,"##4":1024,"##j":1025,"##m":1026,"##w":1027,"##d":1028,"##b":1029,"##c":1030,"##3":1031,"##1":1032,"##6":1033,"##7":1034,"##8":1035,"##9":1036,"##z":1037,"##f":1038,"##x":1039,"##р":1040,"##и":1041,"##я":1042,"##т":1043,"##н":1044,"##о":1045,"##е":1046,"##ı":1047,"##ᮌ":1048,"##ᮦ":1049,"##ᮔ":1050,"##᮪":1051,"##¨":1052,"##հ":1053,"##ա":1054,"##յ":1055,"##ե":1056,"##ր":1057,"##ն":1058,"##¬":1059,"##q":1060,"##в":1061,"##д":1062,"##л":1063,"##ン":1064,"##ケ":1065,"##ー":1066,"##シ":1067,"##メ":1068,"##ト":1069,"##с":1070,"##а":1071,"##ა":1072,"##რ":1073,"##თ":1074,"##უ":1075,"##ლ":1076,"##ი":1077,"##ᄒ":1078,"##ᅡ":1079,"##ᆫ":1080,"##ᄀ":1081,"##ᅮ":1082,"##ᆨ":1083,"##ᄋ":1084,"##ᅥ":1085,"##м":1086,"##к":1087,"##म":1088,"##र":1089,"##ा":1090,"##ठ":1091,"##ी":1092,"##न":1093,"##ि":1094,"##स":1095,"##²":1096,"##ส":1097,"##อ":1098,"##г":1099,"##ь":1100,"##б":1101,"##у":1102,"##ц":1103,"##μ":1104,"##ᮕ":1105,"##ᮒ":1106,"##ل":1107,"##غ":1108,"##ي":1109,"##ب":1110,"##п":1111,"##～":1112,"##°":1113,"##ъ":1114,"##ব":1115,"##া":1116,"##ং":1117,"##ল":1118,"##ད":1119,"##ا":1120,"##ک":1121,"##س":1122,"##ت":1123,"##ن":1124,"##™":1125,"##⭐":1126,"##ł":1127,"##ᮃ":1128,"##з":1129,"##ر":1130,"##و":1131,"##ض":1132,"##€":1133,"##®":1134,"##¢":1135,"##¥":1136,"##ᮙ":1137,"##ᮊ":1138,"##ᮞ":1139,"##ᮛ":1140,"##გ":1141,"##י":1142,"##ד":1143,"##ש":1144,"##ᮧ":1145,"##ᮜ":1146,"##ð":1147,"##م":1148,"##ә":1149,"##►":1150,"##ى":1151,"##ع":1152,"##ة":1153,"##ف":1154,"##ی":1155,"##ע":1156,"##ב":1157,"##ר":1158,"##ת":1159,"##ह":1160,"##द":1161,"##ю":1162,"##ч":1163,"##º":1164,"##ه":1165,"##ħ":1166,"##×":1167,"##³":1168,"##ш":1169,"##မ":1170,"##ြ":1171,"##န":1172,"##ာ":1173,"##ဘ":1174,"##သ":1175,"##प":1176,"##ल":1177,"##ŋ":1178,"##¦":1179,"##→":1180,"##ம":1181,"##த":1182,"##ி":1183,"##ச":1184,"##ா":1185,"##ர":1186,"##ы":1187,"##ஸ":1188,"##ᮍ":1189,"##ᮓ":1190,"##ו":1191,"##ה":1192,"##د":1193,"##ㅎ":1194,"##᮹":1195,"##᮱":1196,"##᮵":1197,"##य":1198,"##ʻ":1199,"##ش":1200,"##ء":1201,"##ə":1202,"##ҡ":1203,"##œ":1204,"##ك":1205,"##э":1206,"##۶":1207,"##ᅵ":1208,"##ᅳ":1209,"##ق":1210,"##ڤ":1211,"##ª":1212,"##ᮝ":1213,"##ە":1214,"##ѣ":1215,"##ａ":1216,"##ｒ":1217,"##ｙ":1218,"##ط":1219,"##٣":1220,"##٩":1221,"##ख":1222,"##व":1223,"##ण":1224,"##گ":1225,"##ழ":1226,"##త":1227,"##ల":1228,"##ు":1229,"##గ":1230,"##ไ":1231,"##ท":1232,"##ย":1233,"##ગ":1234,"##જ":1235,"##ર":1236,"##ા":1237,"##ત":1238,"##ી":1239,"##ッ":1240,"##ハ":1241,"##х":1242,"##ो":1243,"##ಕ":1244,"##ನ":1245,"##ಡ":1246,"##ж":1247,"##і":1248,"##¼":1249,"##خ":1250,"##ج":1251,"##´":1252,"##≤":1253,"##ص":1254,"##ᮇ":1255,"##ح":1256,"##ث":1257,"##ᮘ":1258,"##ᮚ":1259,"##¤":1260,"##ۈ":1261,"##ᆯ":1262,"##ᄅ":1263,"##ᆷ":1264,"##ᮎ":1265,"##ᮂ":1266,"##ː":1267,"##の":1268,"##ﻤ":1269,"##क":1270,"##त":1271,"##च":1272,"##ป":1273,"##ล":1274,"##า":1275,"##ค":1276,"##เ":1277,"##ร":1278,"##ظ":1279,"##வ":1280,"##ன":1281,"##ு":1282,"##ப":1283,"##と":1284,"##ᆼ":1285,"##ᮏ":1286,"##ذ":1287,"##᮷":1288,"##ф":1289,"##ᮈ":1290,"##ᅲ":1291,"##ᄌ":1292,"##đ":1293,"##є":1294,"##ॉ":1295,"##ट":1296,"##ε":1297,"##λ":1298,"##η":1299,"##ν":1300,"##ι":1301,"##κ":1302,"##α":1303,"##ᅩ":1304,"##щ":1305,"##ᅧ":1306,"##れ":1307,"##ɪ":1308,"##ʃ":1309,"##ᮆ":1310,"##ஐ":1311,"##¯":1312,"##🥂":1313,"##🍰":1314,"##ز":1315,"##æ":1316,"##ক":1317,"##ত":1318,"##ি":1319,"##①":1320,"##ड":1321,"##イ":1322,"##フ":1323,"##ス":1324,"##タ":1325,"##ル":1326,"##ﷲ":1327,"##ƒ":1328,"##℃":1329,"##ว":1330,"##น":1331,"##ฟ":1332,"##ถ":1333,"##ง":1334,"##٤":1335,"##٥":1336,"##ქ":1337,"##қ":1338,"##മ":1339,"##ല":1340,"##യ":1341,"##ാ":1342,"##ള":1343,"##ം":1344,"##↑":1345,"##ק":1346,"##ø":1347,"##᮲":1348,"##᮳":1349,"##ᐃ":1350,"##ᓄ":1351,"##ᒃ":1352,"##ᑎ":1353,"##ᑐ":1354,"##ᑦ":1355,"##ـ":1356,"##☞":1357,"##ᆮ":1358,"##ᄂ":1359,"##ⰲ":1360,"##ⱑ":1361,"##ⱀ":1362,"##ⱐ":1363,"##ⱄ":1364,"##ⰽ":1365,"##ⱏ":1366,"##ᄉ":1367,"##🌸":1368,"##©":1369,"##ม":1370,"##ช":1371,"##ˈ":1372,"##£":1373,"##😂":1374,"##ڷ":1375,"##ہ":1376,"##भ":1377,"##ज":1378,"##િ":1379,"##ન":1380,"##દ":1381,"##ꮳ":1382,"##ꮃ":1383,"##ꭹ":1384,"##β":1385,"##❤":1386,"##ｏ":1387,"##ｓ":1388,"##な":1389,"##す":1390,"##ま":1391,"##ո":1392,"##ւ":1393,"##ի":1394,"##≥":1395,"##˚":1396,"##◽":1397,"##ந":1398,"##க":1399,"##ெ":1400,"##ௗ":1401,"##ﺍ":1402,"##ɾ":1403,"##🙏":1404,"##پ":1405,"##π":1406,"##τ":1407,"##ο":1408,"##ς":1409,"##چ":1410,"##う":1411,"##し":1412,"##ラ":1413,"##９":1414,"##４":1415,"##ଓ":1416,"##ଡ":1417,"##ଆ":1418,"##ਪ":1419,"##ਜ":1420,"##ਾ":1421,"##ਬ":1422,"##ੀ":1423,"##ȝ":1424,"##✕":1425,"##๓":1426,"##ѕ":1427,"##њ":1428,"##ҷ":1429,"##ᮉ":1430,"##ᮄ":1431,"##ᄃ":1432,"##ே":1433,"##ם":1434,"##ધ":1435,"##σ":1436,"##ด":1437,"##ښ":1438,"##あ":1439,"##き":1440,"##ᴰ":1441,"##ब":1442,"##ᅦ":1443,"##●":1444,"##ω":1445,"##හ":1446,"##ල":1447,"##٢":1448,"##ភ":1449,"##ា":1450,"##ស":1451,"##ែ":1452,"##រ":1453,"##ລ":1454,"##າ":1455,"##😍":1456,"##ꦱ":1457,"##ꦤ":1458,"##ꦏ":1459,"##ꦛ":1460,"##ꦲ":1461,"##つ":1462,"##ग":1463,"##▼":1464,"##ٱ":1465,"##ध":1466,"##ᅢ":1467,"##ᅣ":1468,"##ɑ":1469,"##💰":1470,"##მ":1471,"##ष":1472,"##😎":1473,"##थ":1474,"##๑":1475,"##◕":1476,"##โ":1477,"##γ":1478,"##ל":1479,"##ס":1480,"##☜":1481,"##🌟":1482,"##አ":1483,"##ማ":1484,"##ር":1485,"##ኛ":1486,"##ौ":1487,"##ண":1488,"##⊂":1489,"##ᮠ":1490,"##ɒ":1491,"##ロ":1492,"##コ":1493,"##サ":1494,"##チ":1495,"##ウ":1496,"##an":1497,"##eu":1498,"##ar":1499,"##ng":1500,"##al":1501,"##at":1502,"##ang":1503,"##er":1504,"##in":1505,"##as":1506,"##ah":1507,"##en":1508,"##eun":1509,"##ak":1510,"##am":1511,"di":1512,"##on":1513,"##ur":1514,"##es":1515,"ka":1516,"an":1517,"ng":1518,"##it":1519,"##is":1520,"##ing":1521,"##ik":1522,"##ad":1523,"##un":1524,"##or":1525,"##ta":1526,"##us":1527,"##ab":1528,"##ag":1529,"##il":1530,"##em":1531,"##na":1532,"##ina":1533,"##el":1534,"##ay":1535,"##ul":1536,"##ung":1537,"##ap":1538,"##os":1539,"##um":1540,"##ed":1541,"##et":1542,"##ir":1543,"##eng":1544,"##eh":1545,"##ut":1546,"##uk":1547,"##ana":1548,"##eung":1549,"##keun":1550,"##ya":1551,"nu":1552,"##om":1553,"##ol":1554,"##im":1555,"##ek":1556,"##aw":1557,"sar":1558,"##id":1559,"in":1560,"##ot":1561,"pr":1562,"jeung":1563,"anu":1564,"ku":1565,"20":1566,"##aj":1567,"##ep":1568,"##uh":1569,"##up":1570,"##ent":1571,"dina":1572,"##and":1573,"##ic":1574,"ti":1575,"##ok":1576,"##ih":1577,"##ong":1578,"##ara":1579,"##eb":1580,"##00":1581,"##ant":1582,"##ikeun":1583,"ny":1584,"##og":1585,"##jeun":1586,"##ia":1587,"##ac":1588,"al":1589,"##ian":1590,"##ob":1591,"##asa":1592,"anjeun":1593,"##ri":1594,"##ud":1595,"##ti":1596,"as":1597,"201":1598,"##eg":1599,"##od":1600,"pikeun":1601,"ip":1602,"ieu":1603,"##aan":1604,"##aran":1605,"##ij":1606,"th":1607,"##amp":1608,"##ig":1609,"##ow":1610,"##mp":1611,"##eur":1612,"##op":1613,"##eus":1614,"kas":1615,"per":1616,"teu":1617,"na":1618,"##angg":1619,"##ec":1620,"##si":1621,"##adi":1622,"kal":1623,"##tr":1624,"##ter":1625,"##emb":1626,"##ari":1627,"##asi":1628,"pan":1629,"sal":1630,"ur":1631,"ar":1632,"mat":1633,"##iji":1634,"##ew":1635,"teh":1636,"##oh":1637,"##ub":1638,"##angk":1639,"##art":1640,"##aha":1641,"##ip":1642,"##aya":1643,"kab":1644,"eta":1645,"man":1646,"##ug":1647,"nya":1648,"ad":1649,"bl":1650,"sab":1651,"dis":1652,"mah":1653,"urang":1654,"np":1655,"aya":1656,"##atan":1657,"##le":1658,"##re":1659,"at":1660,"##oc":1661,"##ati":1662,"##angan":1663,"sp":1664,"##und":1665,"##amb":1666,"##end":1667,"geus":1668,"##ib":1669,"##eta":1670,"bis":1671,"sarta":1672,"ac":1673,"sak":1674,"##ra":1675,"the":1676,"##wa":1677,"jal":1678,"##api":1679,"sa":1680,"##ahan":1681,"sareng":1682,"bar":1683,"19":1684,"pang":1685,"kur":1686,"on":1687,"dip":1688,"ind":1689,"kar":1690,"##emp":1691,"ter":1692,"tina":1693,"com":1694,"jadi":1695,"of":1696,"bisa":1697,"##ov":1698,"mas":1699,"##ma":1700,"mang":1701,"##ge":1702,"hiji":1703,"ma":1704,"##akeun":1705,"ch":1706,"mar":1707,"and":1708,"st":1709,"##ch":1710,"to":1711,"##ual":1712,"bak":1713,"##aman":1714,"is":1715,"ngal":1716,"ap":1717,"am":1718,"se":1719,"##uan":1720,"##ai":1721,"##ers":1722,"pp":1723,"##lah":1724,"kam":1725,"pam":1726,"nyaeta":1727,"##ino":1728,"kana":1729,"10":1730,"sh":1731,"un":1732,"lat":1733,"##iti":1734,"ta":1735,"te":1736,"da":1737,"har":1738,"deu":1739,"##sa":1740,"amp":1741,"con":1742,"ata":1743,"kaos":1744,"ag":1745,"##anc":1746,"pas":1747,"##eut":1748,"##ake":1749,"##uc":1750,"oge":1751,"##ada":1752,"kat":1753,"tapi":1754,"ay":1755,"bakal":1756,"##ist":1757,"en":1758,"##ine":1759,"kuring":1760,"##ind":1761,"mal":1762,"ab":1763,"11":1764,"##ungan":1765,"##ehna":1766,"##ga":1767,"##ama":1768,"##ngg":1769,"ngar":1770,"par":1771,"##uj":1772,"##int":1773,"##ua":1774,"##eul":1775,"si":1776,"kap":1777,"kasino":1778,"12":1779,"bal":1780,"smp":1781,"##uran":1782,"tr":1783,"atawa":1784,"##ess":1785,"kac":1786,"##ata":1787,"##ks":1788,"dit":1789,"##uw":1790,"tur":1791,"pl":1792,"aw":1793,"##lo":1794,"##iw":1795,"kit":1796,"for":1797,"car":1798,"des":1799,"##ota":1800,"keur":1801,"##th":1802,"##ala":1803,"##awan":1804,"13":1805,"ampas":1806,"##99":1807,"or":1808,"##euh":1809,"000":1810,"##tu":1811,"lam":1812,"##aku":1813,"leu":1814,"##oy":1815,"##di":1816,"sum":1817,"sund":1818,"sare":1819,"##ita":1820,"##atur":1821,"##ro":1822,"##ika":1823,"ser":1824,"##upa":1825,"ak":1826,"ob":1827,"##iv":1828,"re":1829,"deui":1830,"##engk":1831,"##uar":1832,"ph":1833,"##anj":1834,"##ali":1835,"14":1836,"##eup":1837,"15":1838,"##isah":1839,"##ation":1840,"la":1841,"jalan":1842,"##awa":1843,"kad":1844,"de":1845,"##st":1846,"##isan":1847,"08":1848,"kud":1849,"##eed":1850,"bon":1851,"sabab":1852,"##isi":1853,"ber":1854,"em":1855,"##all":1856,"kon":1857,"sunda":1858,"im":1859,"##12":1860,"##una":1861,"mes":1862,"##ae":1863,"hent":1864,"sing":1865,"##apan":1866,"sah":1867,"kom":1868,"no":1869,"##mart":1870,"dib":1871,"mak":1872,"##ate":1873,"gr":1874,"kaw":1875,"##ember":1876,"##tri":1877,"sap":1878,"##uy":1879,"bonus":1880,"us":1881,"##ayan":1882,"##40":1883,"basa":1884,"jual":1885,"leuw":1886,"speed":1887,"yen":1888,"ngag":1889,"##akan":1890,"ngab":1891,"##eri":1892,"##oga":1893,"##ula":1894,"##ani":1895,"ngaj":1896,"##ey":1897,"ken":1898,"sat":1899,"##euk":1900,"##est":1901,"ngad":1902,"speedmart":1903,"##li":1904,"taun":1905,"lamun":1906,"prod":1907,"buk":1908,"maran":1909,"bag":1910,"##ea":1911,"hal":1912,"ngan":1913,"18":1914,"##20":1915,"aceh":1916,"kudu":1917,"##own":1918,"##ja":1919,"br":1920,"200":1921,"##21":1922,"para":1923,"leuwih":1924,"mer":1925,"##yar":1926,"##euna":1927,"##ihan":1928,"kah":1929,"##ones":1930,"mus":1931,"ari":1932,"##ingg":1933,"##itas":1934,"00":1935,"fre":1936,"##ide":1937,"salah":1938,"up":1939,"##ord":1940,"##uhan":1941,"tat":1942,"anjeunna":1943,"##ebut":1944,"min":1945,"kitu":1946,"tan":1947,"bi":1948,"##oba":1949,"##oid":1950,"men":1951,"pol":1952,"##anda":1953,"##inan":1954,"##ash":1955,"el":1956,"##ns":1957,"mangr":1958,"##ial":1959,"##78":1960,"pal":1961,"sam":1962,"##to":1963,"pem":1964,"##ataan":1965,"ex":1966,"##ender":1967,"##aga":1968,"16":1969,"##ans":1970,"##ast":1971,"um":1972,"##if":1973,"##ost":1974,"##ill":1975,"mun":1976,"aster":1977,"bo":1978,"##ane":1979,"##ayang":1980,"##umb":1981,"teen":1982,"##ungk":1983,"fr":1984,"##ena":1985,"henteu":1986,"24":1987,"##tt":1988,"##irup":1989,"inter":1990,"asteroid":1991,"##oe":1992,"onl":1993,"manehna":1994,"sad":1995,"temp":1996,"##lp":1997,"##ice":1998,"bab":1999,"bat":2000,"25":2001,"indones":2002,"##any":2003,"res":2004,"wak":2005,"##aja":2006,"##ex":2007,"##load":2008,"##epi":2009,"##but":2010,"mesin":2011,"##ulan":2012,"naon":2013,"##umaha":2014,"pen":2015,"ngah":2016,"mur":2017,"ayeuna":2018,"cl":2019,"tim":2020,"##orm":2021,"2017":2022,"boga":2023,"mo":2024,"##ith":2025,"doc":2026,"##ack":2027,"nang":2028,"ut":2029,"ang":2030,"##onal":2031,"17":2032,"lamp":2033,"indonesia":2034,"mil":2035,"tiasa":2036,"sl":2037,"##asan":2038,"online":2039,"##of":2040,"##alan":2041,"jalma":2042,"##ungg":2043,"pin":2044,"##ikan":2045,"latin":2046,"war":2047,"san":2048,"band":2049,"pat":2050,"bah":2051,"##ly":2052,"##ade":2053,"kami":2054,"luh":2055,"free":2056,"down":2057,"21":2058,"co":2059,"##pa":2060,"##igh":2061,"uk":2062,"sel":2063,"blender":2064,"##ous":2065,"bu":2066,"##ish":2067,"sag":2068,"tit":2069,"distri":2070,"##enta":2071,"bang":2072,"##ori":2073,"2019":2074,"mod":2075,"it":2076,"ngeun":2077,"art":2078,"##ingk":2079,"dep":2080,"dil":2081,"hand":2082,"30":2083,"nag":2084,"##ump":2085,"sahiji":2086,"ge":2087,"##araha":2088,"lal":2089,"sur":2090,"##imp":2091,"beb":2092,"sil":2093,"download":2094,"kul":2095,"##ener":2096,"##akar":2097,"dig":2098,"distribut":2099,"pisan":2100,"tok":2101,"dir":2102,"op":2103,"big":2104,"angg":2105,"ni":2106,"sit":2107,"##000":2108,"##ays":2109,"with":2110,"26":2111,"sup":2112,"dim":2113,"##aka":2114,"distributor":2115,"pns":2116,"go":2117,"##123":2118,"suk":2119,"mp":2120,"##eunang":2121,"rel":2122,"sd":2123,"ah":2124,"##ieun":2125,"sb":2126,"##ort":2127,"##ome":2128,"ipil":2129,"desa":2130,"ngeunaan":2131,"23":2132,"saj":2133,"sub":2134,"bud":2135,"##ity":2136,"28":2137,"saw":2138,"ik":2139,"##sh":2140,"##ert":2141,"all":2142,"##anana":2143,"##angka":2144,"ant":2145,"loba":2146,"sor":2147,"##321":2148,"mi":2149,"peng":2150,"alam":2151,"##ttp":2152,"barat":2153,"08123":2154,"##unan":2155,"##angkung":2156,"sex":2157,"tlp":2158,"pemisah":2159,"07":2160,"kota":2161,"##angs":2162,"##78321":2163,"0812378321":2164,"081237832140":2165,"http":2166,"adv":2167,"##tur":2168,"produk":2169,"dua":2170,"iti":2171,"##ment":2172,"anak":2173,"dan":2174,"##anggo":2175,"##ond":2176,"mana":2177,"nepi":2178,"pag":2179,"tek":2180,"med":2181,"##jang":2182,"kalawan":2183,"##job":2184,"put":2185,"be":2186,"##ese":2187,"##ics":2188,"22":2189,"##ve":2190,"fl":2191,"##eum":2192,"sababaraha":2193,"new":2194,"##oun":2195,"sok":2196,"tempat":2197,"##aki":2198,"##out":2199,"##ce":2200,"bed":2201,"ha":2202,"##aks":2203,"##imb":2204,"##aju":2205,"pa":2206,"##orn":2207,"ged":2208,"##jen":2209,"saree":2210,"##etan":2211,"##ukeun":2212,"kec":2213,"##asil":2214,"kel":2215,"##vi":2216,"##ust":2217,"##engan":2218,"dic":2219,"##asar":2220,"jasa":2221,"mangrupa":2222,"sbj":2223,"by":2224,"pad":2225,"tang":2226,"##ons":2227,"meunang":2228,"pil":2229,"henta":2230,"hentai":2231,"fil":2232,"sdn":2233,"eks":2234,"ul":2235,"##ami":2236,"dew":2237,"me":2238,"rek":2239,"neg":2240,"we":2241,"pul":2242,"dik":2243,"##ongan":2244,"27":2245,"met":2246,"wal":2247,"##arkeun":2248,"##usan":2249,"tul":2250,"dun":2251,"##tor":2252,"dij":2253,"ngaw":2254,"bel":2255,"##ore":2256,"abdi":2257,"kr":2258,"langkung":2259,"##pr":2260,"##anten":2261,"##ins":2262,"##ukan":2263,"##awe":2264,"##ens":2265,"luhur":2266,"nga":2267,"lag":2268,"reg":2269,"kumaha":2270,"cat":2271,"ket":2272,"##ard":2273,"##udi":2274,"##ue":2275,"dat":2276,"##omb":2277,"tah":2278,"harga":2279,"dr":2280,"sc":2281,"##ame":2282,"salaku":2283,"##ou":2284,"##inal":2285,"##umi":2286,"phot":2287,"bae":2288,"cara":2289,"##oll":2290,"sem":2291,"hirup":2292,"##ton":2293,"bes":2294,"##yan":2295,"##usi":2296,"##ira":2297,"50":2298,"##alah":2299,"mb":2300,"taman":2301,"##ingan":2302,"##10":2303,"sarees":2304,"do":2305,"##olog":2306,"ju":2307,"tel":2308,"bari":2309,"ki":2310,"mul":2311,"nov":2312,"asian":2313,"rupa":2314,"str":2315,"##engah":2316,"40":2317,"##atna":2318,"##unt":2319,"toko":2320,"29":2321,"bad":2322,"ib":2323,"##lik":2324,"pant":2325,"situs":2326,"##aten":2327,"ngaran":2328,"##our":2329,"ass":2330,"ed":2331,"##lan":2332,"##atkeun":2333,"##ila":2334,"maraneh":2335,"##ungsi":2336,"conj":2337,"##ach":2338,"sek":2339,"##lam":2340,"latina":2341,"##akarta":2342,"mp3":2343,"vide":2344,"es":2345,"ked":2346,"he":2347,"id":2348,"sejen":2349,"##50":2350,"pus":2351,"##ungt":2352,"##alik":2353,"##ayaan":2354,"lain":2355,"dar":2356,"##ini":2357,"non":2358,"sangg":2359,"anyar":2360,"prop":2361,"blow":2362,"waktu":2363,"japan":2364,"##ida":2365,"le":2366,"##age":2367,"inf":2368,"##ts":2369,"##man":2370,"##iri":2371,"##iran":2372,"kawas":2373,"##ates":2374,"##osit":2375,"##ass":2376,"allah":2377,"emb":2378,"##anjeun":2379,"##amatan":2380,"ker":2381,"tar":2382,"jum":2383,"##anapi":2384,"du":2385,"prd":2386,"sep":2387,"##obil":2388,"mag":2389,"mim":2390,"sy":2391,"##usa":2392,"kabup":2393,"besar":2394,"anim":2395,"terp":2396,"##aysia":2397,"33":2398,"home":2399,"##ink":2400,"sed":2401,"##ode":2402,"murah":2403,"##ver":2404,"##tion":2405,"##ahna":2406,"kabupaten":2407,"raja":2408,"2018":2409,"atanapi":2410,"maranehna":2411,"##anjeunna":2412,"jam":2413,"mangg":2414,"post":2415,"2016":2416,"##ell":2417,"##ogle":2418,"##embang":2419,"deposit":2420,"kabataan":2421,"##ff":2422,"##ola":2423,"malaysia":2424,"maranehanana":2425,"set":2426,"##ee":2427,"bandung":2428,"google":2429,"japanese":2430,"hot":2431,"nar":2432,"nal":2433,"pet":2434,"##ion":2435,"##ensi":2436,"mobil":2437,"pu":2438,"##insi":2439,"jer":2440,"jawa":2441,"rep":2442,"pak":2443,"tet":2444,"##usna":2445,"##ima":2446,"dag":2447,"60":2448,"##ank":2449,"##akna":2450,"sen":2451,"##usah":2452,"##emen":2453,"gir":2454,"nur":2455,"wh":2456,"##are":2457,"ob1":2458,"sig":2459,"diri":2460,"##ajat":2461,"dipake":2462,"kol":2463,"may":2464,"wae":2465,"eur":2466,"poe":2467,"##als":2468,"##uru":2469,"kuat":2470,"aranjeunna":2471,"##ct":2472,"##enc":2473,"moal":2474,"sin":2475,"tag":2476,"ungg":2477,"##ris":2478,"dunya":2479,"sol":2480,"01":2481,"pik":2482,"##kab":2483,"##pl":2484,"##mi":2485,"nyieun":2486,"blog":2487,"din":2488,"##ber":2489,"##ich":2490,"sk":2491,"##ound":2492,"joh":2493,"##ere":2494,"pada":2495,"##cl":2496,"pap":2497,"##ery":2498,"pel":2499,"2011":2500,"sagala":2501,"##bar":2502,"slot":2503,"100":2504,"kacamatan":2505,"ja":2506,"##ont":2507,"shop":2508,"disebut":2509,"##eutik":2510,"negeri":2511,"ora":2512,"##ril":2513,"2020":2514,"iklan":2515,"dal":2516,"##we":2517,"aut":2518,"##ej":2519,"##ies":2520,"##ora":2521,"kan":2522,"kag":2523,"pany":2524,"sakab":2525,"max":2526,"yang":2527,"43":2528,"kak":2529,"tamb":2530,"##ork":2531,"terpisah":2532,"org":2533,"lagu":2534,"li":2535,"islam":2536,"makeup":2537,"##ogr":2538,"november":2539,"les":2540,"pes":2541,"##uka":2542,"il":2543,"rob":2544,"sas":2545,"##reat":2546,"alloh":2547,"jakarta":2548,"##inta":2549,"##ilu":2550,"tanpa":2551,"kaj":2552,"##awar":2553,"35":2554,"cai":2555,"eng":2556,"gar":2557,"##11":2558,"##ick":2559,"from":2560,"nagara":2561,"make":2562,"ning":2563,"##oj":2564,"can":2565,"porn":2566,"sim":2567,"kl":2568,"##se":2569,"##apa":2570,"gl":2571,"pos":2572,"##ekel":2573,"datang":2574,"sanggeus":2575,"mac":2576,"##itu":2577,"trans":2578,"photos":2579,"su":2580,"##de":2581,"kalayan":2582,"pok":2583,"##ne":2584,"##one":2585,"cr":2586,"mot":2587,"vi":2588,"wa":2589,"32":2590,"gun":2591,"##atis":2592,"##era":2593,"38":2594,"but":2595,"bulan":2596,"samp":2597,"31":2598,"##ahkeun":2599,"kant":2600,"##har":2601,"##uli":2602,"36":2603,"##mu":2604,"##ato":2605,"##utan":2606,"ca":2607,"kang":2608,"##kan":2609,"##erah":2610,"ngam":2611,"##ock":2612,"model":2613,"bebas":2614,"05":2615,"45":2616,"bas":2617,"dah":2618,"kiw":2619,"lok":2620,"sakabeh":2621,"44":2622,"bet":2623,"baju":2624,"ceuk":2625,"2012":2626,"den":2627,"ulah":2628,"wang":2629,"lampu":2630,"hayang":2631,"##cap":2632,"34":2633,"gamb":2634,"sm":2635,"2015":2636,"panon":2637,"##angsung":2638,"kedah":2639,"mut":2640,"##ayu":2641,"beda":2642,"kiwari":2643,"cart":2644,"pur":2645,"kamp":2646,"##uang":2647,"##jan":2648,"##akat":2649,"##ie":2650,"latinas":2651,"03":2652,"web":2653,"unt":2654,"##ight":2655,"55":2656,"mem":2657,"ra":2658,"##eub":2659,"##ukang":2660,"panjang":2661,"kaul":2662,"##ite":2663,"atuh":2664,"intern":2665,"04":2666,"ba":2667,"ne":2668,"tengah":2669,"muh":2670,"pend":2671,"##fi":2672,"propinsi":2673,"euw":2674,"sangk":2675,"##aho":2676,"##old":2677,"kaluar":2678,"imah":2679,"sang":2680,"kasajat":2681,"kasajatian":2682,"kep":2683,"nab":2684,"##amat":2685,"prov":2686,"keneh":2687,"kaulinan":2688,"02":2689,"39":2690,"euweuh":2691,"##tra":2692,"leung":2693,"##ci":2694,"##eureun":2695,"##tress":2696,"video":2697,"wil":2698,"##eran":2699,"##alikuran":2700,"num":2701,"ol":2702,"##word":2703,"##ona":2704,"##acara":2705,"perl":2706,"balik":2707,"##ive":2708,"nalika":2709,"naha":2710,"##qu":2711,"masih":2712,"ngaliw":2713,"49":2714,"##anti":2715,"sorangan":2716,"jan":2717,"kh":2718,"pm":2719,"pent":2720,"##amm":2721,"##unakeun":2722,"prof":2723,"budak":2724,"air":2725,"pot":2726,"##ema":2727,"actress":2728,"anime":2729,"bung":2730,"hid":2731,"lan":2732,"ras":2733,"##angkeun":2734,"06":2735,"aj":2736,"gal":2737,"gamp":2738,"part":2739,"bod":2740,"manusa":2741,"blowjob":2742,"cum":2743,"leb":2744,"out":2745,"tut":2746,"##ka":2747,"##tos":2748,"199":2749,"april":2750,"41":2751,"##70":2752,"##erti":2753,"##ongkeun":2754,"flor":2755,"unggal":2756,"hasil":2757,"jel":2758,"##row":2759,"##unj":2760,"##usti":2761,"##ba":2762,"##ult":2763,"##edia":2764,"emas":2765,"##su":2766,"diw":2767,"obat":2768,"om":2769,"##sp":2770,"##anan":2771,"##ase":2772,"kaayaan":2773,"bener":2774,"neb":2775,"sana":2776,"suc":2777,"09":2778,"bahan":2779,"kanggo":2780,"##30":2781,"##anggih":2782,"plan":2783,"sedeng":2784,"janten":2785,"mel":2786,"##te":2787,"##engg":2788,"minangka":2789,"lesb":2790,"##keut":2791,"##ole":2792,"nip":2793,"##arang":2794,"2013":2795,"get":2796,"kor":2797,"##lag":2798,"##ering":2799,"lalaki":2800,"gad":2801,"hug":2802,"sadaya":2803,"##usahaan":2804,"##yo":2805,"tatto":2806,"42":2807,"52":2808,"did":2809,"terus":2810,"daerah":2811,"##eula":2812,"batur":2813,"ir":2814,"##ood":2815,"gede":2816,"mimiti":2817,"imp":2818,"mib":2819,"lesbian":2820,"d2":2821,"##asup":2822,"##esna":2823,"##ewe":2824,"pamp":2825,"rah":2826,"##dr":2827,"##15":2828,"##ze":2829,"##arah":2830,"pangal":2831,"beur":2832,"er":2833,"ke":2834,"s1":2835,"sist":2836,"##land":2837,"##ha":2838,"ngaliwatan":2839,"gusti":2840,"tangg":2841,"print":2842,"kons":2843,"47":2844,"80":2845,"jun":2846,"rat":2847,"jaman":2848,"##iy":2849,"##yl":2850,"##ersi":2851,"samem":2852,"lang":2853,"so":2854,"sw":2855,"handap":2856,"kecap":2857,"huge":2858,"##80":2859,"day":2860,"##da":2861,"##alag":2862,"##abr":2863,"##antos":2864,"53":2865,"cash":2866,"##itan":2867,"##osir":2868,"##acan":2869,"umum":2870,"seu":2871,"bagian":2872,"jag":2873,"top":2874,"##ukup":2875,"barang":2876,"ukur":2877,"planet":2878,"ing":2879,"led":2880,"tak":2881,"pers":2882,"manga":2883,"kaca":2884,"##uf":2885,"serv":2886,"keb":2887,"sacara":2888,"teg":2889,"uj":2890,"ya":2891,"##abab":2892,"##rig":2893,"awak":2894,"paling":2895,"girl":2896,"##entuk":2897,"spins":2898,"badag":2899,"bir":2900,"2014":2901,"dipik":2902,"46":2903,"bul":2904,"dj":2905,"nak":2906,"treat":2907,"ref":2908,"sangkan":2909,"mon":2910,"lemb":2911,"##ene":2912,"##istr":2913,"##ign":2914,"54":2915,"##ft":2916,"##ayana":2917,"masalah":2918,"pamake":2919,"##ancang":2920,"awewe":2921,"dewek":2922,"99":2923,"rum":2924,"dih":2925,"##ura":2926,"hair":2927,"cah":2928,"my":2929,"tuj":2930,"##ki":2931,"##words":2932,"sedengkeun":2933,"##onan":2934,"marcap":2935,"##ormasi":2936,"gunung":2937,"sanajan":2938,"marcapada":2939,"##ean":2940,"##rina":2941,"##ern":2942,"pampalag":2943,"pampalaglag":2944,"##ru":2945,"##ww":2946,"##emi":2947,"##rip":2948,"treatment":2949,"ga":2950,"pay":2951,"lant":2952,"##alna":2953,"alus":2954,"cukup":2955,"dec":2956,"fac":2957,"gall":2958,"hart":2959,"high":2960,"##les":2961,"##ose":2962,"##imal":2963,"kabeh":2964,"gambar":2965,"nebula":2966,"af":2967,"kim":2968,"wik":2969,"##jo":2970,"##ical":2971,"##ows":2972,"grosir":2973,"tetep":2974,"maj":2975,"##60":2976,"off":2977,"angk":2978,"anggota":2979,"37":2980,"mad":2981,"ro":2982,"wid":2983,"alat":2984,"deukeut":2985,"mangrup":2986,"59":2987,"kop":2988,"kay":2989,"teuing":2990,"elmu":2991,"lap":2992,"##andak":2993,"tip":2994,"was":2995,"tangtu":2996,"48":2997,"saha":2998,"www":2999,"##yp":3000,"##obs":3001,"bumi":3002,"##ator":3003,"mir":3004,"##sy":3005,"##amana":3006,"adwords":3007,"kahirup":3008,"kin":3009,"wong":3010,"##itian":3011,"blous":3012,"##ivers":3013,"bahasa":3014,"##shot":3015,"cm":3016,"coc":3017,"jur":3018,"tukang":3019,"##iz":3020,"##irim":3021,"amer":3022,"bukit":3023,"##illus":3024,"her":3025,"##nis":3026,"##ping":3027,"prn":3028,"nyar":3029,"##ance":3030,"provillus":3031,"70":3032,"##rac":3033,"##enah":3034,"##ajeng":3035,"##inten":3036,"mere":3037,"dari":3038,"ger":3039,"kungsi":3040,"lum":3041,"tilu":3042,"##ju":3043,"baris":3044,"##ingkat":3045,"regrow":3046,"regrowth":3047,"dum":3048,"role":3049,"seb":3050,"##ten":3051,"##bit":3052,"##akukeun":3053,"##awang":3054,"maring":3055,"buku":3056,"utama":3057,"antara":3058,"58":3059,"bur":3060,"kus":3061,"##inc":3062,"dieu":3063,"##ents":3064,"maen":3065,"##ologi":3066,"johor":3067,"kahirupan":3068,"ok":3069,"pd":3070,"tab":3071,"##her":3072,"##ubungan":3073,"sumber":3074,"56":3075,"75":3076,"boh":3077,"gel":3078,"nyebut":3079,"tattoo":3080,"##ros":3081,"##do":3082,"##13":3083,"##ors":3084,"ngagunakeun":3085,"nemp":3086,"tra":3087,"tingg":3088,"wew":3089,"##nya":3090,"##angun":3091,"##ajar":3092,"##ober":3093,"jumlah":3094,"57":3095,"##asana":3096,"kaler":3097,"produc":3098,"lampah":3099,"penting":3100,"av":3101,"cal":3102,"nemb":3103,"pop":3104,"##alkeun":3105,"##ure":3106,"kampung":3107,"##ulis":3108,"tam":3109,"##ca":3110,"##ajan":3111,"##ect":3112,"sabrina":3113,"komp":3114,"service":3115,"bus":3116,"jar":3117,"jat":3118,"lian":3119,"mik":3120,"nas":3121,"##pin":3122,"##cg":3123,"pre":3124,"##ech":3125,"end":3126,"51":3127,"cer":3128,"pemb":3129,"##ool":3130,"##utkeun":3131,"perk":3132,"maneh":3133,"carita":3134,"usaha":3135,"jauh":3136,"sistem":3137,"tea":3138,"bodas":3139,"tu":3140,"##vel":3141,"##ral":3142,"##esi":3143,"kaasup":3144,"##tif":3145,"univers":3146,"##engkon":3147,"65":3148,"lengk":3149,"niti":3150,"##rb":3151,"stre":3152,"girls":3153,"mant":3154,"ped":3155,"##alitas":3156,"##angna":3157,"##ape":3158,"upami":3159,"silk":3160,"wewengkon":3161,"ek":3162,"kem":3163,"##emon":3164,"progr":3165,"kali":3166,"cumshot":3167,"hak":3168,"rp":3169,"##palikuran":3170,"##ated":3171,"nude":3172,"##asional":3173,"mangsa":3174,"amat":3175,"play":3176,"https":3177,"jero":3178,"leutik":3179,"natur":3180,"##urna":3181,"##adian":3182,"matak":3183,"ningali":3184,"kun":3185,"leg":3186,"sos":3187,"muhamm":3188,"fa":3189,"hus":3190,"kira":3191,"##min":3192,"##90":3193,"##ark":3194,"##eni":3195,"##ela":3196,"comics":3197,"bangsa":3198,"gag":3199,"guru":3200,"net":3201,"tal":3202,"##za":3203,"sakola":3204,"rasa":3205,"##nam":3206,"this":3207,"##ataang":3208,"wan":3209,"##sur":3210,"ngora":3211,"##entar":3212,"daun":3213,"desain":3214,"##racial":3215,"ben":3216,"qu":3217,"sch":3218,"##lon":3219,"##awab":3220,"nyaho":3221,"handjob":3222,"cp":3223,"pand":3224,"##45":3225,"inst":3226,"sakumaha":3227,"dagiti":3228,"ot":3229,"you":3230,"nganggo":3231,"##able":3232,"malah":3233,"interracial":3234,"##oft":3235,"ban":3236,"cas":3237,"kow":3238,"tangk":3239,"##omi":3240,"##olah":3241,"form":3242,"buah":3243,"amateur":3244,"hate":3245,"pi":3246,"tid":3247,"ini":3248,"##ikasi":3249,"harita":3250,"cahaya":3251,"dap":3252,"data":3253,"##hy":3254,"##oo":3255,"##16":3256,"prom":3257,"##asaan":3258,"perc":3259,"##atif":3260,"bali":3261,"exp":3262,"mek":3263,"##ory":3264,"##ull":3265,"mix":3266,"ey":3267,"gancang":3268,"rec":3269,"##ary":3270,"##arent":3271,"##itud":3272,"##isasi":3273,"##ugi":3274,"##inggu":3275,"untuk":3276,"bunga":3277,"kos":3278,"mis":3279,"##rak":3280,"cont":3281,"cik":3282,"##esus":3283,"##uter":3284,"##ukur":3285,"kualitas":3286,"##uga":3287,"one":3288,"cir":3289,"jaya":3290,"langsung":3291,"temb":3292,"##gi":3293,"##eres":3294,"##oran":3295,"##aba":3296,"##umna":3297,"##entang":3298,"mark":3299,"und":3300,"sir":3301,"tum":3302,"##18":3303,"##ungkeun":3304,"##edang":3305,"dadi":3306,"ko":3307,"tin":3308,"pres":3309,"are":3310,"apa":3311,"robah":3312,"hade":3313,"wis":3314,"##tab":3315,"##uhu":3316,"##okot":3317,"nyi":3318,"panas":3319,"sablon":3320,"ist":3321,"henti":3322,"media":3323,"tuluy":3324,"program":3325,"pangg":3326,"van":3327,"versi":3328,"##askeun":3329,"##uda":3330,"chip":3331,"lila":3332,"##oon":3333,"##17":3334,"##ism":3335,"##ings":3336,"##ajaan":3337,"diper":3338,"##euting":3339,"desember":3340,"##view":3341,"##esep":3342,"##ulu":3343,"##udak":3344,"##tiv":3345,"##eubeul":3346,"gaduh":3347,"62":3348,"tv":3349,"pros":3350,"##antara":3351,"asa":3352,"toy":3353,"agu":3354,"gampang":3355,"dinten":3356,"taya":3357,"kajadian":3358,"tap":3359,"kaya":3360,"amb":3361,"ngadeg":3362,"cent":3363,"ros":3364,"tong":3365,"wat":3366,"##oan":3367,"##jek":3368,"##uri":3369,"##enge":3370,"waktos":3371,"leungeun":3372,"##la":3373,"##lim":3374,"##22":3375,"##ain":3376,"##ikel":3377,"##imitian":3378,"##iwat":3379,"teens":3380,"##ories":3381,"news":3382,"lantaran":3383,"col":3384,"sun":3385,"simp":3386,"way":3387,"##alam":3388,"##atet":3389,"##elan":3390,"barudak":3391,"card":3392,"saperti":3393,"##ext":3394,"beuk":3395,"##lish":3396,"##yr":3397,"##19":3398,"##ilan":3399,"prim":3400,"parantos":3401,"trad":3402,"sumedang":3403,"sadayana":3404,"hartina":3405,"bany":3406,"cinta":3407,"mu":3408,"pub":3409,"##ry":3410,"##rat":3411,"##ational":3412,"view":3413,"ngg":3414,"##ages":3415,"saur":3416,"##oys":3417,"conjp":3418,"nyebutkeun":3419,"bog":3420,"dos":3421,"tos":3422,"##66":3423,"ngom":3424,"##ise":3425,"##iga":3426,"enya":3427,"orang":3428,"sept":3429,"beuki":3430,"ingg":3431,"meul":3432,"rar":3433,"wag":3434,"##rek":3435,"##88":3436,"##enan":3437,"##iki":3438,"sakumna":3439,"pasar":3440,"batu":3441,"motor":3442,"74":3443,"##ire":3444,"comp":3445,"biasa":3446,"mangga":3447,"mand":3448,"rus":3449,"##agi":3450,"sarua":3451,"price":3452,"deweke":3453,"69":3454,"kes":3455,"lab":3456,"lay":3457,"##ni":3458,"##ny":3459,"##vid":3460,"##co":3461,"##onj":3462,"nganj":3463,"prib":3464,"2010":3465,"00000":3466,"september":3467,"cek":3468,"gam":3469,"heb":3470,"lad":3471,"##uring":3472,"##urkeun":3473,"##ital":3474,"##ados":3475,"##ayat":3476,"agama":3477,"design":3478,"##roid":3479,"informasi":3480,"maca":3481,"muhammad":3482,"bub":3483,"reb":3484,"##ajaran":3485,"##angkat":3486,"china":3487,"kituna":3488,"nangt":3489,"putra":3490,"77":3491,"bade":3492,"not":3493,"vb":3494,"##xx":3495,"sora":3496,"magn":3497,"kusabab":3498,"bapa":3499,"ef":3500,"meng":3501,"tingkat":3502,"##hi":3503,"##asna":3504,"##ular":3505,"##uman":3506,"ins":3507,"##icer":3508,"black":3509,"npr":3510,"bagean":3511,"dijieun":3512,"cot":3513,"kode":3514,"lem":3515,"luar":3516,"map":3517,"##yah":3518,"##arana":3519,"ana":3520,"##ingpin":3521,"##over":3522,"##oyong":3523,"64":3524,"76":3525,"meureun":3526,"##war":3527,"kuwe":3528,"500":3529,"bac":3530,"et":3531,"##aji":3532,"##andung":3533,"masar":3534,"pamarent":3535,"amerika":3536,"79":3537,"gawe":3538,"peuting":3539,"rada":3540,"##33":3541,"##ibel":3542,"indian":3543,"pasti":3544,"edit":3545,"toyota":3546,"fak":3547,"hang":3548,"judi":3549,"lah":3550,"ram":3551,"wind":3552,"zink":3553,"##jam":3554,"##ining":3555,"##esan":3556,"##umen":3557,"##irt":3558,"pert":3559,"sanes":3560,"kulit":3561,"supp":3562,"##let":3563,"##osi":3564,"##irna":3565,"alb":3566,"73":3567,"##hun":3568,"##aa":3569,"##aen":3570,"##ding":3571,"nyang":3572,"timur":3573,"juicer":3574,"duit":3575,"tanggal":3576,"gre":3577,"club":3578,"##baru":3579,"masarakat":3580,"cic":3581,"dong":3582,"game":3583,"huk":3584,"jen":3585,"red":3586,"##pon":3587,"##bag":3588,"##uskeun":3589,"##oth":3590,"item":3591,"mei":3592,"internet":3593,"minggu":3594,"orig":3595,"##wan":3596,"agung":3597,"pinuh":3598,"coup":3599,"kulawar":3600,"mbok":3601,"kantor":3602,"kart":3603,"mungg":3604,"ses":3605,"suw":3606,"tas":3607,"##arian":3608,"##ile":3609,"karajaan":3610,"david":3611,"##uji":3612,"maks":3613,"kulon":3614,"tujuan":3615,"bant":3616,"dasar":3617,"jamb":3618,"kid":3619,"##rah":3620,"##ware":3621,"##bal":3622,"##eman":3623,"salam":3624,"ayana":3625,"sanibel":3626,"sukab":3627,"ibu":3628,"hideung":3629,"samemeh":3630,"72":3631,"cor":3632,"hd":3633,"lound":3634,"sr":3635,"##une":3636,"nuhun":3637,"##sib":3638,"##uary":3639,"pussy":3640,"dahon":3641,"okt":3642,"sosial":3643,"90":3644,"ax":3645,"##ger":3646,"##eruh":3647,"##trak":3648,"warna":3649,"kieu":3650,"organ":3651,"panonp":3652,"85":3653,"fit":3654,"kn":3655,"lajeng":3656,"sid":3657,"##atos":3658,"##angi":3659,"##adu":3660,"acara":3661,"teras":3662,"gratis":3663,"boobs":3664,"##unggal":3665,"opat":3666,"##ertos":3667,"cina":3668,"cenah":3669,"ji":3670,"luc":3671,"song":3672,"##ev":3673,"ngur":3674,"##oro":3675,"##ace":3676,"terang":3677,"hareup":3678,"ukuran":3679,"miu":3680,"dumasar":3681,"tinggi":3682,"aks":3683,"fast":3684,"po":3685,"val":3686,"wad":3687,"##ney":3688,"##47":3689,"##anya":3690,"##ikat":3691,"##oreng":3692,"asup":3693,"kapanggih":3694,"neangan":3695,"gallery":3696,"wikip":3697,"inggris":3698,"63":3699,"dem":3700,"ep":3701,"##lat":3702,"##ute":3703,"##ogra":3704,"##obah":3705,"that":3706,"##anggap":3707,"##arios":3708,"panc":3709,"karya":3710,"tekn":3711,"catim":3712,"kolot":3713,"##kabataan":3714,"refer":3715,"68":3716,"cur":3717,"has":3718,"idi":3719,"##ml":3720,"##alt":3721,"##ence":3722,"##ungna":3723,"##ica":3724,"turun":3725,"##umbu":3726,"##aksan":3727,"tangt":3728,"panonpoe":3729,"66":3730,"bay":3731,"coll":3732,"dok":3733,"sta":3734,"work":3735,"##25":3736,"##aturan":3737,"##apkeun":3738,"indus":3739,"aman":3740,"ayam":3741,"tato":3742,"tanah":3743,"alamat":3744,"##ondok":3745,"blowjobs":3746,"##namen":3747,"samb":3748,"##ahal":3749,"##adikeun":3750,"resep":3751,"artikel":3752,"ekon":3753,"sukabumi":3754,"sul":3755,"zing":3756,"##abal":3757,"proy":3758,"nyandak":3759,"ngalawan":3760,"sapertos":3761,"biasana":3762,"wangunan":3763,"ngomong":3764,"geur":3765,"kany":3766,"mov":3767,"##cc":3768,"##ilang":3769,"##epang":3770,"##ugh":3771,"objek":3772,"polos":3773,"seueur":3774,"school":3775,"jang":3776,"mud":3777,"naw":3778,"rom":3779,"turnamen":3780,"musik":3781,"pilihan":3782,"original":3783,"jay":3784,"kaku":3785,"mawa":3786,"ting":3787,"tungt":3788,"##tar":3789,"anal":3790,"##ikm":3791,"##omen":3792,"alatan":3793,"##egan":3794,"ngarasa":3795,"kacida":3796,"usd":3797,"tags":3798,"florida":3799,"hukum":3800,"kot":3801,"##get":3802,"##sk":3803,"##ook":3804,"nuju":3805,"##iden":3806,"int":3807,"##anding":3808,"pangeran":3809,"0005":3810,"komentar":3811,"polish":3812,"titans":3813,"budaya":3814,"tahun":3815,"dinya":3816,"mibanda":3817,"lembur":3818,"bob":3819,"fi":3820,"hur":3821,"log":3822,"mam":3823,"mart":3824,"manuf":3825,"size":3826,"kadua":3827,"proses":3828,"oktober":3829,"cap":3830,"camp":3831,"nam":3832,"namp":3833,"namb":3834,"oct":3835,"pid":3836,"##jah":3837,"##alia":3838,"##unc":3839,"pro":3840,"##tip":3841,"##adiakeun":3842,"##ips":3843,"ngalakukeun":3844,"kacatet":3845,"surab":3846,"proyek":3847,"84":3848,"ii":3849,"nat":3850,"pari":3851,"sisi":3852,"wetan":3853,"##nana":3854,"ane":3855,"##ili":3856,"##olina":3857,"krist":3858,"##press":3859,"blouse":3860,"pribadi":3861,"78":3862,"ev":3863,"juli":3864,"kir":3865,"low":3866,"ner":3867,"next":3868,"soft":3869,"tug":3870,"##bu":3871,"anj":3872,"##iksa":3873,"##entukan":3874,"utamana":3875,"selatan":3876,"pangalusna":3877,"windows":3878,"industri":3879,"86":3880,"liwat":3881,"os":3882,"pup":3883,"pula":3884,"##24":3885,"##75":3886,"prab":3887,"##obal":3888,"##ampak":3889,"##eck":3890,"panal":3891,"app":3892,"eny":3893,"street":3894,"cotton":3895,"3d":3896,"cil":3897,"dengan":3898,"nap":3899,"##uz":3900,"##port":3901,"##bl":3902,"##aban":3903,"##ilah":3904,"##edit":3905,"##uhun":3906,"aturan":3907,"sajarah":3908,"gedena":3909,"filter":3910,"videos":3911,"##aksanakeun":3912,"83":3913,"ati":3914,"cit":3915,"dam":3916,"fir":3917,"gol":3918,"gener":3919,"had":3920,"pit":3921,"word":3922,"##af":3923,"##ko":3924,"##arna":3925,"##aresep":3926,"##ily":3927,"admin":3928,"india":3929,"berk":3930,"##ungkin":3931,"milih":3932,"manggihan":3933,"wikipedia":3934,"buy":3935,"engg":3936,"hij":3937,"itu":3938,"jl":3939,"kembang":3940,"meg":3941,"poh":3942,"pabr":3943,"pondok":3944,"##euy":3945,"diajar":3946,"##itik":3947,"bisnis":3948,"kadag":3949,"boot":3950,"title":3951,"film":3952,"auth":3953,"liang":3954,"suci":3955,"rumah":3956,"kulawarga":3957,"del":3958,"fe":3959,"lima":3960,"paj":3961,"tot":3962,"##io":3963,"##arat":3964,"##urahan":3965,"##ebr":3966,"balong":3967,"surat":3968,"dress":3969,"mangrupakeun":3970,"dma":3971,"gen":3972,"mung":3973,"ningg":3974,"##hat":3975,"##ham":3976,"##14":3977,"##asy":3978,"##ullah":3979,"##entris":3980,"##uguh":3981,"orbit":3982,"phil":3983,"kelas":3984,"##kabataang":3985,"dad":3986,"hi":3987,"##its":3988,"##iter":3989,"##ement":3990,"kabentuk":3991,"stud":3992,"seni":3993,"nabi":3994,"pamakean":3995,"geura":3996,"dmaa":3997,"gum":3998,"heula":3999,"ig":4000,"raya":4001,"tun":4002,"##zz":4003,"##arengan":4004,"##ahon":4005,"##ekan":4006,"##mail":4007,"grup":4008,"sater":4009,"bebentukan":4010,"posted":4011,"global":4012,"ekonomi":4013,"maha":4014,"mind":4015,"nor":4016,"tanda":4017,"##nah":4018,"##win":4019,"##ale":4020,"##ustr":4021,"##asion":4022,"tour":4023,"pamaen":4024,"kating":4025,"ditamb":4026,"nempo":4027,"cn":4028,"cg":4029,"hubungan":4030,"jawab":4031,"lak":4032,"mic":4033,"najan":4034,"pe":4035,"run":4036,"roh":4037,"sis":4038,"ud":4039,"##no":4040,"##ys":4041,"##oka":4042,"nyal":4043,"perd":4044,"##awanoh":4045,"##ations":4046,"muslim":4047,"utara":4048,"dalam":4049,"getih":4050,"tangkal":4051,"kakuatan":4052,"bot":4053,"banj":4054,"dom":4055,"hoyong":4056,"ment":4057,"waw":4058,"##uch":4059,"##ph":4060,"##mark":4061,"##arch":4062,"##isa":4063,"##iling":4064,"##uks":4065,"salila":4066,"##dial":4067,"laut":4068,"2008":4069,"sexy":4070,"tambahan":4071,"mutl":4072,"##unjuk":4073,"bogor":4074,"pulau":4075,"best":4076,"city":4077,"lul":4078,"nd":4079,"sec":4080,"##tikeun":4081,"##omer":4082,"##ongk":4083,"##ova":4084,"##ujeng":4085,"kapten":4086,"review":4087,"pinang":4088,"300":4089,"lib":4090,"ml":4091,"tri":4092,"yam":4093,"##per":4094,"##epan":4095,"distr":4096,"baru":4097,"pangaw":4098,"terbaru":4099,"2009":4100,"kahiji":4101,"tits":4102,"dimana":4103,"pagawe":4104,"##ensina":4105,"sejenna":4106,"enyong":4107,"67":4108,"bank":4109,"final":4110,"gab":4111,"nep":4112,"pah":4113,"sik":4114,"tadi":4115,"##lin":4116,"##ail":4117,"##yb":4118,"##yak":4119,"##65":4120,"##85":4121,"##ars":4122,"##eka":4123,"##epon":4124,"asli":4125,"##trol":4126,"##ujud":4127,"carolina":4128,"##ungkul":4129,"juni":4130,"lianna":4131,"husus":4132,"nganjrek":4133,"martin":4134,"surabaya":4135,"bij":4136,"beubeul":4137,"jud":4138,"live":4139,"nj":4140,"##fe":4141,"##eud":4142,"##urah":4143,"##actur":4144,"ala":4145,"komun":4146,"mobile":4147,"pangalaman":4148,"lengkep":4149,"suppli":4150,"munggaran":4151,"##ografi":4152,"kadagiti":4153,"booty":4154,"beubeulahan":4155,"bol":4156,"cel":4157,"lel":4158,"tomb":4159,"##ye":4160,"##clp":4161,"anti":4162,"ngel":4163,"sari":4164,"inp":4165,"android":4166,"kagi":4167,"##itudo":4168,"manufactur":4169,"61":4170,"95":4171,"bekel":4172,"cib":4173,"dugi":4174,"kek":4175,"nana":4176,"nasional":4177,"puguh":4178,"ubar":4179,"##res":4180,"##eme":4181,"##eksi":4182,"perang":4183,"##trac":4184,"##ipan":4185,"saeutik":4186,"kurang":4187,"ahli":4188,"eksentris":4189,"loka":4190,"magnitudo":4191,"efek":4192,"referensina":4193,"pabrik":4194,"mutlakna":4195,"eksentrisitas":4196,"az":4197,"dani":4198,"hatur":4199,"kut":4200,"mend":4201,"reu":4202,"sung":4203,"##isimal":4204,"##ordial":4205,"##agam":4206,"##ilih":4207,"##ukna":4208,"##antung":4209,"##tied":4210,"##eusi":4211,"term":4212,"umur":4213,"planetisimal":4214,"primordial":4215,"sus":4216,"sud":4217,"tara":4218,"your":4219,"##ulung":4220,"api":4221,"##ition":4222,"time":4223,"baheula":4224,"artist":4225,"##vious":4226,"tulisan":4227,"numclp":4228,"diwangun":4229,"kowen":4230,"kidul":4231,"dul":4232,"dek":4233,"mit":4234,"##ateg":4235,"##ayah":4236,"##ayakeun":4237,"##uler":4238,"disney":4239,"indit":4240,"mpo":4241,"pulo":4242,"pokemon":4243,"dahar":4244,"jelas":4245,"miboga":4246,"naturals":4247,"panalungt":4248,"code":4249,"han":4250,"let":4251,"sri":4252,"yak":4253,"##ke":4254,"##ting":4255,"##ebon":4256,"nyata":4257,"comm":4258,"##uwuh":4259,"sumat":4260,"bagus":4261,"music":4262,"oper":4263,"juta":4264,"89":4265,"db":4266,"pt":4267,"##mat":4268,"##tern":4269,"karti":4270,"##ancis":4271,"ngabal":4272,"sawates":4273,"produksi":4274,"##asilkeun":4275,"daniel":4276,"88":4277,"det":4278,"eusi":4279,"jp":4280,"nut":4281,"##26":4282,"##ku":4283,"##43":4284,"##andar":4285,"acan":4286,"kamar":4287,"ngaronj":4288,"sumping":4289,"##ayanan":4290,"pink":4291,"dicks":4292,"##ontal":4293,"leungit":4294,"author":4295,"klik":4296,"lar":4297,"lin":4298,"lamb":4299,"mor":4300,"nil":4301,"##wang":4302,"##form":4303,"##ange":4304,"##eda":4305,"##etkeun":4306,"##ogaan":4307,"mata":4308,"show":4309,"mekar":4310,"87":4311,"bro":4312,"hog":4313,"meu":4314,"pati":4315,"##lukeun":4316,"##uat":4317,"##ji":4318,"##eroll":4319,"##imum":4320,"freeroll":4321,"meunangkeun":4322,"models":4323,"pendid":4324,"rasul":4325,"langit":4326,"lumangsung":4327,"tidur":4328,"saurang":4329,"kartijah":4330,"81":4331,"tep":4332,"uc":4333,"wel":4334,"women":4335,"##pir":4336,"##yana":4337,"##oni":4338,"##inga":4339,"##angga":4340,"arab":4341,"##uck":4342,"bangb":4343,"##enerna":4344,"anggot":4345,"cartoon":4346,"jelema":4347,"pamarentah":4348,"fant":4349,"jepang":4350,"lir":4351,"pir":4352,"tech":4353,"wates":4354,"##az":4355,"##ekut":4356,"inc":4357,"saukur":4358,"masihan":4359,"pasir":4360,"silih":4361,"sigana":4362,"naked":4363,"mirah":4364,"tangtungan":4365,"geun":4366,"job":4367,"lu":4368,"sug":4369,"##68":4370,"##orong":4371,"##omatis":4372,"manuk":4373,"acc":4374,"stories":4375,"##impen":4376,"82":4377,"hayu":4378,"landa":4379,"lingk":4380,"rak":4381,"saya":4382,"##ler":4383,"##fa":4384,"##ingga":4385,"##osan":4386,"198":4387,"##ities":4388,"##engku":4389,"ngabogaan":4390,"##asha":4391,"##likasi":4392,"omong":4393,"cam":4394,"eu":4395,"lo":4396,"laku":4397,"uga":4398,"##48":4399,"##100":4400,"##atara":4401,"##els":4402,"##osh":4403,"##uma":4404,"masing":4405,"##ally":4406,"komo":4407,"sintr":4408,"perlu":4409,"##ype":4410,"organisasi":4411,"software":4412,"aing":4413,"bit":4414,"bers":4415,"sant":4416,"##yang":4417,"##eras":4418,"##epkeun":4419,"##ection":4420,"maret":4421,"##uanana":4422,"ngarti":4423,"walungan":4424,"##ograp":4425,"samemehna":4426,"saterusna":4427,"bh":4428,"gu":4429,"pih":4430,"syar":4431,"tor":4432,"##27":4433,"##95":4434,"##fat":4435,"##eug":4436,"##ats":4437,"##imon":4438,"##ajib":4439,"panag":4440,"sabenerna":4441,"ngalaman":4442,"pasangg":4443,"oral":4444,"images":4445,"juma":4446,"##engger":4447,"mantuan":4448,"cumshots":4449,"cirebon":4450,"400":4451,"cust":4452,"his":4453,"jack":4454,"jesus":4455,"ps":4456,"wor":4457,"##ilor":4458,"##ule":4459,"asal":4460,"##oci":4461,"pangar":4462,"abd":4463,"sami":4464,"panyekel":4465,"wilujeng":4466,"otomatis":4467,"total":4468,"97":4469,"bok":4470,"cab":4471,"link":4472,"tus":4473,"##ling":4474,"##rid":4475,"##way":4476,"##ania":4477,"##aksi":4478,"kayan":4479,"ngandung":4480,"##itar":4481,"##awat":4482,"nyadiakeun":4483,"##ove":4484,"aku":4485,"pusat":4486,"pikiran":4487,"panalungtikan":4488,"hogtied":4489,"cut":4490,"dri":4491,"km":4492,"reng":4493,"tanj":4494,"##nak":4495,"##wal":4496,"##bul":4497,"##cs":4498,"##ating":4499,"##asis":4500,"inuy":4501,"##eurkeun":4502,"kalurahan":4503,"kamera":4504,"unsur":4505,"agen":4506,"real":4507,"##umpul":4508,"##outh":4509,"sekolah":4510,"##ension":4511,"yamaha":4512,"pasanggiri":4513,"inuyasha":4514,"dv":4515,"goreng":4516,"mari":4517,"more":4518,"qur":4519,"wall":4520,"##28":4521,"##kah":4522,"##cast":4523,"##olan":4524,"nyokot":4525,"arch":4526,"saatos":4527,"agust":4528,"katuhu":4529,"eksekut":4530,"tegal":4531,"ujug":4532,"handjobs":4533,"promosi":4534,"presiden":4535,"fantasy":4536,"kayaning":4537,"beung":4538,"guna":4539,"remp":4540,"sip":4541,"##jid":4542,"##arm":4543,"##erc":4544,"##inter":4545,"##omp":4546,"##upan":4547,"##opa":4548,"ada":4549,"bareng":4550,"195":4551,"dildo":4552,"super":4553,"suck":4554,"71":4555,"austr":4556,"ci":4557,"hay":4558,"how":4559,"kand":4560,"lil":4561,"lina":4562,"mawar":4563,"rape":4564,"ten":4565,"vol":4566,"##eo":4567,"##ret":4568,"kaula":4569,"##agan":4570,"##imah":4571,"##ongs":4572,"blue":4573,"##unda":4574,"saka":4575,"jalur":4576,"stasion":4577,"penc":4578,"class":4579,"subur":4580,"sign":4581,"siga":4582,"##draw":4583,"##emium":4584,"meuli":4585,"hebat":4586,"pendidikan":4587,"beng":4588,"fo":4589,"ft":4590,"fing":4591,"geul":4592,"mangka":4593,"nit":4594,"name":4595,"wah":4596,"##isna":4597,"ali":4598,"##tions":4599,"add":4600,"kareta":4601,"ngajadikeun":4602,"suku":4603,"putri":4604,"file":4605,"##udio":4606,"semalt":4607,"nembongkeun":4608,"tumuwuh":4609,"couple":4610,"jiwa":4611,"lingkungan":4612,"juj":4613,"law":4614,"rap":4615,"wed":4616,"##ner":4617,"##35":4618,"##97":4619,"##ush":4620,"##iman":4621,"##oko":4622,"kasemp":4623,"perusahaan":4624,"naek":4625,"conta":4626,"ngarobah":4627,"babaturan":4628,"titik":4629,"digimon":4630,"previous":4631,"tugas":4632,"kanj":4633,"nik":4634,"sens":4635,"##uari":4636,"##ven":4637,"##ban":4638,"##alog":4639,"##ero":4640,"##amin":4641,"##ley":4642,"spes":4643,"apal":4644,"cons":4645,"withdraw":4646,"oleh":4647,"januari":4648,"beureum":4649,"##istrik":4650,"market":4651,"ladyb":4652,"ninggalkeun":4653,"ladyboys":4654,"listrik":4655,"pun":4656,"raj":4657,"tw":4658,"##ning":4659,"##ui":4660,"##tak":4661,"##con":4662,"pernah":4663,"latino":4664,"harti":4665,"php":4666,"supl":4667,"manaj":4668,"pausahaan":4669,"scon":4670,"mixer":4671,"kasempetan":4672,"94":4673,"nop":4674,"pic":4675,"ratna":4676,"##go":4677,"##gr":4678,"##2000":4679,"##arasi":4680,"##akit":4681,"##ajikan":4682,"thro":4683,"kasus":4684,"aplikasi":4685,"digital":4686,"ekstrak":4687,"nurutkeun":4688,"##hareup":4689,"cocog":4690,"cardinal":4691,"wager":4692,"sumatra":4693,"beh":4694,"ded":4695,"fungsi":4696,"gand":4697,"kum":4698,"kaki":4699,"mumb":4700,"ns":4701,"##cse":4702,"##erang":4703,"ngir":4704,"##tayo":4705,"##otide":4706,"##aca":4707,"perancis":4708,"sakali":4709,"sae":4710,"dipingpin":4711,"server":4712,"pengg":4713,"##clotide":4714,"ngamimitian":4715,"instit":4716,"linaclotide":4717,"fat":4718,"gur":4719,"ia":4720,"pow":4721,"rem":4722,"york":4723,"##je":4724,"##adah":4725,"##tai":4726,"##ulasi":4727,"inv":4728,"kuala":4729,"##ihat":4730,"##antik":4731,"##ublik":4732,"spec":4733,"sakitu":4734,"pamajikan":4735,"pasukan":4736,"awal":4737,"extrac":4738,"bandar":4739,"##eez":4740,"webs":4741,"cicing":4742,"perdana":4743,"duanana":4744,"light":4745,"rm":4746,"rag":4747,"##hanc":4748,"##der":4749,"##aler":4750,"##eral":4751,"##amel":4752,"##ette":4753,"##eks":4754,"##ebru":4755,"##rib":4756,"salwar":4757,"spank":4758,"shirt":4759,"plat":4760,"dirina":4761,"lagi":4762,"ide":4763,"wangun":4764,"january":4765,"mangrupikeun":4766,"contoh":4767,"wordpress":4768,"fingering":4769,"##ebruari":4770,"cian":4771,"ht":4772,"hit":4773,"muk":4774,"mungkin":4775,"rad":4776,"til":4777,"##sex":4778,"##pasar":4779,"##64":4780,"sailor":4781,"conto":4782,"2007":4783,"##alankeun":4784,"ngaranna":4785,"purw":4786,"memang":4787,"teknologi":4788,"ama":4789,"b00":4790,"bangk":4791,"hia":4792,"if":4793,"keng":4794,"laju":4795,"mab":4796,"muka":4797,"ping":4798,"rid":4799,"sand":4800,"tik":4801,"yo":4802,"##ria":4803,"##39":4804,"##ngk":4805,"##akon":4806,"dia":4807,"ngak":4808,"##eter":4809,"##ehatan":4810,"##awasna":4811,"##obaan":4812,"##opea":4813,"kalah":4814,"abah":4815,"150":4816,"sateu":4817,"buka":4818,"##illa":4819,"ngahubungan":4820,"kerja":4821,"kopral":4822,"universitas":4823,"prabu":4824,"kagiatan":4825,"cianj":4826,"back":4827,"bumbu":4828,"cac":4829,"jengger":4830,"len":4831,"luk":4832,"lol":4833,"numb":4834,"pip":4835,"tahan":4836,"##ht":4837,"##bc":4838,"##bang":4839,"##aram":4840,"##iness":4841,"##iss":4842,"##ote":4843,"##upi":4844,"##ogi":4845,"##anjang":4846,"##uyu":4847,"peny":4848,"sajati":4849,"door":4850,"possib":4851,"denpasar":4852,"ratu":4853,"komputer":4854,"wanita":4855,"istilah":4856,"nangtung":4857,"kartu":4858,"nanaon":4859,"jumaah":4860,"nopember":4861,"cip":4862,"jus":4863,"kod":4864,"##wood":4865,"##xl":4866,"##eunt":4867,"##irkeun":4868,"##obana":4869,"##udang":4870,"197":4871,"comb":4872,"##ersey":4873,"tex":4874,"##thal":4875,"seri":4876,"##ments":4877,"auto":4878,"product":4879,"perkara":4880,"dbz":4881,"geuning":4882,"bik":4883,"hat":4884,"lump":4885,"leres":4886,"oh":4887,"son":4888,"tentang":4889,"##lus":4890,"##sel":4891,"##oja":4892,"##tim":4893,"##mm":4894,"##37":4895,"##67":4896,"##atu":4897,"dianggap":4898,"ngid":4899,"##taw":4900,"##ajah":4901,"nyamb":4902,"##act":4903,"##ube":4904,"latest":4905,"pasang":4906,"abad":4907,"phthal":4908,"##euman":4909,"categ":4910,"juice":4911,"john":4912,"kepala":4913,"old":4914,"##spot":4915,"jagat":4916,"##ftar":4917,"jurusan":4918,"mumbai":4919,"hib":4920,"nus":4921,"nich":4922,"pek":4923,"pind":4924,"##ced":4925,"diy":4926,"##urn":4927,"##ots":4928,"asalna":4929,"kasal":4930,"karasa":4931,"kameez":4932,"about":4933,"siap":4934,"##ther":4935,"aki":4936,"akh":4937,"rea":4938,"##eries":4939,"babarengan":4940,"patali":4941,"dimension":4942,"lesbians":4943,"dayeuh":4944,"travel":4945,"center":4946,"lounder":4947,"first":4948,"tanjung":4949,"possible":4950,"299":4951,"bun":4952,"dh":4953,"daya":4954,"geg":4955,"lrb":4956,"pics":4957,"rrb":4958,"sew":4959,"yayan":4960,"##luk":4961,"##asang":4962,"##onos":4963,"##urs":4964,"##abat":4965,"##oman":4966,"##uhkeun":4967,"##entara":4968,"##okan":4969,"##ampahan":4970,"##igawe":4971,"kasebut":4972,"salawasna":4973,"##uble":4974,"##raz":4975,"search":4976,"conton":4977,"plug":4978,"##eukeut":4979,"ngahontal":4980,"angin":4981,"dimimitian":4982,"sawatara":4983,"antarana":4984,"ngawengku":4985,"##unten":4986,"dalem":4987,"printing":4988,"tradisi":4989,"lucu":4990,"rempah":4991,"geulis":4992,"bin":4993,"bengk":4994,"bentuk":4995,"gat":4996,"ice":4997,"##kuring":4998,"##men":4999,"##ds":5000,"##area":5001,"ngant":5002,"##ited":5003,"##unkeun":5004,"##ility":5005,"##iding":5006,"panungt":5007,"park":5008,"ditar":5009,"elec":5010,"umat":5011,"putih":5012,"walanda":5013,"jatn":5014,"endah":5015,"fitur":5016,"kanyataan":5017,"bangbros":5018,"phthalate":5019,"96":5020,"aa":5021,"bib":5022,"dang":5023,"hari":5024,"say":5025,"sapi":5026,"tangan":5027,"##ged":5028,"##lu":5029,"##ras":5030,"##rik":5031,"##me":5032,"##bi":5033,"##abataan":5034,"mani":5035,"##ugu":5036,"indung":5037,"isuk":5038,"malang":5039,"ngahasilkeun":5040,"moon":5041,"reply":5042,"solo":5043,"green":5044,"katingal":5045,"dulur":5046,"agustus":5047,"contact":5048,"kenging":5049,"jatnika":5050,"biji":5051,"est":5052,"hap":5053,"hea":5054,"keun":5055,"nulis":5056,"national":5057,"satan":5058,"south":5059,"taw":5060,"yu":5061,"yesus":5062,"##han":5063,"##vy":5064,"##awi":5065,"nyawa":5066,"pangh":5067,"karo":5068,"mai":5069,"lauk":5070,"penj":5071,"##ology":5072,"sastra":5073,"simkuring":5074,"transsex":5075,"transsexual":5076,"baj":5077,"emp":5078,"email":5079,"ho":5080,"kuk":5081,"nunjuk":5082,"olah":5083,"raga":5084,"sent":5085,"tol":5086,"wungkul":5087,"##din":5088,"##alaya":5089,"##aster":5090,"##edi":5091,"##udeureun":5092,"asp":5093,"kasampak":5094,"maning":5095,"##och":5096,"index":5097,"katut":5098,"must":5099,"##ingkatkeun":5100,"numutkeun":5101,"tujuh":5102,"maksud":5103,"jayeng":5104,"mindeng":5105,"pangaruh":5106,"eksekutip":5107,"extractor":5108,"contona":5109,"gaya":5110,"hasan":5111,"jersey":5112,"laga":5113,"mori":5114,"nama":5115,"rac":5116,"taj":5117,"##ren":5118,"##mad":5119,"##itung":5120,"##ope":5121,"perj":5122,"kata":5123,"kadang":5124,"brand":5125,"2005":5126,"box":5127,"lalampahan":5128,"supaya":5129,"padahal":5130,"photo":5131,"##ojong":5132,"lokal":5133,"denmark":5134,"dipikawanoh":5135,"##abalin":5136,"bokep":5137,"bos":5138,"bea":5139,"dak":5140,"haw":5141,"long":5142,"lyr":5143,"nel":5144,"over":5145,"port":5146,"tembang":5147,"tunggal":5148,"wujud":5149,"##lang":5150,"##29":5151,"##kake":5152,"##mak":5153,"##akas":5154,"##akonan":5155,"ngembang":5156,"##aduhan":5157,"2000":5158,"tih":5159,"tht":5160,"##ohan":5161,"mangpa":5162,"chr":5163,"stat":5164,"shi":5165,"##anca":5166,"##istan":5167,"plast":5168,"kado":5169,"def":5170,"bukkake":5171,"kahayang":5172,"0010":5173,"penghanc":5174,"##omba":5175,"##usiah":5176,"telepon":5177,"euro":5178,"solusi":5179,"blogspot":5180,"sloto":5181,"english":5182,"profesi":5183,"dongeng":5184,"jenis":5185,"bijian":5186,"penggiling":5187,"penghancur":5188,"bap":5189,"bek":5190,"jemb":5191,"kok":5192,"lt":5193,"land":5194,"vis":5195,"wir":5196,"##day":5197,"##euw":5198,"##erv":5199,"##asakeun":5200,"##aming":5201,"diter":5202,"##ades":5203,"##ilik":5204,"##illah":5205,"##emat":5206,"##ukarkeun":5207,"##ebook":5208,"panang":5209,"bisi":5210,"sieun":5211,"carana":5212,"ngagaduhan":5213,"ngajaga":5214,"sato":5215,"menit":5216,"padang":5217,"jaguar":5218,"inget":5219,"tips":5220,"students":5221,"pangaweruh":5222,"australia":5223,"sateuacan":5224,"beu":5225,"kert":5226,"lub":5227,"moh":5228,"pc":5229,"por":5230,"pab":5231,"sour":5232,"usa":5233,"##ags":5234,"##ets":5235,"##olas":5236,"##ekat":5237,"nyarios":5238,"alesan":5239,"asia":5240,"matane":5241,"sabudeureun":5242,"##ambarkeun":5243,"char":5244,"##itional":5245,"ampir":5246,"##indung":5247,"ngarah":5248,"imam":5249,"dibut":5250,"dibere":5251,"saprak":5252,"depart":5253,"##aksana":5254,"info":5255,"cashout":5256,"nyarita":5257,"kosong":5258,"north":5259,"sungai":5260,"ngabalukarkeun":5261,"jpg":5262,"withdrawal":5263,"website":5264,"number":5265,"98":5266,"bec":5267,"cag":5268,"ec":5269,"gas":5270,"gro":5271,"hanj":5272,"haji":5273,"jin":5274,"jul":5275,"jiga":5276,"kara":5277,"mund":5278,"neng":5279,"ujang":5280,"##gg":5281,"##au":5282,"##yat":5283,"##euneu":5284,"##add":5285,"##ulette":5286,"##ekna":5287,"sarat":5288,"##iano":5289,"disc":5290,"geusan":5291,"maot":5292,"##amanan":5293,"daftar":5294,"baguhan":5295,"taneuh":5296,"batre":5297,"milu":5298,"artic":5299,"double":5300,"hotel":5301,"engke":5302,"baik":5303,"avail":5304,"gagasan":5305,"percaya":5306,"ngadegkeun":5307,"pajajaran":5308,"tomboy":5309,"sintren":5310,"tusing":5311,"html":5312,"93":5313,"dur":5314,"full":5315,"jas":5316,"kamb":5317,"kula":5318,"key":5319,"list":5320,"mol":5321,"ramat":5322,"sayang":5323,"tepi":5324,"ye":5325,"ال":5326,"##ii":5327,"##uu":5328,"##ym":5329,"##br":5330,"##cul":5331,"##zon":5332,"##fir":5333,"##aning":5334,"##inasi":5335,"##iko":5336,"##elli":5337,"##ehat":5338,"sarah":5339,"##inding":5340,"110":5341,"forum":5342,"##ision":5343,"menta":5344,"ulama":5345,"pulsa":5346,"sku":5347,"sampurna":5348,"galleries":5349,"kimonos":5350,"kayu":5351,"jaringan":5352,"casino":5353,"piec":5354,"album":5355,"aksara":5356,"8th":5357,"host":5358,"jati":5359,"ningkatkeun":5360,"peg":5361,"pangk":5362,"ri":5363,"simb":5364,"tand":5365,"vit":5366,"##ox":5367,"##erangan":5368,"##inos":5369,"##akuan":5370,"##uruk":5371,"##use":5372,"##edik":5373,"tiff":5374,"##antu":5375,"##egori":5376,"main":5377,"apan":5378,"deep":5379,"##stem":5380,"2006":5381,"warga":5382,"##umpulan":5383,"##tures":5384,"walon":5385,"##tory":5386,"catetan":5387,"narima":5388,"deck":5389,"lahir":5390,"fix":5391,"young":5392,"tiffany":5393,"91":5394,"bola":5395,"cover":5396,"jak":5397,"jobs":5398,"mid":5399,"pebruari":5400,"rusiah":5401,"##va":5402,"##rad":5403,"##rent":5404,"##fer":5405,"dios":5406,"##itakeun":5407,"##itual":5408,"##ely":5409,"##osa":5410,"premium":5411,"nyer":5412,"##owok":5413,"kasehatan":5414,"unik":5415,"parab":5416,"kapal":5417,"konci":5418,"iman":5419,"ngajalankeun":5420,"resmi":5421,"system":5422,"maysa":5423,"pikir":5424,"eropa":5425,"kowe":5426,"tapak":5427,"october":5428,"ngaronjatkeun":5429,"kasalahan":5430,"aff":5431,"hil":5432,"hum":5433,"layanan":5434,"memb":5435,"meta":5436,"maju":5437,"rj":5438,"radi":5439,"tir":5440,"vir":5441,"wani":5442,"##he":5443,"##arti":5444,"##atang":5445,"##uruan":5446,"ngin":5447,"##iks":5448,"##ores":5449,"##ehan":5450,"##obat":5451,"asih":5452,"pery":5453,"##anggu":5454,"sale":5455,"salian":5456,"##enda":5457,"masyar":5458,"stock":5459,"dev":5460,"image":5461,"dibawa":5462,"ngadenge":5463,"exe":5464,"teken":5465,"ulang":5466,"ngawangun":5467,"##encana":5468,"basis":5469,"profes":5470,"roulette":5471,"naskah":5472,"diperlukeun":5473,"fakta":5474,"tunai":5475,"banjir":5476,"komunikasi":5477,"satanas":5478,"profesional":5479,"gold":5480,"hitu":5481,"jab":5482,"loc":5483,"roj":5484,"seg":5485,"var":5486,"##loka":5487,"##so":5488,"##sb":5489,"##23":5490,"##ring":5491,"##ric":5492,"##08":5493,"##cang":5494,"##arep":5495,"##alani":5496,"##tay":5497,"##elah":5498,"##elek":5499,"prot":5500,"sakuli":5501,"kategori":5502,"ent":5503,"parent":5504,"kapan":5505,"awakna":5506,"berita":5507,"usum":5508,"good":5509,"ahir":5510,"darma":5511,"garut":5512,"perlis":5513,"populer":5514,"tamil":5515,"tembongkeun":5516,"publik":5517,"techn":5518,"panungtungan":5519,"dibutyl":5520,"ramatloka":5521,"peryogi":5522,"sakuliah":5523,"cd":5524,"cangk":5525,"hind":5526,"lim":5527,"mangk":5528,"roy":5529,"saan":5530,"tuan":5531,"via":5532,"were":5533,"yus":5534,"##nan":5535,"##las":5536,"##set":5537,"##rus":5538,"##que":5539,"##ст":5540,"ann":5541,"##uluh":5542,"##0000":5543,"##artos":5544,"##ipt":5545,"sabaraha":5546,"daily":5547,"ener":5548,"parusahaan":5549,"awi":5550,"upama":5551,"sliding":5552,"have":5553,"##ollow":5554,"doors":5555,"dagang":5556,"gampong":5557,"florist":5558,"korea":5559,"beurat":5560,"benz":5561,"movies":5562,"ditambah":5563,"yakin":5564,"bing":5565,"bre":5566,"cu":5567,"ceu":5568,"calan":5569,"der":5570,"hom":5571,"mama":5572,"pangan":5573,"pake":5574,"pint":5575,"semp":5576,"tema":5577,"weruh":5578,"##oi":5579,"##pal":5580,"##yh":5581,"##jong":5582,"##for":5583,"##aris":5584,"##aksa":5585,"##ikna":5586,"##abataang":5587,"##apat":5588,"##eph":5589,"nyat":5590,"##etail":5591,"mass":5592,"conn":5593,"ayat":5594,"##ives":5595,"##ste":5596,"##umbaan":5597,"##alanan":5598,"pilih":5599,"beli":5600,"ibadah":5601,"kakaw":5602,"tambah":5603,"datangna":5604,"perlumbaan":5605,"facebook":5606,"width":5607,"##iriman":5608,"##ulloh":5609,"designer":5610,"martinelli":5611,"manajemen":5612,"kertas":5613,"masyarakat":5614,"aug":5615,"ham":5616,"lengan":5617,"meh":5618,"##ster":5619,"##49":5620,"##77":5621,"##ano":5622,"##asta":5623,"diantara":5624,"##usive":5625,"##abi":5626,"##uts":5627,"princ":5628,"##oke":5629,"##ebar":5630,"##ebat":5631,"##ogy":5632,"thongs":5633,"salajeng":5634,"urusan":5635,"##rain":5636,"march":5637,"kamamp":5638,"latihan":5639,"trus":5640,"##ivid":5641,"sawar":5642,"teks":5643,"dewasa":5644,"metal":5645,"dijalani":5646,"keto":5647,"peter":5648,"ujian":5649,"views":5650,"supplier":5651,"rengse":5652,"lyrics":5653,"salajengna":5654,"dinan":5655,"gi":5656,"hadi":5657,"hawa":5658,"hese":5659,"je":5660,"las":5661,"nad":5662,"ray":5663,"##oor":5664,"##rag":5665,"##rol":5666,"##angt":5667,"##ening":5668,"##enian":5669,"##abah":5670,"##ektr":5671,"##ico":5672,"##antje":5673,"##ampah":5674,"perm":5675,"arah":5676,"disk":5677,"dist":5678,"pangl":5679,"ngalaksanakeun":5680,"katr":5681,"0009":5682,"imag":5683,"umah":5684,"digawe":5685,"##ture":5686,"ulun":5687,"puluh":5688,"strateg":5689,"##ache":5690,"jerman":5691,"internasional":5692,"cerita":5693,"lega":5694,"tidak":5695,"judul":5696,"rojongan":5697,"aja":5698,"cop":5699,"don":5700,"fuck":5701,"gig":5702,"hol":5703,"hamb":5704,"jeh":5705,"rent":5706,"rama":5707,"ton":5708,"tod":5709,"vantje":5710,"##iah":5711,"##tina":5712,"##ving":5713,"##ram":5714,"##rew":5715,"##mar":5716,"##fil":5717,"##aring":5718,"##asih":5719,"ngob":5720,"##ulo":5721,"##apor":5722,"##ehkeun":5723,"perma":5724,"check":5725,"malay":5726,"kaper":5727,"ditulis":5728,"akun":5729,"biografi":5730,"bahru":5731,"##impi":5732,"puseur":5733,"##clusive":5734,"porno":5735,"wilayah":5736,"bulu":5737,"rosul":5738,"nyanghareup":5739,"tingali":5740,"tungtung":5741,"rasulullah":5742,"nicholas":5743,"age":5744,"bor":5745,"cep":5746,"nom":5747,"ret":5748,"ruj":5749,"rock":5750,"wp":5751,"wayang":5752,"##son":5753,"##rasi":5754,"##46":5755,"##wi":5756,"##bs":5757,"##amata":5758,"##uku":5759,"##omat":5760,"##riend":5761,"##ewek":5762,"adu":5763,"##read":5764,"atau":5765,"ngarojong":5766,"satengah":5767,"book":5768,"##aksud":5769,"##ween":5770,"samping":5771,"khus":5772,"##baik":5773,"products":5774,"university":5775,"tasikm":5776,"foot":5777,"plugin":5778,"mangpaat":5779,"tasikmalaya":5780,"bint":5781,"boys":5782,"dug":5783,"fabr":5784,"juw":5785,"kuna":5786,"los":5787,"paka":5788,"rs":5789,"vari":5790,"wr":5791,"will":5792,"##ior":5793,"##air":5794,"##ps":5795,"##aro":5796,"##ater":5797,"##erry":5798,"##asals":5799,"ngul":5800,"ngayakeun":5801,"##agang":5802,"##elaskeun":5803,"##andang":5804,"##oku":5805,"materi":5806,"adda":5807,"save":5808,"terbaik":5809,"standar":5810,"sho":5811,"katilu":5812,"turunan":5813,"forex":5814,"read":5815,"modern":5816,"ahirna":5817,"sajab":5818,"##akses":5819,"kelly":5820,"novel":5821,"inform":5822,"kakara":5823,"butts":5824,"business":5825,"wagering":5826,"layer":5827,"lemah":5828,"baca":5829,"institute":5830,"auto2000":5831,"##razil":5832,"christ":5833,"bentang":5834,"call":5835,"coba":5836,"ciri":5837,"dupi":5838,"dinding":5839,"hub":5840,"jaw":5841,"qual":5842,"send":5843,"sangs":5844,"tes":5845,"wib":5846,"##gana":5847,"##sn":5848,"##ux":5849,"##bab":5850,"##ball":5851,"##cm":5852,"##fl":5853,"##fs":5854,"##ск":5855,"##akter":5856,"nganc":5857,"##adem":5858,"##ollo":5859,"tib":5860,"tipl":5861,"##anto":5862,"nyong":5863,"##oda":5864,"##oduc":5865,"url":5866,"jalmi":5867,"indah":5868,"##anci":5869,"mala":5870,"akang":5871,"2001":5872,"direk":5873,"dewi":5874,"dunia":5875,"eureun":5876,"##play":5877,"swasta":5878,"cpns":5879,"expert":5880,"hanging":5881,"omonge":5882,"nunjukkeun":5883,"katresna":5884,"tipling":5885,"92":5886,"dog":5887,"eus":5888,"gay":5889,"god":5890,"heu":5891,"keu":5892,"mga":5893,"pom":5894,"pac":5895,"pasi":5896,"##ken":5897,"##tg":5898,"##42":5899,"##asah":5900,"ngatur":5901,"##apt":5902,"##osna":5903,"##eungit":5904,"##epr":5905,"tiis":5906,"##aci":5907,"nyai":5908,"story":5909,"ngala":5910,"amin":5911,"amor":5912,"sej":5913,"##inton":5914,"tresna":5915,"##estasi":5916,"bukan":5917,"kahwin":5918,"##ashion":5919,"frag":5920,"sadia":5921,"tempo":5922,"milarian":5923,"sawah":5924,"wear":5925,"disebutkeun":5926,"basajan":5927,"between":5928,"muter":5929,"langu":5930,"##ababkeun":5931,"cocks":5932,"nempatkeun":5933,"banarasi":5934,"administr":5935,"enggeus":5936,"pohara":5937,"nilai":5938,"pihak":5939,"hayam":5940,"cardinals":5941,"cianjur":5942,"pindah":5943,"##iptakeun":5944,"##asalsal":5945,"audio":5946,"cre":5947,"flo":5948,"hulu":5949,"pk":5950,"papan":5951,"ts":5952,"test":5953,"type":5954,"##ld":5955,"##tan":5956,"##pi":5957,"##yal":5958,"##32":5959,"diangkat":5960,"ngumpul":5961,"##adan":5962,"##tag":5963,"##ements":5964,"##uty":5965,"##omot":5966,"##oker":5967,"##ogikeun":5968,"area":5969,"kabi":5970,"adi":5971,"sakad":5972,"individ":5973,"##empo":5974,"mastikeun":5975,"apollo":5976,"teach":5977,"hard":5978,"##ujan":5979,"##euli":5980,"awan":5981,"kitab":5982,"buana":5983,"sajaba":5984,"dewan":5985,"##ologis":5986,"espir":5987,"pikaresep":5988,"papada":5989,"transp":5990,"pendek":5991,"##amateur":5992,"lebah":5993,"layar":5994,"kotak":5995,"manufacturer":5996,"abdul":5997,"ltd":5998,"source":5999,"juwer":6000,"cak":6001,"cache":6002,"fot":6003,"hous":6004,"kli":6005,"lep":6006,"lif":6007,"mr":6008,"nan":6009,"pill":6010,"tamp":6011,"##less":6012,"##tp":6013,"##por":6014,"##pap":6015,"##back":6016,"dianggo":6017,"##agian":6018,"##ungu":6019,"##eto":6020,"##ety":6021,"##ekarkeun":6022,"##opedia":6023,"peri":6024,"sifat":6025,"##uwuhan":6026,"awake":6027,"ngadamel":6028,"latins":6029,"page":6030,"pokna":6031,"galuh":6032,"import":6033,"beurang":6034,"natural":6035,"daptar":6036,"bubuk":6037,"##andingkeun":6038,"distro":6039,"pagawean":6040,"group":6041,"available":6042,"jehova":6043,"dada":6044,"febr":6045,"hel":6046,"langg":6047,"laka":6048,"ongk":6049,"tinta":6050,"yogy":6051,"##ses":6052,"##ho":6053,"##aing":6054,"##met":6055,"##wana":6056,"##erk":6057,"##iny":6058,"##ahar":6059,"##eund":6060,"##urus":6061,"ngent":6062,"##unya":6063,"##orit":6064,"##orial":6065,"##ede":6066,"##oles":6067,"kuya":6068,"tiap":6069,"##ebu":6070,"adam":6071,"dipigawe":6072,"start":6073,"##ches":6074,"##ersa":6075,"ngarasakeun":6076,"plus":6077,"satu":6078,"250":6079,"##ormat":6080,"dilakukeun":6081,"##imbang":6082,"pilem":6083,"metro":6084,"mulang":6085,"lead":6086,"tutungg":6087,"after":6088,"tipe":6089,"publish":6090,"philips":6091,"##casting":6092,"february":6093,"yogyakarta":6094,"duw":6095,"follow":6096,"gub":6097,"kre":6098,"lou":6099,"liter":6100,"mamp":6101,"nen":6102,"sina":6103,"seuneu":6104,"tungg":6105,"vic":6106,"##ium":6107,"##sc":6108,"##ael":6109,"##ef":6110,"##mer":6111,"##arn":6112,"##alana":6113,"##urat":6114,"ngap":6115,"##isis":6116,"##ike":6117,"##adir":6118,"##uktur":6119,"nyet":6120,"##ege":6121,"##ampura":6122,"##ters":6123,"pannak":6124,"urut":6125,"arg":6126,"##ohor":6127,"saiki":6128,"cherry":6129,"0008":6130,"##ideo":6131,"##order":6132,"murid":6133,"geor":6134,"diropea":6135,"meja":6136,"mulih":6137,"puisi":6138,"republik":6139,"mayar":6140,"maximum":6141,"international":6142,"iraha":6143,"rahayat":6144,"handapeun":6145,"##door":6146,"tinggal":6147,"jatid":6148,"color":6149,"ngurangan":6150,"akses":6151,"anjog":6152,"lulus":6153,"lirik":6154,"syarat":6155,"dvd":6156,"nusantara":6157,"euy":6158,"fashion":6159,"gug":6160,"hall":6161,"hujan":6162,"ih":6163,"luyu":6164,"nul":6165,"nanya":6166,"pep":6167,"ren":6168,"##nik":6169,"##ves":6170,"##vey":6171,"##3d":6172,"##erta":6173,"##inya":6174,"div":6175,"##onic":6176,"ngaku":6177,"prak":6178,"priv":6179,"##uhna":6180,"##araan":6181,"nyan":6182,"##tive":6183,"asep":6184,"aria":6185,"manag":6186,"adat":6187,"adab":6188,"ados":6189,"atas":6190,"sakay":6191,"ngalakonan":6192,"pamad":6193,"unc":6194,"amparan":6195,"ageung":6196,"##alif":6197,"ngagambarkeun":6198,"ngajak":6199,"##eyel":6200,"satria":6201,"produs":6202,"##asts":6203,"##ungkinan":6204,"batang":6205,"buil":6206,"dilaksanakeun":6207,"##ards":6208,"sci":6209,"educ":6210,"pusaka":6211,"which":6212,"tagged":6213,"kebon":6214,"widang":6215,"training":6216,"mikir":6217,"pembuang":6218,"sirah":6219,"wisata":6220,"heboh":6221,"dokter":6222,"nampi":6223,"lensa":6224,"olahr":6225,"tihang":6226,"nyanghareupan":6227,"jo":6228,"kej":6229,"lis":6230,"##iar":6231,"##sih":6232,"##hk":6233,"##58":6234,"##mahal":6235,"##36":6236,"##araja":6237,"##alang":6238,"##alig":6239,"##erja":6240,"dial":6241,"diant":6242,"##aboh":6243,"##ukul":6244,"alas":6245,"##arankeun":6246,"##ubur":6247,"manual":6248,"##ersh":6249,"awet":6250,"kita":6251,"seragam":6252,"elektr":6253,"##ific":6254,"##exclusive":6255,"kiye":6256,"animation":6257,"##ency":6258,"sinyal":6259,"robot":6260,"december":6261,"madrid":6262,"under":6263,"dosa":6264,"parib":6265,"rohangan":6266,"sugan":6267,"tajmahal":6268,"perjalanan":6269,"distance":6270,"kabiasaan":6271,"olahraga":6272,"awa":6273,"cad":6274,"ceur":6275,"cint":6276,"gm":6277,"heubeul":6278,"ic":6279,"ilah":6280,"iwal":6281,"jah":6282,"kend":6283,"kumpulan":6284,"leng":6285,"lawang":6286,"meun":6287,"masa":6288,"od":6289,"pengk":6290,"reus":6291,"win":6292,"yun":6293,"##sar":6294,"##tle":6295,"##pot":6296,"##date":6297,"##dahon":6298,"##by":6299,"##caya":6300,"##atas":6301,"ding":6302,"ngem":6303,"##iskeun":6304,"##ele":6305,"##ayung":6306,"##eku":6307,"##awak":6308,"proc":6309,"nyeri":6310,"nyiptakeun":6311,"asyan":6312,"panar":6313,"##ews":6314,"##uba":6315,"studi":6316,"pamingpin":6317,"##itif":6318,"ampang":6319,"agus":6320,"katun":6321,"##uju":6322,"##anja":6323,"kond":6324,"singap":6325,"cook":6326,"##eneran":6327,"optr":6328,"subang":6329,"height":6330,"##alikna":6331,"lokasi":6332,"airport":6333,"konsumen":6334,"june":6335,"seuri":6336,"pedah":6337,"meulaboh":6338,"micros":6339,"malayalam":6340,"rujukan":6341,"pikaresepeun":6342,"cos":6343,"cand":6344,"deung":6345,"found":6346,"food":6347,"hant":6348,"jej":6349,"nami":6350,"pack":6351,"rot":6352,"sib":6353,"sind":6354,"tmp":6355,"##sik":6356,"##kop":6357,"##ted":6358,"##pol":6359,"##1b":6360,"##aren":6361,"##aton":6362,"kadi":6363,"ngor":6364,"ngirim":6365,"##ado":6366,"##ilar":6367,"##elat":6368,"##eling":6369,"##ulang":6370,"##etakan":6371,"##uhur":6372,"kalim":6373,"mati":6374,"manah":6375,"##endah":6376,"saeni":6377,"##empr":6378,"short":6379,"leump":6380,"sering":6381,"akan":6382,"##ungkas":6383,"##extra":6384,"##oriz":6385,"kecil":6386,"butt":6387,"tutuwuhan":6388,"lembaga":6389,"dapat":6390,"collection":6391,"hurip":6392,"apple":6393,"igcse":6394,"customer":6395,"drive":6396,"parabot":6397,"jatidiri":6398,"beg":6399,"dasa":6400,"fis":6401,"gon":6402,"gap":6403,"guy":6404,"kil":6405,"lon":6406,"neul":6407,"other":6408,"rut":6409,"rata":6410,"soc":6411,"west":6412,"wanci":6413,"##lina":6414,"##56":6415,"##oons":6416,"##val":6417,"##pm":6418,"##rang":6419,"##mina":6420,"##murah":6421,"##akal":6422,"##ams":6423,"anc":6424,"##ete":6425,"##idah":6426,"##otato":6427,"kub":6428,"##sional":6429,"kabel":6430,"sabalikna":6431,"spe":6432,"sakur":6433,"##oven":6434,"cho":6435,"pass":6436,"kaput":6437,"forced":6438,"##engka":6439,"##uarkeun":6440,"140":6441,"sapop":6442,"##ormal":6443,"patar":6444,"buat":6445,"sukma":6446,"beja":6447,"##imbangan":6448,"head":6449,"james":6450,"mutuskeun":6451,"majalah":6452,"herbal":6453,"maenkeun":6454,"koin":6455,"##table":6456,"##isme":6457,"rusia":6458,"dahareun":6459,"archives":6460,"lolobana":6461,"august":6462,"ai":6463,"aud":6464,"batan":6465,"bungk":6466,"beunang":6467,"cell":6468,"dol":6469,"jig":6470,"jib":6471,"mih":6472,"mich":6473,"nomer":6474,"our":6475,"sq":6476,"teb":6477,"uang":6478,"va":6479,"##vc":6480,"##wat":6481,"##du":6482,"##aruhan":6483,"##alina":6484,"##ered":6485,"##aharan":6486,"any":6487,"ngr":6488,"##itina":6489,"##uning":6490,"##ungs":6491,"##ument":6492,"##uke":6493,"##ants":6494,"nyamp":6495,"##arane":6496,"than":6497,"##try":6498,"chu":6499,"island":6500,"##inder":6501,"paris":6502,"ditut":6503,"turki":6504,"serd":6505,"akar":6506,"rev":6507,"sahingga":6508,"ngaji":6509,"bukti":6510,"mene":6511,"medan":6512,"flash":6513,"drama":6514,"nark":6515,"wholes":6516,"##asupkeun":6517,"afr":6518,"tamu":6519,"lengkah":6520,"wanoja":6521,"##tivitas":6522,"lemes":6523,"know":6524,"nawarkeun":6525,"natal":6526,"jujur":6527,"tradisional":6528,"##makeup":6529,"radio":6530,"fabric":6531,"sajabana":6532,"bum":6533,"banten":6534,"cul":6535,"cantik":6536,"duh":6537,"duka":6538,"got":6539,"great":6540,"jog":6541,"lemp":6542,"mc":6543,"most":6544,"uw":6545,"well":6546,"##lak":6547,"##hone":6548,"##57":6549,"##bay":6550,"##eny":6551,"##amis":6552,"##uruh":6553,"##esa":6554,"##eskeun":6555,"##esian":6556,"##abung":6557,"##ukut":6558,"proj":6559,"##uhang":6560,"them":6561,"##igan":6562,"##ree":6563,"##ibatkeun":6564,"sakit":6565,"pangp":6566,"comments":6567,"isu":6568,"shir":6569,"conc":6570,"120":6571,"kacang":6572,"##store":6573,"leuweung":6574,"bros":6575,"merek":6576,"pinter":6577,"silatur":6578,"sukses":6579,"senang":6580,"white":6581,"unggul":6582,"garis":6583,"posisi":6584,"kantos":6585,"sms":6586,"ceremon":6587,"water":6588,"nangtukeun":6589,"pamarentahan":6590,"gumantung":6591,"siswa":6592,"operasi":6593,"beungeut":6594,"kanji":6595,"special":6596,"lumpur":6597,"electr":6598,"aspek":6599,"bapana":6600,"##additional":6601,"energi":6602,"##stein":6603,"nomor":6604,"khusus":6605,"##intonkeun":6606,"##eyelash":6607,"499":6608,"bup":6609,"cs":6610,"cim":6611,"cok":6612,"daw":6613,"era":6614,"hana":6615,"juan":6616,"jsb":6617,"lot":6618,"lakar":6619,"ow":6620,"ru":6621,"riv":6622,"sma":6623,"tatan":6624,"tentara":6625,"wajib":6626,"##hh":6627,"##pas":6628,"##rin":6629,"##44":6630,"##work":6631,"##ŋa":6632,"##aling":6633,"##alikeun":6634,"##alth":6635,"kaamanan":6636,"##ayo":6637,"##umah":6638,"##idi":6639,"##idar":6640,"##egah":6641,"##opalikuran":6642,"salak":6643,"ars":6644,"kabayan":6645,"saban":6646,"##etap":6647,"their":6648,"karayan":6649,"deuih":6650,"##euteup":6651,"lami":6652,"exc":6653,"lampung":6654,"lalakon":6655,"download5":6656,"direc":6657,"suka":6658,"alami":6659,"associ":6660,"embah":6661,"mimitina":6662,"setelan":6663,"##antosan":6664,"umumna":6665,"kinerja":6666,"tungtungna":6667,"domain":6668,"liberal":6669,"inpormasi":6670,"broad":6671,"weleh":6672,"through":6673,"hiburan":6674,"ngembangkeun":6675,"ngobrol":6676,"quality":6677,"language":6678,"ngentot":6679,"microsoft":6680,"leumpang":6681,"##eyelashstore":6682,"bust":6683,"days":6684,"heur":6685,"jh":6686,"peta":6687,"ranc":6688,"sobat":6689,"tud":6690,"xl":6691,"##gy":6692,"##led":6693,"##mos":6694,"##cat":6695,"##62":6696,"##69":6697,"##zh":6698,"##ни":6699,"##arin":6700,"##ined":6701,"##asari":6702,"diad":6703,"diag":6704,"##uripan":6705,"kaum":6706,"##itna":6707,"##ista":6708,"##ante":6709,"nyak":6710,"nyus":6711,"##teri":6712,"##ipp":6713,"adult":6714,"##ocrat":6715,"karakter":6716,"maip":6717,"kamungkinan":6718,"unif":6719,"daek":6720,"pasangan":6721,"ento":6722,"##ature":6723,"beres":6724,"kontrol":6725,"sapa":6726,"musta":6727,"menc":6728,"click":6729,"close":6730,"warta":6731,"##lywood":6732,"sajak":6733,"budi":6734,"gedong":6735,"panto":6736,"hejo":6737,"sepuh":6738,"narik":6739,"cartoons":6740,"untold":6741,"hasilna":6742,"myeyelashstore":6743,"majal":6744,"gelar":6745,"percetakan":6746,"##ismo":6747,"##coin":6748,"instr":6749,"kirang":6750,"lowongan":6751,"genep":6752,"detik":6753,"custom":6754,"wedding":6755,"suplemen":6756,"royal":6757,"jibril":6758,"narkoba":6759,"brazil":6760,"cb":6761,"detail":6762,"gra":6763,"gea":6764,"pukul":6765,"rack":6766,"rame":6767,"sih":6768,"side":6769,"tuk":6770,"tuh":6771,"tari":6772,"ub":6773,"uing":6774,"veg":6775,"wij":6776,"yay":6777,"##lic":6778,"##luan":6779,"##ky":6780,"##pan":6781,"##34":6782,"##31":6783,"##fig":6784,"##atih":6785,"##erd":6786,"##inas":6787,"##amu":6788,"kai":6789,"##eld":6790,"pri":6791,"##ajati":6792,"##ajuan":6793,"##iaan":6794,"##obi":6795,"perak":6796,"##ario":6797,"##ohong":6798,"atikan":6799,"##raft":6800,"saudi":6801,"karang":6802,"karta":6803,"masjid":6804,"kamari":6805,"##euhan":6806,"kadaharan":6807,"kuda":6808,"koneng":6809,"kompl":6810,"2002":6811,"only":6812,"sanesna":6813,"bandara":6814,"##ights":6815,"selang":6816,"##ship":6817,"pulitik":6818,"datab":6819,"tarik":6820,"posts":6821,"##insip":6822,"##ounds":6823,"glass":6824,"##ultan":6825,"##iyah":6826,"swt":6827,"##ography":6828,"raden":6829,"heavy":6830,"basisir":6831,"hadiah":6832,"strategi":6833,"patarosan":6834,"silaturah":6835,"ceremony":6836,"600":6837,"beut":6838,"lini":6839,"nina":6840,"neda":6841,"puji":6842,"rer":6843,"sata":6844,"tai":6845,"vs":6846,"visi":6847,"xk":6848,"##nal":6849,"##kn":6850,"##kar":6851,"##ty":6852,"##tis":6853,"##eja":6854,"##was":6855,"##38":6856,"##89":6857,"##euyan":6858,"diakses":6859,"##orang":6860,"##ireun":6861,"##ehi":6862,"##ukung":6863,"##ekar":6864,"prob":6865,"##epatan":6866,"##antan":6867,"alum":6868,"##obahan":6869,"salaki":6870,"spin":6871,"they":6872,"karangan":6873,"terk":6874,"##ualan":6875,"isa":6876,"siya":6877,"125":6878,"balarea":6879,"##anium":6880,"pola":6881,"elm":6882,"##ills":6883,"##anyol":6884,"slta":6885,"waruga":6886,"nagri":6887,"dimaksud":6888,"dewa":6889,"hirupna":6890,"kanu":6891,"viet":6892,"butuh":6893,"rahayu":6894,"##dress":6895,"sistim":6896,"dayta":6897,"dipikaresep":6898,"payung":6899,"kuningan":6900,"hususna":6901,"format":6902,"version":6903,"nuturkeun":6904,"wallpap":6905,"marketing":6906,"##lusif":6907,"hawu":6908,"kamben":6909,"simbol":6910,"professional":6911,"kakawasaan":6912,"klien":6913,"pamadegan":6914,"majalengka":6915,"bent":6916,"cewek":6917,"fin":6918,"gh":6919,"gem":6920,"gaj":6921,"gend":6922,"jemp":6923,"jord":6924,"lh":6925,"mom":6926,"mig":6927,"memp":6928,"pec":6929,"padi":6930,"smart":6931,"tem":6932,"tata":6933,"##name":6934,"##lit":6935,"##leng":6936,"##ions":6937,"##tic":6938,"##ei":6939,"##ez":6940,"##rr":6941,"##mo":6942,"##mas":6943,"##be":6944,"##crip":6945,"##zona":6946,"##alu":6947,"##erek":6948,"##asik":6949,"##amah":6950,"ano":6951,"ngum":6952,"##itch":6953,"##adina":6954,"##adilan":6955,"##uni":6956,"##oris":6957,"##agikeun":6958,"##iro":6959,"##omas":6960,"prinsip":6961,"nyeb":6962,"##udayaan":6963,"persib":6964,"##sion":6965,"panangan":6966,"mahasis":6967,"##ative":6968,"kursi":6969,"##ualitas":6970,"seo":6971,"katerangan":6972,"##intas":6973,"130":6974,"##tuyan":6975,"kont":6976,"2003":6977,"arizona":6978,"##ungkur":6979,"angger":6980,"sbh":6981,"antukna":6982,"##onda":6983,"padagang":6984,"meter":6985,"tulis":6986,"##untungan":6987,"panteras":6988,"caang":6989,"kimia":6990,"streaming":6991,"casinos":6992,"company":6993,"pidato":6994,"kristen":6995,"poho":6996,"##zzar":6997,"##lines":6998,"ucapan":6999,"world":7000,"sensor":7001,"combed":7002,"michael":7003,"uwong":7004,"4t":7005,"bilih":7006,"cy":7007,"deng":7008,"date":7009,"gudang":7010,"hp":7011,"jaj":7012,"jac":7013,"jaga":7014,"kari":7015,"kund":7016,"mm":7017,"nasi":7018,"normal":7019,"pod":7020,"sof":7021,"ver":7022,"##long":7023,"##av":7024,"##uta":7025,"##px":7026,"##jeung":7027,"##ро":7028,"##ann":7029,"##eux":7030,"##alian":7031,"##ability":7032,"nud":7033,"##awati":7034,"sarupa":7035,"##ici":7036,"##ict":7037,"##ihi":7038,"nyababkeun":7039,"alun":7040,"persi":7041,"kalungg":7042,"##embangan":7043,"adalah":7044,"spanyol":7045,"baraya":7046,"masks":7047,"anda":7048,"uninga":7049,"kapoor":7050,"kacamata":7051,"dibikeun":7052,"buktina":7053,"sadar":7054,"batik":7055,"resp":7056,"sagalana":7057,"tokopedia":7058,"sajat":7059,"regular":7060,"ident":7061,"tamba":7062,"poker":7063,"cartesian":7064,"outdoor":7065,"biru":7066,"kopi":7067,"sebab":7068,"teknik":7069,"idiay":7070,"campuran":7071,"citakan":7072,"hijina":7073,"gabug":7074,"letnan":7075,"oldid":7076,"sangsaya":7077,"bupati":7078,"4t1b":7079,"kalungguhan":7080,"bug":7081,"cro":7082,"dp":7083,"dki":7084,"during":7085,"ema":7086,"far":7087,"friend":7088,"gemp":7089,"hy":7090,"just":7091,"kaman":7092,"lanc":7093,"mug":7094,"mugi":7095,"now":7096,"nangg":7097,"rok":7098,"rai":7099,"rich":7100,"ritual":7101,"sia":7102,"soci":7103,"tuang":7104,"tacan":7105,"##nyan":7106,"##ier":7107,"##okeun":7108,"##41":7109,"##bon":7110,"##atangan":7111,"##asihan":7112,"ngang":7113,"ngara":7114,"##unot":7115,"##tap":7116,"##imu":7117,"inov":7118,"##entre":7119,"##udin":7120,"kalung":7121,"sabung":7122,"karena":7123,"toe":7124,"apart":7125,"katelah":7126,"##inda":7127,"malahan":7128,"parobahan":7129,"smpn":7130,"##uwan":7131,"laun":7132,"kadenge":7133,"2004":7134,"minyak":7135,"ngahar":7136,"nanging":7137,"niat":7138,"situ":7139,"dimas":7140,"dicokot":7141,"tangerang":7142,"dijadikeun":7143,"badan":7144,"pesta":7145,"kantong":7146,"gambaran":7147,"memeh":7148,"angkat":7149,"nyaritakeun":7150,"hakekat":7151,"dapur":7152,"albania":7153,"salamina":7154,"sambungan":7155,"golongan":7156,"cnd":7157,"suppliers":7158,"tiket":7159,"hatena":7160,"beulah":7161,"sawarga":7162,"football":7163,"eusina":7164,"uniform":7165,"yayasan":7166,"jordan":7167,"beusi":7168,"dz":7169,"fam":7170,"ganj":7171,"hood":7172,"jangkung":7173,"kew":7174,"lama":7175,"liv":7176,"madi":7177,"mach":7178,"neu":7179,"pitud":7180,"reh":7181,"rub":7182,"ramb":7183,"romb":7184,"sya":7185,"som":7186,"tp":7187,"tom":7188,"yah":7189,"##num":7190,"##ness":7191,"##nologi":7192,"##gaan":7193,"##lung":7194,"##line":7195,"##sus":7196,"##hir":7197,"##200":7198,"##kal":7199,"##tc":7200,"##yet":7201,"##yle":7202,"##mb":7203,"##aru":7204,"##arak":7205,"##eren":7206,"##asing":7207,"##asaran":7208,"##enna":7209,"kauntungan":7210,"##itis":7211,"##ulkeun":7212,"##eth":7213,"##iring":7214,"kuta":7215,"##ices":7216,"tig":7217,"nyimpen":7218,"##ewa":7219,"address":7220,"##reen":7221,"att":7222,"spir":7223,"saksi":7224,"kurungan":7225,"dipid":7226,"abu":7227,"parah":7228,"true":7229,"care":7230,"konv":7231,"dibandingkeun":7232,"kenca":7233,"brown":7234,"001":7235,"tatar":7236,"option":7237,"ulin":7238,"##pres":7239,"scr":7240,"struktur":7241,"seks":7242,"embroid":7243,"55x":7244,"party":7245,"partisi":7246,"##right":7247,"hartosna":7248,"pdf":7249,"expo":7250,"markas":7251,"nambahan":7252,"pitulung":7253,"study":7254,"pictures":7255,"throat":7256,"text":7257,"##abataanpalikuran":7258,"##aporkeun":7259,"sakadang":7260,"individu":7261,"duwe":7262,"awaaz":7263,"kaputusan":7264,"wholesale":7265,"mustapa":7266,"bp":7267,"bb":7268,"cet":7269,"cinc":7270,"gul":7271,"hold":7272,"juru":7273,"kasa":7274,"kilang":7275,"muj":7276,"pakar":7277,"rin":7278,"ris":7279,"remi":7280,"sers":7281,"sehat":7282,"tub":7283,"weh":7284,"##nt":7285,"##log":7286,"##sum":7287,"##vers":7288,"##ron":7289,"##js":7290,"##dis":7291,"##bk":7292,"##63":7293,"##61":7294,"##anga":7295,"##angpa":7296,"##aker":7297,"nganti":7298,"ngimpi":7299,"##isip":7300,"##uny":7301,"##elas":7302,"##eleng":7303,"##uki":7304,"intr":7305,"pria":7306,"prec":7307,"##ajo":7308,"##andingan":7309,"##okna":7310,"nyump":7311,"##uddin":7312,"##ego":7313,"##odo":7314,"iphone":7315,"##oper":7316,"perhat":7317,"nav":7318,"kalapa":7319,"kalimah":7320,"many":7321,"ade":7322,"mahluk":7323,"mail":7324,"champ":7325,"bakat":7326,"##uwangi":7327,"dibuka":7328,"kawin":7329,"sapuluh":7330,"ngajual":7331,"bagja":7332,"##yarna":7333,"boa":7334,"batara":7335,"timb":7336,"coun":7337,"buta":7338,"artis":7339,"gej":7340,"related":7341,"suba":7342,"pagun":7343,"bedog":7344,"tahu":7345,"teluk":7346,"##untut":7347,"kabataanpalikuran":7348,"pakistan":7349,"ilmi":7350,"ingles":7351,"awaknyan":7352,"road":7353,"trading":7354,"##jamahan":7355,"suwara":7356,"bantuan":7357,"hareupeun":7358,"jangji":7359,"nawaran":7360,"generasi":7361,"berkualitas":7362,"##ungkinkeun":7363,"platform":7364,"amazon":7365,"category":7366,"panganyarna":7367,"material":7368,"sapopoe":7369,"##ocratic":7370,"pituduh":7371,"cincin":7372,"sersan":7373,"boy":7374,"cle":7375,"fur":7376,"fun":7377,"fok":7378,"gula":7379,"gard":7380,"ganti":7381,"hir":7382,"iz":7383,"kent":7384,"kong":7385,"mont":7386,"nh":7387,"peur":7388,"ring":7389,"rump":7390,"rencana":7391,"semb":7392,"sle":7393,"sebut":7394,"some":7395,"xxx":7396,"yeuh":7397,"##gan":7398,"##uel":7399,"##jaan":7400,"##car":7401,"##xi":7402,"##ра":7403,"##но":7404,"##anget":7405,"##enang":7406,"nging":7407,"##adak":7408,"##elang":7409,"##ekah":7410,"##idas":7411,"##ower":7412,"##eureuh":7413,"##angkang":7414,"adong":7415,"sabada":7416,"kare":7417,"chat":7418,"chem":7419,"pamuter":7420,"pare":7421,"kontak":7422,"saham":7423,"maka":7424,"kawat":7425,"ngajelaskeun":7426,"halim":7427,"brit":7428,"meny":7429,"palsu":7430,"babak":7431,"silaing":7432,"##ondon":7433,"tekad":7434,"bedana":7435,"kecamatan":7436,"dikirim":7437,"belacan":7438,"##print":7439,"##ombang":7440,"nona":7441,"syari":7442,"puasa":7443,"paket":7444,"sinar":7445,"papanggih":7446,"panyakit":7447,"similar":7448,"konsep":7449,"jurig":7450,"calon":7451,"bush":7452,"dipercaya":7453,"suwe":7454,"epis":7455,"##kabataanpalikuran":7456,"dokumen":7457,"hadir":7458,"##uksak":7459,"terminal":7460,"bitcoin":7461,"bersih":7462,"ngakibatkeun":7463,"nyambung":7464,"bekasi":7465,"keyword":7466,"produsen":7467,"singapore":7468,"deungeun":7469,"project":7470,"database":7471,"remix":7472,"cup":7473,"gor":7474,"juga":7475,"lun":7476,"nah":7477,"nay":7478,"neuteup":7479,"pb":7480,"pon":7481,"tump":7482,"tengg":7483,"wali":7484,"zin":7485,"##55":7486,"##pur":7487,"##dy":7488,"##bo":7489,"##98":7490,"##fik":7491,"##inana":7492,"diuk":7493,"##ono":7494,"##ury":7495,"##urung":7496,"ngl":7497,"nged":7498,"ngand":7499,"##orasi":7500,"##engi":7501,"##uksi":7502,"##oli":7503,"##icy":7504,"##ijakan":7505,"naf":7506,"urutan":7507,"tehnologi":7508,"sabun":7509,"spat":7510,"pangb":7511,"pangeusi":7512,"karir":7513,"chur":7514,"marent":7515,"ste":7516,"105":7517,"ditu":7518,"plaf":7519,"berlin":7520,"ngadon":7521,"kaharti":7522,"menj":7523,"pating":7524,"surelek":7525,"digunakeun":7526,"semu":7527,"pantes":7528,"daging":7529,"wangi":7530,"pure":7531,"untung":7532,"cocok":7533,"americ":7534,"tuah":7535,"istan":7536,"panggung":7537,"simple":7538,"banyu":7539,"##baguhang":7540,"mudah":7541,"pupuh":7542,"jawaban":7543,"runs":7544,"komunitas":7545,"manufacturers":7546,"large":7547,"sekolahe":7548,"power":7549,"systems":7550,"parentah":7551,"technology":7552,"pintonan":7553,"jahat":7554,"coklat":7555,"salakina":7556,"selangor":7557,"crouch":7558,"rombongan":7559,"##angpaatkeun":7560,"fokus":7561,"plafon":7562,"ajen":7563,"ce":7564,"fed":7565,"feb":7566,"heh":7567,"jil":7568,"jimb":7569,"kg":7570,"kina":7571,"maw":7572,"mintonkeun":7573,"pekan":7574,"riw":7575,"rendah":7576,"sut":7577,"uin":7578,"##lis":7579,"##hul":7580,"##rom":7581,"##jing":7582,"##jeuh":7583,"##zer":7584,"##ел":7585,"##alaman":7586,"##erkeun":7587,"##onia":7588,"##esh":7589,"anunt":7590,"##itra":7591,"##isb":7592,"##uss":7593,"##ume":7594,"##umkeun":7595,"##irah":7596,"##uti":7597,"##olot":7598,"##andap":7599,"##icial":7600,"tiang":7601,"##antren":7602,"nyekel":7603,"nyegah":7604,"alm":7605,"aliran":7606,"##ople":7607,"kasenian":7608,"kasohor":7609,"##ambung":7610,"ters":7611,"##chi":7612,"ise":7613,"apr":7614,"111":7615,"paranti":7616,"siaran":7617,"akal":7618,"singk":7619,"komb":7620,"sapanjang":7621,"ngajawab":7622,"merlukeun":7623,"##ifikasi":7624,"penny":7625,"wargi":7626,"bangun":7627,"lalu":7628,"anggur":7629,"drop":7630,"giril":7631,"who":7632,"pesawat":7633,"engine":7634,"tutorial":7635,"monyet":7636,"angklung":7637,"laporan":7638,"misalna":7639,"contin":7640,"dosis":7641,"mandi":7642,"jambi":7643,"democratic":7644,"##latina":7645,"hurup":7646,"enggal":7647,"nyalindung":7648,"ngelehkeun":7649,"reujeung":7650,"##ompok":7651,"ngiring":7652,"lukisan":7653,"categories":7654,"##ursus":7655,"article":7656,"nginum":7657,"today":7658,"pillow":7659,"victor":7660,"busty":7661,"sataun":7662,"xk8":7663,"dipidangkeun":7664,"1000":7665,"bil":7666,"baw":7667,"bow":7668,"bamb":7669,"cita":7670,"cusa":7671,"ea":7672,"fes":7673,"gering":7674,"hist":7675,"hikm":7676,"ina":7677,"ijan":7678,"jad":7679,"jeng":7680,"lea":7681,"love":7682,"lomba":7683,"misah":7684,"made":7685,"peu":7686,"punj":7687,"riy":7688,"sn":7689,"ss":7690,"##gd":7691,"##ging":7692,"##lar":7693,"##kt":7694,"##jeng":7695,"##dul":7696,"##fing":7697,"##ºc":7698,"##aria":7699,"##enahna":7700,"diam":7701,"didi":7702,"kaungg":7703,"ania":7704,"ngas":7705,"ngec":7706,"nganggap":7707,"##ites":7708,"##ikiran":7709,"##abut":7710,"##ago":7711,"##ayogikeun":7712,"##ulum":7713,"##apeung":7714,"##apulo":7715,"##awis":7716,"sarer":7717,"sarre":7718,"##ajaya":7719,"##antes":7720,"ieuh":7721,"there":7722,"##owjob":7723,"peran":7724,"kalender":7725,"pantai":7726,"bleh":7727,"sabah":7728,"##lex":7729,"sakapeung":7730,"karuks":7731,"andrew":7732,"amal":7733,"shots":7734,"teori":7735,"control":7736,"##ists":7737,"##istik":7738,"abang":7739,"115":7740,"##uwit":7741,"pla":7742,"carit":7743,"sumanget":7744,"145":7745,"kawasa":7746,"kawentar":7747,"180":7748,"expl":7749,"interior":7750,"clos":7751,"santa":7752,"sube":7753,"luhureun":7754,"kabataankabataang":7755,"robert":7756,"##fied":7757,"##kaos":7758,"kayak":7759,"lapisan":7760,"tabuh":7761,"circ":7762,"panasonic":7763,"wayah":7764,"gamot":7765,"##jamahkeun":7766,"integ":7767,"##uzu":7768,"ditambahkeun":7769,"cnc":7770,"paham":7771,"efektif":7772,"tepung":7773,"cabang":7774,"ngidinan":7775,"plastik":7776,"princess":7777,"heueuh":7778,"flour":7779,"nyetel":7780,"pannakabalin":7781,"kalimantan":7782,"bungkusan":7783,"beuteung":7784,"istanbul":7785,"karuksakan":7786,"bina":7787,"boc":7788,"dw":7789,"deg":7790,"gent":7791,"gangg":7792,"hon":7793,"kia":7794,"lomb":7795,"london":7796,"nun":7797,"punten":7798,"rib":7799,"sman":7800,"tali":7801,"vek":7802,"wit":7803,"xim":7804,"по":7805,"##nag":7806,"##nbc":7807,"##gong":7808,"##uaran":7809,"##via":7810,"##jack":7811,"##mg":7812,"##82":7813,"##zi":7814,"##fr":7815,"##asuna":7816,"##ahi":7817,"##amar":7818,"disi":7819,"##esome":7820,"##isk":7821,"##agai":7822,"##olusi":7823,"sarinana":7824,"nyingk":7825,"these":7826,"kalakuan":7827,"panj":7828,"panit":7829,"manus":7830,"disimpen":7831,"sport":7832,"##endi":7833,"190":7834,"103":7835,"101":7836,"106":7837,"unit":7838,"daeng":7839,"##ancing":7840,"series":7841,"img":7842,"grand":7843,"halaman":7844,"kahuripan":7845,"0011":7846,"upload":7847,"upamana":7848,"biaya":7849,"##umbang":7850,"babes":7851,"babakan":7852,"ukra":7853,"survey":7854,"##ondang":7855,"tekanan":7856,"keluar":7857,"dicomot":7858,"krungu":7859,"##ungtik":7860,"magic":7861,"mimitian":7862,"##eller":7863,"solat":7864,"##clud":7865,"ilmu":7866,"poto":7867,"lebak":7868,"omongan":7869,"impr":7870,"impian":7871,"konser":7872,"dipikah":7873,"##ernur":7874,"nasabah":7875,"jaya99":7876,"##uriang":7877,"label":7878,"baco":7879,"valve":7880,"pancen":7881,"osasuna":7882,"katingali":7883,"lengkepna":7884,"lelang":7885,"ucing":7886,"rakyat":7887,"works":7888,"jerseys":7889,"##euwihan":7890,"##firm":7891,"piece":7892,"breasts":7893,"##okerto":7894,"life":7895,"##eundeun":7896,"mampuh":7897,"##aligus":7898,"ceurik":7899,"goneng":7900,"neuleuman":7901,"miharep":7902,"broadcast":7903,"diagn":7904,"perhatian":7905,"ilmiah":7906,"kareena":7907,"british":7908,"girilaya":7909,"ximena":7910,"aaa":7911,"bata":7912,"cv":7913,"cov":7914,"demi":7915,"eg":7916,"gajah":7917,"jose":7918,"ll":7919,"lord":7920,"mec":7921,"pana":7922,"siji":7923,"sada":7924,"saja":7925,"tog":7926,"ung":7927,"urip":7928,"yout":7929,"##nd":7930,"##lop":7931,"##uit":7932,"##ker":7933,"##tom":7934,"##ms":7935,"##mal":7936,"##bound":7937,"##ces":7938,"##com":7939,"##74":7940,"##zes":7941,"##ful":7942,"##ᮔ᮪":7943,"##anoh":7944,"##ald":7945,"##ales":7946,"##alih":7947,"##erat":7948,"aneh":7949,"ngund":7950,"##ister":7951,"##agen":7952,"##agad":7953,"##emu":7954,"##ulya":7955,"##osani":7956,"##ution":7957,"##olak":7958,"##awuh":7959,"sarikat":7960,"##iday":7961,"alham":7962,"kasad":7963,"##adiyah":7964,"mature":7965,"mataram":7966,"mahab":7967,"sakaligus":7968,"barb":7969,"kursus":7970,"stills":7971,"##ances":7972,"ayuh":7973,"##euheung":7974,"##aturkeun":7975,"serangan":7976,"aktip":7977,"##uare":7978,"imahna":7979,"dibagi":7980,"dibaca":7981,"greg":7982,"ngagabung":7983,"ngaduruk":7984,"mini":7985,"##onald":7986,"slut":7987,"##impin":7988,"tokoh":7989,"miara":7990,"regga":7991,"pantyh":7992,"senen":7993,"olih":7994,"tangga":7995,"personal":7996,"angkutan":7997,"gerakan":7998,"endog":7999,"fair":8000,"games":8001,"fakult":8002,"nawiskeun":8003,"##blog":8004,"golf":8005,"feet":8006,"runtuyan":8007,"botosani":8008,"nepika":8009,"inpo":8010,"commun":8011,"##ograph":8012,"dvr":8013,"##ercayaan":8014,"##agsasalsal":8015,"department":8016,"jinis":8017,"sempet":8018,"pompa":8019,"house":8020,"published":8021,"paribasa":8022,"vegas":8023,"silaturahim":8024,"linier":8025,"gejala":8026,"garden":8027,"jimbaran":8028,"anuntul":8029,"hikmah":8030,"sarerea":8031,"750":8032,"800":8033,"dtg":8034,"eh":8035,"eth":8036,"eff":8037,"gil":8038,"gup":8039,"gog":8040,"gyp":8041,"hab":8042,"hip":8043,"kaka":8044,"muga":8045,"nand":8046,"nok":8047,"nahan":8048,"nemen":8049,"pingg":8050,"range":8051,"susah":8052,"temen":8053,"uli":8054,"wi":8055,"##lian":8056,"##51":8057,"##oint":8058,"##ues":8059,"##phy":8060,"##eap":8061,"##rok":8062,"##rop":8063,"##yu":8064,"##mus":8065,"##wick":8066,"##dam":8067,"##cel":8068,"##624":8069,"##72":8070,"##ва":8071,"##euri":8072,"##alin":8073,"##allah":8074,"##atar":8075,"##atah":8076,"ngolah":8077,"##isar":8078,"##orian":8079,"##tain":8080,"##ilit":8081,"##uld":8082,"##uluku":8083,"##osal":8084,"##oma":8085,"inch":8086,"inyana":8087,"##entingan":8088,"##ihkeun":8089,"##ongge":8090,"nyangk":8091,"##acy":8092,"##acle":8093,"alarm":8094,"also":8095,"##euran":8096,"##opat":8097,"arane":8098,"##angkan":8099,"sabar":8100,"spot":8101,"indungna":8102,"masehi":8103,"maroon":8104,"sev":8105,"pamil":8106,"united":8107,"harisb":8108,"enc":8109,"pariksa":8110,"kapaksa":8111,"carpon":8112,"aksi":8113,"requ":8114,"dealer":8115,"kudut":8116,"berb":8117,"single":8118,"use":8119,"brows":8120,"merah":8121,"0012":8122,"160":8123,"boj":8124,"##anyaho":8125,"militer":8126,"milampah":8127,"latinos":8128,"dirobah":8129,"ahmad":8130,"##shmi":8131,"teknis":8132,"paul":8133,"negara":8134,"tulang":8135,"krish":8136,"telec":8137,"mayor":8138,"##11hk":8139,"crow":8140,"rail":8141,"profile":8142,"potensi":8143,"soal":8144,"office":8145,"tabel":8146,"nembe":8147,"present":8148,"ladang":8149,"rebu":8150,"bantal":8151,"00058":8152,"people":8153,"bollywood":8154,"sudah":8155,"leungitna":8156,"lambang":8157,"##ajiban":8158,"mariah":8159,"kanjeng":8160,"serius":8161,"gatrik":8162,"nelepon":8163,"pieces":8164,"hindi":8165,"mamaos":8166,"##ски":8167,"##erkahan":8168,"education":8169,"yunani":8170,"tatanen":8171,"association":8172,"ngumumkeun":8173,"4t1b11hk":8174,"society":8175,"ngangon":8176,"madiun":8177,"kombinasi":8178,"pantyhose":8179,"harisbaya":8180,"720":8181,"cec":8182,"cast":8183,"dud":8184,"ece":8185,"geni":8186,"him":8187,"jung":8188,"jantung":8189,"kp":8190,"king":8191,"kirim":8192,"mingg":8193,"mcse":8194,"nin":8195,"pn":8196,"ple":8197,"rena":8198,"ruang":8199,"toh":8200,"tetap":8201,"tbk":8202,"uy":8203,"##gia":8204,"##iara":8205,"##sat":8206,"##vis":8207,"##pad":8208,"##mah":8209,"##ways":8210,"##cf":8211,"##xy":8212,"##anu":8213,"##arita":8214,"##eneng":8215,"##akkeun":8216,"##akaan":8217,"diedit":8218,"kaah":8219,"ngon":8220,"ngungk":8221,"##adia":8222,"##unaan":8223,"##unami":8224,"##elo":8225,"##aptar":8226,"##ianak":8227,"##obe":8228,"##udan":8229,"kasar":8230,"##ecial":8231,"kalib":8232,"kalepatan":8233,"##truc":8234,"##embong":8235,"kabar":8236,"kabeb":8237,"blanc":8238,"atah":8239,"atine":8240,"atasan":8241,"spring":8242,"##iba":8243,"activ":8244,"academ":8245,"comment":8246,"maik":8247,"apk":8248,"uni":8249,"##ancy":8250,"ayak":8251,"endi":8252,"116":8253,"balad":8254,"trend":8255,"berg":8256,"jualan":8257,"brid":8258,"musuh":8259,"tatap":8260,"polo":8261,"muncul":8262,"selamat":8263,"mode":8264,"pengiriman":8265,"##tural":8266,"medic":8267,"puter":8268,"##outer":8269,"dikaw":8270,"darat":8271,"kabataanbag":8272,"teteh":8273,"peles":8274,"peserta":8275,"kangjeng":8276,"ngamekarkeun":8277,"bungah":8278,"sanaos":8279,"payun":8280,"wiki":8281,"madjid":8282,"kompet":8283,"pedro":8284,"colour":8285,"##xxx":8286,"ramo":8287,"sesa":8288,"sidik":8289,"point":8290,"nyalira":8291,"##phone":8292,"reviews":8293,"operator":8294,"syare":8295,"spesies":8296,"suplement":8297,"maksudna":8298,"beca":8299,"hamba":8300,"kaperluan":8301,"administrasi":8302,"tsunami":8303,"fisik":8304,"mahasiswa":8305,"lombok":8306,"kabataanbaguhan":8307,"900":8308,"cf":8309,"caw":8310,"dor":8311,"gif":8312,"gimp":8313,"hut":8314,"iv":8315,"ly":8316,"lit":8317,"mong":8318,"nany":8319,"nini":8320,"poc":8321,"ria":8322,"siti":8323,"sasar":8324,"swe":8325,"teng":8326,"tapan":8327,"vid":8328,"##ieu":8329,"##sr":8330,"##oar":8331,"##toy":8332,"##py":8333,"##par":8334,"##pat":8335,"##wis":8336,"##79":8337,"##angsa":8338,"##asikeun":8339,"diab":8340,"diom":8341,"diaj":8342,"##urg":8343,"##isaran":8344,"##usaha":8345,"##inac":8346,"##elar":8347,"##elaran":8348,"##uktikeun":8349,"##imen":8350,"##images":8351,"sarawak":8352,"##ident":8353,"inohong":8354,"anug":8355,"##okol":8356,"nyangka":8357,"##aces":8358,"alk":8359,"alons":8360,"##udno":8361,"ash":8362,"##arancang":8363,"##ects":8364,"matt":8365,"##angkala":8366,"adip":8367,"blok":8368,"disadiakeun":8369,"##ambah":8370,"saat":8371,"1999":8372,"pangajaran":8373,"isra":8374,"ngaluarkeun":8375,"taen":8376,"kaosf":8377,"kaos3d":8378,"ngarep":8379,"pareum":8380,"##loud":8381,"carey":8382,"sumebar":8383,"##awaaz":8384,"deal":8385,"berh":8386,"used":8387,"menengah":8388,"samud":8389,"saderek":8390,"cloth":8391,"warung":8392,"##isha":8393,"ngeunah":8394,"rele":8395,"230":8396,"antar":8397,"been":8398,"kerala":8399,"##tionary":8400,"what":8401,"klub":8402,"##harger":8403,"sangkuriang":8404,"body":8405,"factory":8406,"room":8407,"muhammadiyah":8408,"netepkeun":8409,"formula":8410,"promo":8411,"watt":8412,"50000":8413,"logo":8414,"neruskeun":8415,"pupuhu":8416,"##faat":8417,"sipat":8418,"ciamis":8419,"behold":8420,"kumar":8421,"hitam":8422,"akhire":8423,"status":8424,"munding":8425,"jaket":8426,"rosululloh":8427,"nulungan":8428,"hanteu":8429,"afrika":8430,"sajatining":8431,"ganjaran":8432,"bushwick":8433,"tenggara":8434,"spatel":8435,"american":8436,"festiv":8437,"gypsum":8438,"999":8439,"bid":8440,"bayu":8441,"canc":8442,"dash":8443,"doll":8444,"gov":8445,"guar":8446,"hampura":8447,"jand":8448,"last":8449,"mew":8450,"nek":8451,"nungk":8452,"oc":8453,"seng":8454,"sama":8455,"tj":8456,"tind":8457,"vay":8458,"woven":8459,"wengi":8460,"zon":8461,"##nat":8462,"##gu":8463,"##kb":8464,"##tid":8465,"##ved":8466,"##mana":8467,"##bus":8468,"##bol":8469,"##ble":8470,"##cer":8471,"##cor":8472,"##ер":8473,"##erh":8474,"##ination":8475,"##ures":8476,"ngu":8477,"ngus":8478,"ngartos":8479,"##itak":8480,"##isl":8481,"##orot":8482,"##agu":8483,"##eles":8484,"##ayaran":8485,"##ekatna":8486,"press":8487,"printer":8488,"kupon":8489,"##ental":8490,"##andan":8491,"##ebetkeun":8492,"asing":8493,"##egkeun":8494,"##odi":8495,"##ijina":8496,"thr":8497,"thread":8498,"##eurl":8499,"perenahna":8500,"##anggan":8501,"##sip":8502,"arm":8503,"kabut":8504,"adj":8505,"mahat":8506,"act":8507,"saf":8508,"1945":8509,"dipap":8510,"dipasang":8511,"masu":8512,"massa":8513,"mau":8514,"star":8515,"station":8516,"studio":8517,"baku":8518,"bakti":8519,"isk":8520,"kamajuan":8521,"107":8522,"109":8523,"##unganana":8524,"kapentingan":8525,"128":8526,"sumbang":8527,"serta":8528,"berj":8529,"makam":8530,"ngaberkahan":8531,"merenah":8532,"musim":8533,"minuhan":8534,"bio":8535,"bios":8536,"eleh":8537,"##ifi":8538,"bojong":8539,"batin":8540,"batuwangi":8541,"##anye":8542,"milik":8543,"puluhan":8544,"metu":8545,"##ouven":8546,"multif":8547,"multim":8548,"estu":8549,"left":8550,"kabataanp":8551,"pakakas":8552,"##ejaan":8553,"garuda":8554,"positif":8555,"raimu":8556,"airlines":8557,"ajak":8558,"galih":8559,"melu":8560,"tanggung":8561,"dihap":8562,"tinimbang":8563,"ambu":8564,"watch":8565,"raraga":8566,"rebo":8567,"mapay":8568,"ngurus":8569,"waditra":8570,"romawi":8571,"mentri":8572,"mlayu":8573,"mitra":8574,"lilis":8575,"investasi":8576,"tilas":8577,"##euntas":8578,"racing":8579,"##ediksi":8580,"massage":8581,"christian":8582,"sejarah":8583,"espirit":8584,"transposh":8585,"period":8586,"square":8587,"serdang":8588,"gajih":8589,"respons":8590,"cetak":8591,"##dulillah":8592,"pelesir":8593,"alonso":8594,"##ouvenir":8595,"au":8596,"beus":8597,"cock":8598,"domba":8599,"fc":8600,"find":8601,"feed":8602,"fme":8603,"gaw":8604,"gant":8605,"jep":8606,"jeb":8607,"kemp":8608,"kanca":8609,"line":8610,"loro":8611,"muc":8612,"member":8613,"mond":8614,"muji":8615,"nml":8616,"py":8617,"pis":8618,"pej":8619,"punc":8620,"pvc":8621,"ron":8622,"runt":8623,"sultan":8624,"souvenir":8625,"wood":8626,"##nad":8627,"##gro":8628,"##sm":8629,"##san":8630,"##ough":8631,"##kin":8632,"##tato":8633,"##type":8634,"##pp":8635,"##ruk":8636,"##reme":8637,"##mc":8638,"##cara":8639,"##cess":8640,"##ет":8641,"##anian":8642,"##alo":8643,"##erg":8644,"##erna":8645,"##asina":8646,"##asia":8647,"##enal":8648,"##ako":8649,"diatur":8650,"nger":8651,"##abur":8652,"##eli":8653,"##ayak":8654,"##ules":8655,"##uleng":8656,"##ether":8657,"##yaah":8658,"pract":8659,"##andi":8660,"##ongg":8661,"##ebo":8662,"altern":8663,"##aranan":8664,"##igi":8665,"##eusian":8666,"##angge":8667,"kaliwat":8668,"##trim":8669,"math":8670,"match":8671,"##ugikeun":8672,"kurung":8673,"karuhun":8674,"mangle":8675,"chil":8676,"marg":8677,"stim":8678,"style":8679,"kamones":8680,"104":8681,"108":8682,"shar":8683,"latar":8684,"harta":8685,"cond":8686,"kaosb":8687,"ensik":8688,"##indungan":8689,"kapu":8690,"121":8691,"trop":8692,"dite":8693,"fort":8694,"sump":8695,"imm":8696,"makh":8697,"kawajiban":8698,"mert":8699,"merd":8700,"biantara":8701,"exalt":8702,"##ayangkeun":8703,"baby":8704,"resiko":8705,"patih":8706,"dilarang":8707,"##umpang":8708,"lalajo":8709,"beak":8710,"##asilan":8711,"kelompok":8712,"metode":8713,"##price":8714,"multi":8715,"ibarat":8716,"europe":8717,"peluang":8718,"shopping":8719,"ningsih":8720,"ngamangpaatkeun":8721,"near":8722,"##quet":8723,"rattan":8724,"taktak":8725,"ujung":8726,"madu":8727,"##ected":8728,"##cgg":8729,"universal":8730,"talaga":8731,"ambek":8732,"labor":8733,"nganjang":8734,"itemid":8735,"coupons":8736,"stage":8737,"nampa":8738,"event":8739,"feat":8740,"susunan":8741,"sudut":8742,"ngaronjat":8743,"ideas":8744,"purwokerto":8745,"bunk":8746,"sewang":8747,"diterbit":8748,"rj11":8749,"rj45":8750,"fucked":8751,"malaikat":8752,"##eproduc":8753,"jigana":8754,"terkini":8755,"wallpapers":8756,"persiaran":8757,"victoria":8758,"kaunggulan":8759,"manusia":8760,"keluarga":8761,"multimedia":8762,"espiritismo":8763,"kamonesan":8764,"buntut":8765,"cc":8766,"dra":8767,"eul":8768,"equ":8769,"fx":8770,"gang":8771,"gian":8772,"gaji":8773,"hai":8774,"ita":8775,"iya":8776,"jaba":8777,"loun":8778,"mara":8779,"nungg":8780,"nusa":8781,"rest":8782,"tumb":8783,"tisna":8784,"wala":8785,"##lok":8786,"##sara":8787,"##str":8788,"##hu":8789,"##hup":8790,"##video":8791,"##page":8792,"##rana":8793,"##yek":8794,"##more":8795,"##ward":8796,"##bat":8797,"##can":8798,"##cing":8799,"##7000":8800,"##900":8801,"##aluk":8802,"##inoth":8803,"##ahang":8804,"##eunana":8805,"##onim":8806,"ngup":8807,"##itter":8808,"##ikota":8809,"##adne":8810,"##usun":8811,"##ilis":8812,"##oskeun":8813,"##eungg":8814,"##eke":8815,"##idy":8816,"##idit":8817,"inn":8818,"prediksi":8819,"##ente":8820,"##okabataang":8821,"##00z":8822,"nyuw":8823,"nyayogikeun":8824,"##ogohan":8825,"aslina":8826,"##ega":8827,"##ijikeun":8828,"kalan":8829,"panel":8830,"##uban":8831,"##angkalan":8832,"disini":8833,"ath":8834,"marongge":8835,"step":8836,"state":8837,"isyar":8838,"ngalah":8839,"ngalaporkeun":8840,"apnum":8841,"##ersihan":8842,"haratis":8843,"conv":8844,"agr":8845,"abs":8846,"param":8847,"kapercayaan":8848,"123":8849,"balanja":8850,"ditur":8851,"diting":8852,"ditemb":8853,"##uwang":8854,"turn":8855,"133":8856,"138":8857,"oracle":8858,"bert":8859,"konst":8860,"ngabejaan":8861,"halam":8862,"menu":8863,"polisi":8864,"170":8865,"milan":8866,"bangl":8867,"itempr":8868,"artprint":8869,"depan":8870,"kuliah":8871,"supir":8872,"pilarian":8873,"ulian":8874,"panth":8875,"darah":8876,"##atesan":8877,"target":8878,"manggih":8879,"##ensif":8880,"60624":8881,"kanak":8882,"kagungan":8883,"ill":8884,"transl":8885,"##eureunkeun":8886,"willi":8887,"khan":8888,"outbound":8889,"1995":8890,"1997":8891,"omo":8892,"##span":8893,"nebuch":8894,"tattootato":8895,"##ersizes":8896,"langsa":8897,"tegesna":8898,"month":8899,"widi":8900,"widget":8901,"kinasihan":8902,"tabanan":8903,"jarak":8904,"otak":8905,"content":8906,"cikal":8907,"itemdis":8908,"src":8909,"wadon":8910,"gallerypage":8911,"workout":8912,"kanyaho":8913,"movie":8914,"analisis":8915,"boboran":8916,"##tipkeun":8917,"parip":8918,"##blowjob":8919,"lakshmi":8920,"nepikeun":8921,"sikep":8922,"celana":8923,"artistid":8924,"artistname":8925,"##wangunan":8926,"##oshua":8927,"two":8928,"##config":8929,"ragrag":8930,"ridwan":8931,"lumpat":8932,"forums":8933,"imageid":8934,"bingung":8935,"nyatana":8936,"imageurl":8937,"copy":8938,"borongan":8939,"##playtype":8940,"cache2":8941,"availableinoth":8942,"ongkos":8943,"manager":8944,"process":8945,"podconfig":8946,"sofa":8947,"youtube":8948,"gregorian":8949,"festival":8950,"zoneproduc":8951,"multifungsi":8952,"makhluk":8953,"##adnezzar":8954,"itemprice":8955,"artprintimages":8956,"nebuchadnezzar":8957,"itemdisplaytype":8958,"availableinothersizes":8959,"podconfigid":8960,"zoneproductid":8961,"itemdisplaytypeid":8962,"450":8963,"bada":8964,"border":8965,"cing":8966,"casa":8967,"catur":8968,"duk":8969,"fik":8970,"gp":8971,"geu":8972,"hu":8973,"horm":8974,"jeun":8975,"jet":8976,"jol":8977,"janj":8978,"kc":8979,"lawan":8980,"muda":8981,"pita":8982,"pounds":8983,"rt":8984,"ruk":8985,"rand":8986,"rank":8987,"town":8988,"una":8989,"ucap":8990,"want":8991,"##nes":8992,"##sx":8993,"##hol":8994,"##hop":8995,"##dle":8996,"##bah":8997,"##bak":8998,"##ар":8999,"##atori":9000,"##erint":9001,"##akil":9002,"##onis":9003,"##esta":9004,"ani":9005,"ngamp":9006,"##adat":9007,"##adaban":9008,"##agong":9009,"##elakeun":9010,"##ungi":9011,"##unge":9012,"##umas":9013,"##umic":9014,"##umuman":9015,"##edar":9016,"##edakeun":9017,"##eting":9018,"##etik":9019,"##eungp":9020,"##yawa":9021,"##eki":9022,"##ektur":9023,"##awatan":9024,"saras":9025,"##ider":9026,"inti":9027,"##anduan":9028,"##udag":9029,"##tig":9030,"asy":9031,"##ecut":9032,"salt":9033,"salv":9034,"salasah":9035,"arist":9036,"##ubah":9037,"kabeneran":9038,"kabudayaan":9039,"manunggal":9040,"##amba":9041,"pangarang":9042,"pangwangunan":9043,"karana":9044,"steph":9045,"pamungkas":9046,"shah":9047,"team":9048,"kaossk":9049,"katempo":9050,"##ujuan":9051,"##eulana":9052,"##euleuyan":9053,"kapas":9054,"kapala":9055,"awesome":9056,"##anjar":9057,"laeng":9058,"berl":9059,"emul":9060,"##alloh":9061,"kontrak":9062,"meser":9063,"singa":9064,"sahabat":9065,"kawates":9066,"sapar":9067,"ngabantu":9068,"tanaga":9069,"polah":9070,"polit":9071,"politik":9072,"##ashi":9073,"##ialis":9074,"saminggu":9075,"respon":9076,"utusan":9077,"angka":9078,"lampahna":9079,"30x":9080,"pagar":9081,"teka":9082,"beds":9083,"padum":9084,"walikota":9085,"dijual":9086,"dating":9087,"asians":9088,"sekarang":9089,"health":9090,"nonoman":9091,"jaminan":9092,"##ella":9093,"pelet":9094,"jaip":9095,"dalapan":9096,"orgy":9097,"klasik":9098,"smc":9099,"wild":9100,"profil":9101,"lebaran":9102,"##yoo":9103,"person":9104,"persia":9105,"dihasilkeun":9106,"wanoh":9107,"pande":9108,"pandan":9109,"install":9110,"record":9111,"##ereskeun":9112,"undang":9113,"nyiapkeun":9114,"simpang":9115,"mandiri":9116,"gamelan":9117,"vb0":9118,"faktor":9119,"grey":9120,"##rahim":9121,"srila":9122,"poek":9123,"bobogohan":9124,"nambahkeun":9125,"prabhup":9126,"cilaka":9127,"generator":9128,"muslimin":9129,"jackpot":9130,"lawas":9131,"bengkel":9132,"bengkulu":9133,"tangane":9134,"portug":9135,"jembar":9136,"##adesh":9137,"withdrawaladditional":9138,"pegat":9139,"affumic":9140,"##tayungan":9141,"kamampuhan":9142,"wpcf":9143,"cream":9144,"foto":9145,"kundi":9146,"riyals":9147,"##firmasi":9148,"sevilla":9149,"telecharger":9150,"kaahlian":9151,"ayakkab":9152,"tatapakan":9153,"release":9154,"jandela":9155,"isyarat":9156,"prabhupada":9157,"wpcf7":9158,"1h":9159,"399":9160,"buru":9161,"bene":9162,"beuheung":9163,"ceng":9164,"cong":9165,"cama":9166,"gamat":9167,"hun":9168,"jon":9169,"jangka":9170,"janto":9171,"jukut":9172,"lip":9173,"ley":9174,"lingg":9175,"like":9176,"mf":9177,"moy":9178,"mula":9179,"night":9180,"nba":9181,"neck":9182,"png":9183,"pig":9184,"rose":9185,"suhu":9186,"take":9187,"villa":9188,"weut":9189,"##gb":9190,"##lia":9191,"##54":9192,"##uana":9193,"##pet":9194,"##ran":9195,"##rut":9196,"##yes":9197,"##jana":9198,"##dom":9199,"##bek":9200,"##bac":9201,"##cam":9202,"##91":9203,"##fic":9204,"##arapkeun":9205,"##atak":9206,"##angu":9207,"##asin":9208,"##asangan":9209,"##ony":9210,"##esis":9211,"kain":9212,"##ito":9213,"##ingna":9214,"##adb":9215,"##abs":9216,"##agon":9217,"##elit":9218,"##ulus":9219,"##ulation":9220,"##uluy":9221,"##otan":9222,"##enteuna":9223,"##andungan":9224,"##ebes":9225,"##egara":9226,"##ampil":9227,"kasat":9228,"kasep":9229,"kasih":9230,"teuas":9231,"naŋa":9232,"##anggakeun":9233,"kalangkang":9234,"##tery":9235,"##embah":9236,"##arth":9237,"##undan":9238,"pangiriman":9239,"masuk":9240,"master":9241,"chris":9242,"##cha":9243,"##che":9244,"pamust":9245,"tae":9246,"kaospr":9247,"pasantren":9248,"entri":9249,"siah":9250,"awang":9251,"order":9252,"leupas":9253,"sumuhun":9254,"##rojong":9255,"akib":9256,"aktif":9257,"obs":9258,"##engkepan":9259,"berp":9260,"sahenteuna":9261,"kawijakan":9262,"ngaganggu":9263,"##ulauan":9264,"##lied":9265,"taunan":9266,"half":9267,"minimal":9268,"menak":9269,"samana":9270,"##ostik":9271,"interaksi":9272,"##anyi":9273,"wakt":9274,"milf":9275,"waragad":9276,"buahna":9277,"sagara":9278,"nags":9279,"surya":9280,"beberes":9281,"dirancang":9282,"opt":9283,"open":9284,"ikat":9285,"##ount":9286,"pileuleuyan":9287,"ngawuluku":9288,"catalog":9289,"mulya":9290,"lear":9291,"tarekah":9292,"jumeneng":9293,"naraka":9294,"repl":9295,"tagalog":9296,"liar":9297,"pesan":9298,"memori":9299,"kepulauan":9300,"pentru":9301,"pots":9302,"rasta":9303,"ajaran":9304,"1990":9305,"1996":9306,"official":9307,"kinagi":9308,"fav":9309,"casual":9310,"songs":9311,"epek":9312,"kolotna":9313,"pidie":9314,"mega":9315,"gabung":9316,"antig":9317,"input":9318,"artists":9319,"haneut":9320,"toraja":9321,"bosch":9322,"beaut":9323,"cagayan":9324,"year":9325,"ceuc":9326,"##utsal":9327,"permai":9328,"jawatan":9329,"##eungitkeun":9330,"lepas":9331,"gubernur":9332,"building":9333,"river":9334,"apartemen":9335,"navig":9336,"paguneman":9337,"##lopedi":9338,"crowley":9339,"ensiklopedi":9340,"salasahiji":9341,"240":9342,"aq":9343,"bd":9344,"cari":9345,"cind":9346,"carios":9347,"cowok":9348,"dub":9349,"futsal":9350,"gan":9351,"ganda":9352,"jani":9353,"jieun":9354,"jarang":9355,"jombang":9356,"kemb":9357,"kra":9358,"kersa":9359,"lala":9360,"mum":9361,"maya":9362,"mengk":9363,"nast":9364,"ningkat":9365,"naci":9366,"pall":9367,"piy":9368,"sv":9369,"sot":9370,"sop":9371,"sepi":9372,"tumbu":9373,"wo":9374,"wen":9375,"xi":9376,"zhy":9377,"##nu":9378,"##hmina":9379,"##oa":9380,"##tek":9381,"##pada":9382,"##ekeun":9383,"##red":9384,"##rog":9385,"##jaya":9386,"##mag":9387,"##wh":9388,"##3000":9389,"##71":9390,"##84":9391,"##ча":9392,"##areup":9393,"##atiga":9394,"##erp":9395,"##erb":9396,"##erit":9397,"##inar":9398,"##akr":9399,"##urt":9400,"##urang":9401,"ngint":9402,"ngitung":9403,"ngasupkeun":9404,"##itab":9405,"##ikut":9406,"##adag":9407,"##orak":9408,"##abar":9409,"##agara":9410,"##ults":9411,"##iru":9412,"##ehe":9413,"##eungh":9414,"##ekaran":9415,"sara":9416,"##icks":9417,"##iha":9418,"##ebet":9419,"nyep":9420,"nyarankeun":9421,"alp":9422,"##udu":9423,"aset":9424,"kasakit":9425,"perp":9426,"##asiat":9427,"saluran":9428,"aram":9429,"matemat":9430,"kabur":9431,"npsn":9432,"1927":9433,"##empatan":9434,"mangaruhan":9435,"cheras":9436,"stop":9437,"istri":9438,"102":9439,"shol":9440,"share":9441,"union":9442,"deugd":9443,"pashmina":9444,"katembong":9445,"ente":9446,"kapang":9447,"balm":9448,"tres":9449,"sundan":9450,"akma":9451,"144":9452,"kade":9453,"tatangkalan":9454,"poli":9455,"palabr":9456,"ext":9457,"frank":9458,"paten":9459,"patalina":9460,"bangs":9461,"its":9462,"30s":9463,"without":9464,"##shop":9465,"pengel":9466,"##onde":9467,"pagelaran":9468,"##aksian":9469,"##imbing":9470,"paeh":9471,"kecanduan":9472,"dictionary":9473,"walang":9474,"drs":9475,"semarang":9476,"teles":9477,"lei":9478,"setia":9479,"##ences":9480,"johar":9481,"papua":9482,"sasak":9483,"garing":9484,"klor":9485,"transport":9486,"suara":9487,"315":9488,"44x":9489,"rain":9490,"provinsi":9491,"profess":9492,"hidep":9493,"1998":9494,"success":9495,"koran":9496,"korsi":9497,"printed":9498,"80w":9499,"daytoy":9500,"bireun":9501,"buleud":9502,"angkatan":9503,"koplo":9504,"burung":9505,"pentingna":9506,"jatim":9507,"hakekatna":9508,"piala":9509,"##alametkeun":9510,"salamet":9511,"college":9512,"staff":9513,"mudu":9514,"kristiano":9515,"kiridit":9516,"pupus":9517,"district":9518,"mendakan":9519,"bangkalan":9520,"akhir":9521,"##eukeutan":9522,"mundur":9523,"virus":9524,"##sterdam":9525,"umahe":9526,"kunaon":9527,"jawara":9528,"ngumpulkeun":9529,"espiritu":9530,"started":9531,"tutunggul":9532,"diantarana":9533,"pengkolan":9534,"packing":9535,"meneer":9536,"identitas":9537,"holder":9538,"halimun":9539,"didieu":9540,"caritana":9541,"kiai":9542,"diagnostik":9543,"##tomyr":9544,"nanyakeun":9545,"bioskop":9546,"monday":9547,"stephen":9548,"weuteuh":9549,"zhytomyr":9550,"deugdeug":9551,"palabras":9552,"178":9553,"bayan":9554,"banda":9555,"cj":9556,"cis":9557,"cuc":9558,"cua":9559,"cyl":9560,"deb":9561,"daman":9562,"eli":9563,"east":9564,"ewan":9565,"f1":9566,"fly":9567,"fasil":9568,"gt":9569,"h9":9570,"hos":9571,"heran":9572,"himal":9573,"hormat":9574,"jangan":9575,"keta":9576,"keuna":9577,"luw":9578,"naga":9579,"nimb":9580,"ori":9581,"otr":9582,"pick":9583,"pitu":9584,"panggih":9585,"rab":9586,"rup":9587,"sasa":9588,"sesi":9589,"tx":9590,"xs":9591,"zingg":9592,"##lover":9593,"##aay":9594,"##uah":9595,"##uai":9596,"##top":9597,"##vin":9598,"##vir":9599,"##rong":9600,"##rob":9601,"##yi":9602,"##ying":9603,"##yaman":9604,"##big":9605,"##300":9606,"##6000":9607,"##76":9608,"##93":9609,"##96":9610,"##ford":9611,"##ка":9612,"##ares":9613,"##alangan":9614,"##inkeun":9615,"##akay":9616,"##akhir":9617,"diya":9618,"##onen":9619,"##urut":9620,"##urangan":9621,"antr":9622,"ngangkat":9623,"nguji":9624,"##itmen":9625,"##ingin":9626,"##oria":9627,"##tao":9628,"##ilf":9629,"##elkeun":9630,"##eti":9631,"##ett":9632,"##ime":9633,"##imini":9634,"##ekal":9635,"sarimb":9636,"inci":9637,"pret":9638,"##upload":9639,"##anth":9640,"nyuk":9641,"##acap":9642,"thu":9643,"thomas":9644,"kasalam":9645,"pans":9646,"salira":9647,"##ipinas":9648,"##ugan":9649,"sabot":9650,"sabage":9651,"##undaan":9652,"sakedik":9653,"saung":9654,"sauc":9655,"kurt":9656,"dipilih":9657,"indo":9658,"indram":9659,"compl":9660,"margi":9661,"strip":9662,"##chong":9663,"apang":9664,"apay":9665,"amsterdam":9666,"pami":9667,"dau":9668,"harapan":9669,"ayu":9670,"ngaruksak":9671,"ditang":9672,"ditingg":9673,"##uwat":9674,"##iwangi":9675,"135":9676,"##roe":9677,"obot":9678,"148":9679,"ngadaptar":9680,"bagi":9681,"poly":9682,"pemerint":9683,"##agaz":9684,"umurna":9685,"##iful":9686,"##tttt":9687,"sluts":9688,"patung":9689,"buin":9690,"download4":9691,"anggaran":9692,"supados":9693,"dimet":9694,"advent":9695,"medium":9696,"beat":9697,"tempatna":9698,"270":9699,"ngaing":9700,"##omboy":9701,"screen":9702,"semua":9703,"ibrahim":9704,"esp":9705,"sanggup":9706,"proposal":9707,"embung":9708,"kerajaan":9709,"puchong":9710,"tetela":9711,"kolab":9712,"papayung":9713,"panyadia":9714,"tambih":9715,"ngamungkinkeun":9716,"loker":9717,"kampanye":9718,"bau":9719,"ngaliwat":9720,"hidup":9721,"aji":9722,"ratusan":9723,"swap":9724,"seug":9725,"topi":9726,"topik":9727,"teguh":9728,"myblog":9729,"gaib":9730,"geranium":9731,"sebel":9732,"buruan":9733,"perkawis":9734,"hakim":9735,"kunci":9736,"instan":9737,"tembok":9738,"sunset":9739,"rarasaan":9740,"magnet":9741,"sidang":9742,"staf":9743,"mindahkeun":9744,"second":9745,"kekek":9746,"reuwas":9747,"meujeuh":9748,"##onium":9749,"piraku":9750,"kandang":9751,"signup":9752,"nikah":9753,"construc":9754,"cianjuran":9755,"lukis":9756,"##self":9757,"##urnit":9758,"plastic":9759,"yuswa":9760,"permainan":9761,"information":9762,"louis":9763,"literature":9764,"ilaharna":9765,"speaker":9766,"lempeng":9767,"diadegkeun":9768,"wijaksana":9769,"elmuwan":9770,"inovasi":9771,"embroidery":9772,"nafsu":9773,"history":9774,"panitia":9775,"alhamdulillah":9776,"kompetisi":9777,"pocas":9778,"tapanuli":9779,"##oarjo":9780,"diomongkeun":9781,"##okolakeun":9782,"tindakan":9783,"panthers":9784,"paripolah":9785,"benef":9786,"learning":9787,"antigua":9788,"nacional":9789,"damansara":9790,"fasilitas":9791,"kasalametan":9792,"indramayu":9793,"350":9794,"aeh":9795,"bend":9796,"buj":9797,"cusan":9798,"case":9799,"d3":9800,"fund":9801,"gove":9802,"hr":9803,"hung":9804,"hop":9805,"here":9806,"jis":9807,"kt":9808,"koc":9809,"ling":9810,"lex":9811,"mg":9812,"misi":9813,"magaz":9814,"nic":9815,"nangk":9816,"pungkur":9817,"quran":9818,"stab":9819,"tay":9820,"ungk":9821,"wira":9822,"zat":9823,"##nc":9824,"##lem":9825,"##lot":9826,"##hel":9827,"##key":9828,"##vas":9829,"##pcs":9830,"##my":9831,"##wah":9832,"##wangi":9833,"##alasi":9834,"##atuan":9835,"##inis":9836,"##inum":9837,"##ased":9838,"##akti":9839,"dian":9840,"##urit":9841,"kaopat":9842,"ngo":9843,"nguc":9844,"##ised":9845,"##adc":9846,"##adar":9847,"##iler":9848,"##eler":9849,"##ulat":9850,"##ulur":9851,"##oss":9852,"##etes":9853,"##etna":9854,"##olon":9855,"##olia":9856,"##ekwa":9857,"sarung":9858,"ink":9859,"##otong":9860,"prestasi":9861,"kuant":9862,"##ajang":9863,"##andia":9864,"nyalametkeun":9865,"ald":9866,"alim":9867,"alif":9868,"ask":9869,"astr":9870,"##ampilan":9871,"##euro":9872,"kasuks":9873,"kasundaan":9874,"navi":9875,"##anggung":9876,"kalam":9877,"##emban":9878,"salami":9879,"arn":9880,"arek":9881,"arista":9882,"adegan":9883,"adobe":9884,"disin":9885,"mahal":9886,"pangsa":9887,"ont":9888,"terb":9889,"cheap":9890,"mariksa":9891,"stor":9892,"seja":9893,"she":9894,"harepan":9895,"kaosd":9896,"kaosc":9897,"agpa":9898,"ageman":9899,"maling":9900,"ditamp":9901,"ditemp":9902,"award":9903,"awards":9904,"##eupaskeun":9905,"emosi":9906,"komitmen":9907,"kawasan":9908,"sapoe":9909,"##eyan":9910,"satin":9911,"palembang":9912,"samentara":9913,"extra":9914,"fram":9915,"muru":9916,"murni":9917,"coach":9918,"titipan":9919,"italia":9920,"nias":9921,"260":9922,"miang":9923,"pengumuman":9924,"advert":9925,"bee":9926,"hau":9927,"##imbangkeun":9928,"eksk":9929,"belis":9930,"belum":9931,"kredit":9932,"sema":9933,"semah":9934,"does":9935,"telev":9936,"mulad":9937,"pantun":9938,"ideu":9939,"##assidy":9940,"syukur":9941,"##versi":9942,"poean":9943,"kaget":9944,"sampel":9945,"365":9946,"smks":9947,"raine":9948,"muhun":9949,"potongan":9950,"lebar":9951,"lebih":9952,"sebagai":9953,"tameng":9954,"kunanti":9955,"legal":9956,"pandora":9957,"eye":9958,"cikarang":9959,"bogoh":9960,"raray":9961,"kesenian":9962,"##bagus":9963,"sesana":9964,"logam":9965,"pariwis":9966,"anjing":9967,"##uhunkeun":9968,"general":9969,"termurah":9970,"pirang":9971,"sintrene":9972,"ngiringan":9973,"heavi":9974,"beauz":9975,"dakes":9976,"withdrawalexclusive":9977,"cageur":9978,"july":9979,"princip":9980,"gigireun":9981,"tibatan":9982,"##aptaran":9983,"langgeng":9984,"langganan":9985,"louise":9986,"cookies":9987,"directory":9988,"heureuy":9989,"maipapan":9990,"mugia":9991,"family":9992,"spiritual":9993,"seksual":9994,"pakarang":9995,"introduc":9996,"dropship":9997,"kayakinan":9998,"browser":9999,"railway":10000,"uyut":10001,"blancos":10002,"##inacion":10003,"dollar":10004,"kabutuhan":10005,"##nadid":10006,"gianyar":10007,"janji":10008,"sarasota":10009,"520":10010,"beta":10011,"bwin":10012,"cct":10013,"dai":10014,"fiks":10015,"ges":10016,"gob":10017,"huf":10018,"hyang":10019,"iy":10020,"iw":10021,"ito":10022,"jos":10023,"kob":10024,"kind":10025,"kani":10026,"lp":10027,"ld":10028,"lic":10029,"mup":10030,"manten":10031,"mamm":10032,"mabalin":10033,"ned":10034,"pont":10035,"pangkat":10036,"ran":10037,"rik":10038,"rawa":10039,"rif":10040,"tingk":10041,"trip":10042,"ug":10043,"xham":10044,"##news":10045,"##lawan":10046,"##link":10047,"##vd":10048,"##ple":10049,"##1000":10050,"##87":10051,"##fo":10052,"##f0":10053,"##то":10054,"##eue":10055,"##aras":10056,"##alon":10057,"##alem":10058,"##eret":10059,"##inh":10060,"##inah":10061,"##enue":10062,"##enangkeun":10063,"diar":10064,"diayakeun":10065,"ngawanoh":10066,"##agung":10067,"##agro":10068,"##ils":10069,"##ilities":10070,"##ulak":10071,"##aps":10072,"##uminacion":10073,"##edja":10074,"##utat":10075,"##utah":10076,"##awesi":10077,"sarag":10078,"##ids":10079,"insp":10080,"##epend":10081,"##ebah":10082,"alt":10083,"asma":10084,"thail":10085,"kasano":10086,"perform":10087,"navy":10088,"kala":10089,"kaluaran":10090,"salju":10091,"ara":10092,"manip":10093,"##ugj":10094,"blang":10095,"sabagian":10096,"mahas":10097,"atom":10098,"##ocal":10099,"##ambar":10100,"pangm":10101,"kurn":10102,"dipar":10103,"karek":10104,"terl":10105,"masang":10106,"chassidy":10107,"stand":10108,"store":10109,"##ually":10110,"see":10111,"ship":10112,"agar":10113,"pastikeun":10114,"pasundan":10115,"##indo":10116,"114":10117,"113":10118,"ditangt":10119,"plant":10120,"desi":10121,"sumaw":10122,"sundana":10123,"##roun":10124,"141":10125,"155":10126,"beroun":10127,"mesir":10128,"singaraja":10129,"ngagem":10130,"merced":10131,"update":10132,"##ordin":10133,"tatangga":10134,"tank":10135,"tanya":10136,"menang":10137,"extr":10138,"165":10139,"penel":10140,"ngahaja":10141,"ngahuleng":10142,"mojang":10143,"angon":10144,"sela":10145,"##ousand":10146,"nagar":10147,"digol":10148,"site":10149,"dimekarkeun":10150,"##erty":10151,"medical":10152,"flu":10153,"bedah":10154,"meth":10155,"##antenkeun":10156,"##ense":10157,"badarat":10158,"edition":10159,"nonton":10160,"sangged":10161,"##berg":10162,"sakabehna":10163,"iluminacion":10164,"sastr":10165,"35x":10166,"ningal":10167,"sampai":10168,"kanti":10169,"cau":10170,"small":10171,"raos":10172,"rasu":10173,"floral":10174,"##unjung":10175,"korban":10176,"rahwana":10177,"##drop":10178,"takon":10179,"bird":10180,"##istro":10181,"cahya":10182,"gaun":10183,"lapis":10184,"##awangi":10185,"kemis":10186,"kuno":10187,"panasaran":10188,"tapno":10189,"ngadegna":10190,"banyak":10191,"banyumas":10192,"labuhan":10193,"pertanian":10194,"maksimum":10195,"pancan":10196,"amanat":10197,"sulawesi":10198,"napsu":10199,"wawakil":10200,"pahlawan":10201,"njaluk":10202,"deku":10203,"access":10204,"beunghar":10205,"bengi":10206,"rapat":10207,"twitter":10208,"##aramid":10209,"##tawis":10210,"hiber":10211,"departemen":10212,"##0875":10213,"nyatakeun":10214,"rockwood":10215,"direktur":10216,"pkr":10217,"teachers":10218,"georget":10219,"lisensi":10220,"elektrik":10221,"gapu":10222,"islands":10223,"ditutup":10224,"revisi":10225,"4990875":10226,"migunakeun":10227,"hoodie":10228,"jilbab":10229,"jadwal":10230,"plaza":10231,"kakaisaran":10232,"casting":10233,"mewah":10234,"mahatma":10235,"response":10236,"hormon":10237,"kaosskate":10238,"leyuran":10239,"pamustunganana":10240,"klorida":10241,"kolaborasi":10242,"sebelum":10243,"##urniture":10244,"magazine":10245,"kasuksesan":10246,"pariwisata":10247,"cctv":10248,"fiksimini":10249,"xhamster":10250,"ngawanohkeun":10251,"thailand":10252,"mercedes":10253,"bm":10254,"bih":10255,"bri":10256,"bop":10257,"bew":10258,"bund":10259,"bapan":10260,"cob":10261,"calif":10262,"ds":10263,"dc":10264,"das":10265,"daj":10266,"dre":10267,"dual":10268,"duty":10269,"ever":10270,"fsx":10271,"hah":10272,"hack":10273,"hyp":10274,"horiz":10275,"jim":10276,"jok":10277,"jorn":10278,"jami":10279,"jour":10280,"kk":10281,"lor":10282,"lew":10283,"latan":10284,"liga":10285,"masi":10286,"nuk":10287,"nice":10288,"nawang":10289,"nikm":10290,"pj":10291,"pib":10292,"piw":10293,"pala":10294,"rw":10295,"raw":10296,"rant":10297,"rund":10298,"roll":10299,"right":10300,"sij":10301,"sint":10302,"seum":10303,"tant":10304,"twe":10305,"ust":10306,"wangs":10307,"yi":10308,"zini":10309,"##ias":10310,"##ios":10311,"##hs":10312,"##59":10313,"##uity":10314,"##krip":10315,"##til":10316,"##mit":10317,"##ming":10318,"##d7":10319,"##det":10320,"##ck":10321,"##330":10322,"##fc":10323,"##fan":10324,"##euen":10325,"##eueng":10326,"##erun":10327,"##erus":10328,"##iner":10329,"##ines":10330,"##ahu":10331,"##amad":10332,"diak":10333,"diid":10334,"diasupkeun":10335,"##onto":10336,"##urunan":10337,"ngumb":10338,"##ikaan":10339,"##aden":10340,"##abel":10341,"##abuh":10342,"##abungkeun":10343,"##agas":10344,"##agoan":10345,"##ilat":10346,"##elakan":10347,"##unga":10348,"##apatan":10349,"##edonia":10350,"##etasi":10351,"##iraan":10352,"##anafil":10353,"##omo":10354,"##awacan":10355,"##ido":10356,"kuw":10357,"##entes":10358,"##entina":10359,"##ically":10360,"##okabataan":10361,"##ihon":10362,"nyoba":10363,"##ogan":10364,"##acg":10365,"alex":10366,"alej":10367,"anjeuna":10368,"##uduna":10369,"##ody":10370,"thousand":10371,"perum":10372,"##ece":10373,"##ecapan":10374,"##embleng":10375,"panumpang":10376,"##ipr":10377,"diseb":10378,"##endak":10379,"##ibig":10380,"ach":10381,"sakuduna":10382,"baro":10383,"1920":10384,"pangaj":10385,"pangant":10386,"kurik":10387,"terakhir":10388,"mangs":10389,"chang":10390,"maria":10391,"stadi":10392,"##ched":10393,"isin":10394,"isukna":10395,"isuzu":10396,"##aiz":10397,"##ersil":10398,"pamikiran":10399,"kaossur":10400,"ago":10401,"katon":10402,"katukang":10403,"ayah":10404,"abb":10405,"ngarana":10406,"ngarek":10407,"kapul":10408,"129":10409,"baluk":10410,"##uwangan":10411,"serbag":10412,"akadem":10413,"##engkap":10414,"sababna":10415,"imut":10416,"##120":10417,"komersil":10418,"gray":10419,"kawilang":10420,"using":10421,"usul":10422,"ngabah":10423,"ngabantosan":10424,"kena":10425,"kene":10426,"satuan":10427,"brush":10428,"0013":10429,"tattao":10430,"express":10431,"bound":10432,"##ungkus":10433,"babul":10434,"timber":10435,"patut":10436,"banget":10437,"##oriasis":10438,"diganti":10439,"kelamin":10440,"##amix":10441,"rekaman":10442,"week":10443,"metod":10444,"belanda":10445,"##orejo":10446,"krasa":10447,"scrib":10448,"##ological":10449,"pants":10450,"animasi":10451,"sedih":10452,"seniman":10453,"giru":10454,"kole":10455,"##kabatang":10456,"blogger":10457,"100w":10458,"disebutna":10459,"autoc":10460,"automat":10461,"organi":10462,"engk":10463,"canon":10464,"caina":10465,"cafe":10466,"mutiara":10467,"kampus":10468,"sangapulo":10469,"kepada":10470,"##ciyes":10471,"1992":10472,"florence":10473,"##unjul":10474,"diwanoh":10475,"melihat":10476,"rahman":10477,"rahmat":10478,"erciyes":10479,"##ersial":10480,"uji":10481,"rumaja":10482,"facial":10483,"tablet":10484,"avanafil":10485,"tangkorak":10486,"formul":10487,"mekan":10488,"muatan":10489,"gamis":10490,"mengh":10491,"suwarane":10492,"axd":10493,"current":10494,"mamah":10495,"nambihan":10496,"filmic":10497,"ndad":10498,"trib":10499,"##yako":10500,"tombol":10501,"kutoarjo":10502,"##ercial":10503,"1972":10504,"diyos":10505,"hapon":10506,"tawaran":10507,"##madja":10508,"defin":10509,"hanjakal":10510,"hosting":10511,"tanduk":10512,"vitamin":10513,"local":10514,"pakean":10515,"diskusi":10516,"tonton":10517,"kreatif":10518,"##ekuensi":10519,"panarjamahan":10520,"jhon":10521,"brazilian":10522,"isaac":10523,"##cription":10524,"nasib":10525,"yahudi":10526,"sebutan":10527,"marentahkeun":10528,"together":10529,"mingguan":10530,"bridal":10531,"kaos3dbagus":10532,"kapuas":10533,"kanyahoan":10534,"copyright":10535,"observ":10536,"waktuna":10537,"ceuceu":10538,"lalaunan":10539,"agpaay":10540,"semaure":10541,"georgette":10542,"kaossurfing":10543,"serbaguna":10544,"scribd":10545,"bra":10546,"bula":10547,"cukang":10548,"canggih":10549,"dana":10550,"demen":10551,"demon":10552,"denge":10553,"dampak":10554,"fans":10555,"fard":10556,"gin":10557,"gim":10558,"gia":10559,"giz":10560,"gitar":10561,"hamp":10562,"hour":10563,"honda":10564,"jentre":10565,"keg":10566,"lac":10567,"ladi":10568,"langk":10569,"lug":10570,"leul":10571,"lobana":10572,"maan":10573,"mex":10574,"nfl":10575,"pw":10576,"piran":10577,"pideo":10578,"raks":10579,"sual":10580,"satur":10581,"ted":10582,"tante":10583,"tadina":10584,"utaw":10585,"ve":10586,"vacan":10587,"xia":10588,"за":10589,"про":10590,"ра":10591,"то":10592,"##ners":10593,"##gar":10594,"##ges":10595,"##leu":10596,"##len":10597,"##ser":10598,"##aim":10599,"##eon":10600,"##earch":10601,"##rd":10602,"##rame":10603,"##400":10604,"##well":10605,"##duma":10606,"##bn":10607,"##600":10608,"##8a":10609,"##9000":10610,"##zess":10611,"##xury":10612,"##ил":10613,"##ın":10614,"##alp":10615,"##alink":10616,"##eria":10617,"##inet":10618,"##eunc":10619,"##eunakeun":10620,"##aktur":10621,"diaw":10622,"dialog":10623,"##uron":10624,"ngub":10625,"ngej":10626,"ngeureunkeun":10627,"##iting":10628,"##itor":10629,"##ingkeun":10630,"##ador":10631,"##orth":10632,"##ille":10633,"##aping":10634,"##olahan":10635,"##olobaan":10636,"##olution":10637,"sarebu":10638,"##idad":10639,"##epung":10640,"##upakeun":10641,"##ongton":10642,"##arai":10643,"nyir":10644,"##ogo":10645,"##obih":10646,"##obatan":10647,"ast":10648,"##igit":10649,"##sial":10650,"kalina":10651,"kalolobaan":10652,"##aries":10653,"pananya":10654,"arus":10655,"kaba":10656,"kabag":10657,"kabawa":10658,"kabuka":10659,"nyawang":10660,"adidas":10661,"sabulan":10662,"disamb":10663,"display":10664,"##rey":10665,"##endahan":10666,"##ibah":10667,"sai":10668,"pangd":10669,"dipang":10670,"independ":10671,"karot":10672,"karawang":10673,"terj":10674,"compr":10675,"chart":10676,"mary":10677,"stok":10678,"kamus":10679,"kamana":10680,"kamerd":10681,"pamenta":10682,"pamanggih":10683,"pamekar":10684,"##itive":10685,"tafs":10686,"kaosmurah":10687,"##eutan":10688,"malik":10689,"112":10690,"119":10691,"ngarupakeun":10692,"##ujeung":10693,"##eulikeun":10694,"tren":10695,"trump":10696,"ditilik":10697,"awas":10698,"##loy":10699,"##aliz":10700,"singh":10701,"maksa":10702,"##tribut":10703,"##erix":10704,"ngajantenkeun":10705,"satia":10706,"tatali":10707,"meneng":10708,"sams":10709,"frame":10710,"frase":10711,"interpr":10712,"resolusi":10713,"research":10714,"wakil":10715,"penal":10716,"mount":10717,"175":10718,"bandel":10719,"##adean":10720,"215":10721,"depend":10722,"dilarapkeun":10723,"beban":10724,"bebeneran":10725,"options":10726,"sorana":10727,"miyako":10728,"tekst":10729,"gedung":10730,"tangtos":10731,"ulu":10732,"pullover":10733,"dikal":10734,"dikon":10735,"tulung":10736,"region":10737,"scot":10738,"dark":10739,"##inium":10740,"syi":10741,"33x":10742,"kabataankabataan":10743,"setup":10744,"nalungtik":10745,"jeruk":10746,"pakas":10747,"nurut":10748,"koleksi":10749,"sold":10750,"dinas":10751,"ski":10752,"##ontoh":10753,"shopee":10754,"sasato":10755,"poster":10756,"kantun":10757,"360":10758,"45x":10759,"purple":10760,"panjangna":10761,"pendaptaran":10762,"##702":10763,"didik":10764,"ratus":10765,"dipikanyaho":10766,"rumasa":10767,"german":10768,"bursa":10769,"##incak":10770,"popular":10771,"komponen":10772,"##cgt":10773,"mantra":10774,"instalasi":10775,"percobaan":10776,"kosmet":10777,"tembong":10778,"tonggong":10779,"simpen":10780,"traditional":10781,"public":10782,"nggo":10783,"dosen":10784,"bubuka":10785,"rebuan":10786,"insiny":10787,"pertandingan":10788,"fitri":10789,"valerix":10790,"pancuran":10791,"tangtuna":10792,"zingler":10793,"mudahan":10794,"nerangkeun":10795,"dadduma":10796,"##upaning":10797,"tenang":10798,"pencet":10799,"alias":10800,"spesifikasi":10801,"spesialis":10802,"manajer":10803,"fatih":10804,"ideal":10805,"bikang":10806,"sewangan":10807,"ditarikna":10808,"biblia":10809,"mustika":10810,"kokok":10811,"molek":10812,"cdot":10813,"bintaro":10814,"cintaku":10815,"cintamu":10816,"ilahar":10817,"dingaranan":10818,"cosmos":10819,"ruth":10820,"nyampeurkeun":10821,"arsit":10822,"details":10823,"nyebarkeun":10824,"richard":10825,"episode":10826,"ukraina":10827,"barbuda":10828,"krishna":10829,"##erhana":10830,"laboratori":10831,"emulator":10832,"ayakkabı":10833,"jantoek":10834,"beberesih":10835,"nastiti":10836,"##eungharan":10837,"balmaha":10838,"ditinggalkeun":10839,"stabil":10840,"heaviest":10841,"saragih":10842,"jornal":10843,"alejand":10844,"ladies":10845,"vacanze":10846,"sasatoan":10847,"kosmetik":10848,"1x":10849,"320":10850,"aub":10851,"boro":10852,"craft":10853,"deh":10854,"dup":10855,"dob":10856,"daster":10857,"eun":10858,"euc":10859,"fer":10860,"finan":10861,"give":10862,"hul":10863,"ij":10864,"jih":10865,"jamp":10866,"kw":10867,"kb":10868,"keuk":10869,"ktp":10870,"lod":10871,"look":10872,"mos":10873,"mub":10874,"miw":10875,"morn":10876,"neur":10877,"nanj":10878,"niss":10879,"oth":10880,"puc":10881,"rod":10882,"remen":10883,"rangga":10884,"tk":10885,"tow":10886,"ump":10887,"uber":10888,"vill":10889,"yap":10890,"zrin":10891,"##nor":10892,"##ned":10893,"##lor":10894,"##loc":10895,"##sup":10896,"##hap":10897,"##kas":10898,"##pang":10899,"##pay":10900,"##pro":10901,"##pasan":10902,"##ray":10903,"##rani":10904,"##resi":10905,"##jaman":10906,"##dir":10907,"##bir":10908,"##busi":10909,"##cu":10910,"##cal":10911,"##cnbc":10912,"##atik":10913,"##atip":10914,"##erasi":10915,"##amina":10916,"diob":10917,"diff":10918,"##esar":10919,"kaendahan":10920,"##ading":10921,"##abas":10922,"##abkeun":10923,"##ilation":10924,"##emakeun":10925,"##elds":10926,"##ayun":10927,"##apah":10928,"##umsi":10929,"##edena":10930,"##etas":10931,"##utus":10932,"nug":10933,"##ekun":10934,"##awir":10935,"##awai":10936,"saris":10937,"##idik":10938,"##uhurna":10939,"##upakan":10940,"##ando":10941,"##antika":10942,"##udition":10943,"##igns":10944,"perg":10945,"perb":10946,"perny":10947,"peradaban":10948,"nair":10949,"navel":10950,"##ector":10951,"kalong":10952,"kalebet":10953,"salasa":10954,"nyaah":10955,"##atani":10956,"atos":10957,"action":10958,"saking":10959,"saen":10960,"said":10961,"1930":10962,"kurban":10963,"terusan":10964,"chi":10965,"marantika":10966,"bakteri":10967,"ngaleuwihan":10968,"shad":10969,"tau":10970,"daud":10971,"haram":10972,"harus":10973,"contr":10974,"agensi":10975,"##ancara":10976,"entry":10977,"malem":10978,"abi":10979,"ngarugikeun":10980,"ditet":10981,"dest":10982,"134":10983,"139":10984,"summer":10985,"sunday":10986,"seru":10987,"serikat":10988,"oblong":10989,"reels":10990,"jalanna":10991,"devel":10992,"dibarengan":10993,"ngajarkeun":10994,"ngadadak":10995,"britan":10996,"museum":10997,"tatotato":10998,"meni":10999,"umbul":11000,"friday":11001,"temple":11002,"reseller":11003,"results":11004,"penari":11005,"ngahur":11006,"times":11007,"timbul":11008,"milagro":11009,"##unggung":11010,"sanur":11011,"ukrain":11012,"sagede":11013,"siliwangi":11014,"optim":11015,"##orts":11016,"sawangan":11017,"produktivitas":11018,"beach":11019,"dicar":11020,"dicandak":11021,"##onstr":11022,"pilari":11023,"ekslusif":11024,"ulasan":11025,"dijelaskeun":11026,"##oream":11027,"scor":11028,"telugu":11029,"40x":11030,"heart":11031,"level":11032,"##asso":11033,"duaan":11034,"seperti":11035,"syn":11036,"nurunkeun":11037,"kanada":11038,"kakabs":11039,"sasaha":11040,"motong":11041,"cartus":11042,"kasajatianana":11043,"pentas":11044,"lanza":11045,"rasti":11046,"##ulty":11047,"##tev":11048,"korup":11049,"gadis":11050,"takone":11051,"money":11052,"america":11053,"avenue":11054,"populasi":11055,"busana":11056,"mikiran":11057,"prev":11058,"pembekal":11059,"banxxx":11060,"formal":11061,"amateurados":11062,"eyang":11063,"mandeng":11064,"efisi":11065,"mapag":11066,"maparin":11067,"etnis":11068,"##333":11069,"lounds":11070,"##evy":11071,"wadah":11072,"zinger":11073,"mudik":11074,"intan":11075,"campur":11076,"cilacap":11077,"hijab":11078,"megatkeun":11079,"hiasan":11080,"lulusan":11081,"##trolux":11082,"kekecapan":11083,"nutup":11084,"linzess":11085,"nilik":11086,"piring":11087,"psik":11088,"psoriasis":11089,"lilin":11090,"pencarian":11091,"powersh":11092,"hitut":11093,"purworejo":11094,"iframe":11095,"pingping":11096,"##otees":11097,"##eunteu":11098,"sono":11099,"electrolux":11100,"kukuk":11101,"karaoke":11102,"nyerat":11103,"devotees":11104,"annakna":11105,"jeans":11106,"permalink":11107,"hambalan":11108,"rental":11109,"satengahing":11110,"sendai":11111,"pasien":11112,"hardware":11113,"periode":11114,"gugur":11115,"##ership":11116,"##orized":11117,"pangpangna":11118,"priangan":11119,"vietnam":11120,"lhok":11121,"moment":11122,"nudes":11123,"gempar":11124,"ngahargaan":11125,"##jski":11126,"church":11127,"bocah":11128,"reggae":11129,"cawene":11130,"israel":11131,"jebule":11132,"puncak":11133,"merdeka":11134,"ngalahirkeun":11135,"##ecutive":11136,"berlaku":11137,"soteh":11138,"meujeuhna":11139,"construction":11140,"lexmark":11141,"televisi":11142,"manipud":11143,"mahasajati":11144,"peneliti":11145,"kurikulum":11146,"autocad":11147,"ndadekna":11148,"piranuk":11149,"kabagjaan":11150,"insinyur":11151,"nissan":11152,"zrinjski":11153,"pernyataan":11154,"kakabsatna":11155,"powershell":11156,"bong":11157,"bawa":11158,"beub":11159,"cig":11160,"cub":11161,"certi":11162,"donald":11163,"eco":11164,"fem":11165,"furniture":11166,"gæ":11167,"hen":11168,"hong":11169,"hanya":11170,"hudang":11171,"ky":11172,"lob":11173,"lakukeun":11174,"meur":11175,"muan":11176,"mengg":11177,"meungp":11178,"pij":11179,"peup":11180,"rd":11181,"rarancang":11182,"sunan":11183,"setan":11184,"td":11185,"tube":11186,"vik":11187,"very":11188,"virt":11189,"ws":11190,"wasiat":11191,"yud":11192,"yate":11193,"ze":11194,"zaman":11195,"##los":11196,"##ional":11197,"##hum":11198,"##reg":11199,"##redit":11200,"##yt":11201,"##01":11202,"##jal":11203,"##ject":11204,"##mur":11205,"##mba":11206,"##d67":11207,"##box":11208,"##burg":11209,"##cen":11210,"##core":11211,"##c17":11212,"##cadc":11213,"##710":11214,"##far":11215,"##ен":11216,"##لا":11217,"##alk":11218,"##ath":11219,"##inata":11220,"##asat":11221,"##ason":11222,"##assi":11223,"##akang":11224,"##amaya":11225,"dianj":11226,"##ural":11227,"kaom":11228,"kaja":11229,"nget":11230,"ngeusian":11231,"ngokolakeun":11232,"##orer":11233,"##abad":11234,"##abil":11235,"##abbat":11236,"##ilna":11237,"##ilkeun":11238,"##emahan":11239,"##elet":11240,"##ayar":11241,"##ungun":11242,"##app":11243,"##edah":11244,"##etah":11245,"##etara":11246,"##engkeun":11247,"##engers":11248,"##utes":11249,"##eungkeut":11250,"##ekt":11251,"sarwa":11252,"into":11253,"includ":11254,"pred":11255,"pradesh":11256,"##ept":11257,"##enter":11258,"##ande":11259,"##andapan":11260,"##ication":11261,"nyug":11262,"nyiksa":11263,"##ogoh":11264,"alue":11265,"##egui":11266,"##odel":11267,"##igu":11268,"kasta":11269,"kasab":11270,"peringkat":11271,"pernik":11272,"kalau":11273,"##ariah":11274,"panulis":11275,"argo":11276,"##ipta":11277,"kabuk":11278,"##undul":11279,"##ambang":11280,"acak":11281,"sakti":11282,"saum":11283,"saint":11284,"saacan":11285,"pangand":11286,"dipic":11287,"##empoan":11288,"andh":11289,"ngali":11290,"ngaleungitkeun":11291,"kamulya":11292,"1080":11293,"shut":11294,"##isten":11295,"117":11296,"ngareng":11297,"ngaropea":11298,"parir":11299,"127":11300,"balapan":11301,"ditand":11302,"131":11303,"00064":11304,"##uard":11305,"##anjut":11306,"mesh":11307,"sahijina":11308,"komersial":11309,"dibagikeun":11310,"ngabagikeun":11311,"ngabedakeun":11312,"ngadalikeun":11313,"merk":11314,"merupakan":11315,"upacara":11316,"minor":11317,"elyaman":11318,"##ift":11319,"##ifikan":11320,"frekuensi":11321,"babad":11322,"battery":11323,"penampilan":11324,"murphy":11325,"pinunjul":11326,"cool":11327,"count":11328,"sagar":11329,"depok":11330,"dirasa":11331,"sukur":11332,"sawak":11333,"sawetara":11334,"medis":11335,"##ce25":11336,"##imba":11337,"kelir":11338,"dicekel":11339,"ulikan":11340,"meakkeun":11341,"metot":11342,"##antenan":11343,"50x":11344,"juara":11345,"telah":11346,"mulia":11347,"##achi":11348,"idin":11349,"darajat":11350,"darurat":11351,"lee":11352,"kera":11353,"tarung":11354,"syah":11355,"330":11356,"peteng":11357,"petrus":11358,"giribig":11359,"##encangan":11360,"papa":11361,"kakurangan":11362,"pornografi":11363,"transfer":11364,"suite":11365,"suasana":11366,"cry":11367,"crit":11368,"cryp":11369,"gunana":11370,"keper":11371,"perlakuan":11372,"potret":11373,"tutup":11374,"irak":11375,"soem":11376,"persis":11377,"biradir":11378,"bireuen":11379,"faculty":11380,"kayat":11381,"lapak":11382,"lapangan":11383,"wasta":11384,"wastap":11385,"mirip":11386,"gelem":11387,"stream":11388,"kemeja":11389,"gagak":11390,"miss":11391,"tembal":11392,"panggedena":11393,"tva":11394,"centre":11395,"central":11396,"leungeunna":11397,"muara":11398,"kesel":11399,"##nye":11400,"rebate":11401,"##338a":11402,"perteng":11403,"kulawargana":11404,"demok":11405,"epstein":11406,"roma":11407,"jaye":11408,"00055":11409,"nambah":11410,"cileung":11411,"deliv":11412,"##hatikeun":11413,"philip":11414,"botol":11415,"wawacan":11416,"judeo":11417,"commercial":11418,"sumatera":11419,"broery":11420,"1984":11421,"##100338a":11422,"abdullah":11423,"rapid":11424,"pingat":11425,"dhevy":11426,"ngantep":11427,"nganteurkeun":11428,"hariwang":11429,"kengingkeun":11430,"penjualan":11431,"lubong":11432,"mohabbat":11433,"##aksanaan":11434,"eces":11435,"vitamix":11436,"membuat":11437,"publikopalikuran":11438,"kamampuh":11439,"pangluhurna":11440,"bintang":11441,"##aptarkeun":11442,"caket":11443,"##chester":11444,"leading":11445,"private":11446,"scient":11447,"science":11448,"jogja":11449,"shirak":11450,"css":11451,"cimata":11452,"tudung":11453,"beresih":11454,"friendly":11455,"tight":11456,"kasaimbangan":11457,"sinareng":11458,"pangbadag":11459,"mawule":11460,"##abutuh":11461,"fakultatif":11462,"gupay":11463,"requir":11464,"medicine":11465,"adipati":11466,"kumargi":11467,"999d67":11468,"govern":11469,"fortune":11470,"banglades":11471,"aristegui":11472,"##adbce25":11473,"kasatiaan":11474,"favorit":11475,"piyama":11476,"##uploadet":11477,"##anthara":11478,"dimethy":11479,"ktm":11480,"advertis":11481,"eksklusif":11482,"pontianak":11483,"ditangtukeun":11484,"sumawona":11485,"bewara":11486,"ustad":11487,"##d7c17":11488,"##emblengna":11489,"kapuloan":11490,"timberland":11491,"formulir":11492,"penaltev":11493,"##702adbce25":11494,"laboratorium":11495,"finansial":11496,"others":11497,"ukrainian":11498,"gæst":11499,"##cadc100338a":11500,"kamulyaan":11501,"pangbadagna":11502,"999d67cadc100338a":11503,"aristeguieta":11504,"##702adbce25d7c17":11505,"999d67cadc100338a702adbce25d7c17":11506,"220":11507,"888":11508,"audi":11509,"bs":11510,"beuli":11511,"cij":11512,"ceri":11513,"candak":11514,"cloud":11515,"damp":11516,"eud":11517,"earn":11518,"fut":11519,"fals":11520,"func":11521,"fancy":11522,"faiz":11523,"gmail":11524,"hs":11525,"huru":11526,"human":11527,"isi":11528,"jeu":11529,"jind":11530,"joe":11531,"joshua":11532,"kisi":11533,"kunj":11534,"lec":11535,"lunc":11536,"ms":11537,"md":11538,"nr":11539,"need":11540,"nomb":11541,"nungt":11542,"neundeun":11543,"nolak":11544,"peut":11545,"paku":11546,"pock":11547,"rana":11548,"rug":11549,"rupi":11550,"sac":11551,"sane":11552,"squ":11553,"sesep":11554,"tent":11555,"vo":11556,"vib":11557,"visa":11558,"wash":11559,"wond":11560,"zari":11561,"##gp":11562,"##gin":11563,"##iq":11564,"##52":11565,"##53":11566,"##oang":11567,"##kk":11568,"##kari":11569,"##kursus":11570,"##van":11571,"##rot":11572,"##ylam":11573,"##jad":11574,"##mir":11575,"##dar":11576,"##den":11577,"##book":11578,"##350":11579,"##94":11580,"##ри":11581,"##ит":11582,"##له":11583,"##arki":11584,"##alak":11585,"##atihan":11586,"##asc":11587,"##enj":11588,"##enz":11589,"##enko":11590,"##akena":11591,"##amak":11592,"dilah":11593,"kafe":11594,"anul":11595,"ngn":11596,"ngil":11597,"ngos":11598,"##ikin":11599,"##ikum":11600,"##ikir":11601,"##adari":11602,"##adua":11603,"##orowok":11604,"##ilaw":11605,"##elu":11606,"##elasan":11607,"##umn":11608,"##uth":11609,"##eungitan":11610,"##ekab":11611,"##otam":11612,"##otoh":11613,"pra":11614,"##epe":11615,"##andhar":11616,"##ongj":11617,"##antaran":11618,"##antuan":11619,"##ogen":11620,"alang":11621,"##ians":11622,"aspir":11623,"##eget":11624,"though":11625,"##ige":11626,"kasin":11627,"perh":11628,"naz":11629,"salapan":11630,"manchester":11631,"adil":11632,"adina":11633,"disaster":11634,"mahdi":11635,"##rees":11636,"atl":11637,"atlet":11638,"span":11639,"barina":11640,"1960":11641,"pangr":11642,"kurma":11643,"dipil":11644,"indik":11645,"karat":11646,"karad":11647,"##main":11648,"chap":11649,"marc":11650,"ngalebetkeun":11651,"apel":11652,"pamasaran":11653,"##itions":11654,"taq":11655,"katal":11656,"parade":11657,"##intang":11658,"124":11659,"bale":11660,"track":11661,"kacapi":11662,"kacatur":11663,"awon":11664,"carats":11665,"description":11666,"137":11667,"sumur":11668,"serial":11669,"aktor":11670,"aktivitas":11671,"149":11672,"mesem":11673,"kompr":11674,"makedonia":11675,"kawih":11676,"##uyukeun":11677,"user":11678,"ngabuktikeun":11679,"satuju":11680,"satelit":11681,"satuluy":11682,"ngadukung":11683,"ngadeukeutan":11684,"brasil":11685,"musa":11686,"tatapi":11687,"minuman":11688,"polina":11689,"eling":11690,"pemas":11691,"##iff":11692,"##osting":11693,"##iller":11694,"245":11695,"murag":11696,"patuh":11697,"patch":11698,"seluar":11699,"sagemblengna":11700,"modular":11701,"itam":11702,"303":11703,"optra":11704,"anggeus":11705,"relay":11706,"aheng":11707,"##ships":11708,"tekenan":11709,"puteri":11710,"##ustakaan":11711,"rekening":11712,"ngawaler":11713,"registr":11714,"semi":11715,"semesta":11716,"besi":11717,"telp":11718,"telat":11719,"##lamylam":11720,"##ageakeun":11721,"tarian":11722,"terpadu":11723,"seti":11724,"nurun":11725,"when":11726,"dinar":11727,"slots":11728,"dalang":11729,"pesind":11730,"ilang":11731,"macam":11732,"basura":11733,"meme":11734,"sangat":11735,"airbr":11736,"ajian":11737,"iran":11738,"##dren":11739,"prints":11740,"##lesh":11741,"dariyah":11742,"pdam":11743,"nembus":11744,"nembongan":11745,"mikaresep":11746,"pembel":11747,"jeroen":11748,"faith":11749,"gagal":11750,"netelakeun":11751,"kosih":11752,"nyiar":11753,"labels":11754,"blackjack":11755,"ramadan":11756,"##jamah":11757,"pertama":11758,"corong":11759,"corpor":11760,"##ograf":11761,"karyawan":11762,"curug":11763,"suling":11764,"kotor":11765,"damel":11766,"damai":11767,"wawasan":11768,"reviewed":11769,"njero":11770,"antib":11771,"cibubur":11772,"kutang":11773,"reueus":11774,"sungut":11775,"mitos":11776,"anggotas":11777,"bhd":11778,"pihatur":11779,"pangarti":11780,"archive":11781,"signifikan":11782,"dangd":11783,"tawen":11784,"statistik":11785,"withdrawalextra":11786,"rieut":11787,"hilap":11788,"publiko":11789,"##rusong":11790,"00096":11791,"pakaian":11792,"shoot":11793,"pendekatan":11794,"tutunggangan":11795,"nenjo":11796,"tunggul":11797,"argentina":11798,"gmnt":11799,"kondisi":11800,"shirts":11801,"nyusul":11802,"grafik":11803,"kompleks":11804,"aluminium":11805,"jangkungna":11806,"chemical":11807,"improv":11808,"ngundeur":11809,"mayoritas":11810,"hutang":11811,"practice":11812,"mathemat":11813,"diturunkeun":11814,"halamang":11815,"linggih":11816,"wenno":11817,"antrian":11818,"sarimbit":11819,"cusanus":11820,"arnold":11821,"ontario":11822,"coaching":11823,"bopati":11824,"##kripsi":11825,"panganteur":11826,"mexico":11827,"tekstil":11828,"pakasaban":11829,"morning":11830,"saenyana":11831,"korupsi":11832,"muani":11833,"nyugemakeun":11834,"pertengahan":11835,"dimethylamylam":11836,"luncat":11837,"dilahirkeun":11838,"satuluyna":11839,"airbrush":11840,"gmntv":11841,"dimethylamylamine":11842,"700":11843,"aver":11844,"bara":11845,"bbc":11846,"bilik":11847,"cung":11848,"corn":11849,"ceuli":11850,"dod":11851,"ej":11852,"ele":11853,"fen":11854,"fajar":11855,"gemb":11856,"guj":11857,"hor":11858,"hem":11859,"jr":11860,"jarah":11861,"kta":11862,"keh":11863,"keus":11864,"korn":11865,"less":11866,"nis":11867,"naj":11868,"nob":11869,"noko":11870,"nincak":11871,"pg":11872,"puj":11873,"pudno":11874,"rasi":11875,"ringk":11876,"sanc":11877,"suj":11878,"sunt":11879,"tuhan":11880,"tungkul":11881,"tohan":11882,"uz":11883,"vip":11884,"wet":11885,"wanda":11886,"yekun":11887,"##next":11888,"##lov":11889,"##had":11890,"##2na":11891,"##kel":11892,"##ket":11893,"##vato":11894,"##rap":11895,"##rolan":11896,"##your":11897,"##440":11898,"##meme":11899,"##millah":11900,"##web":11901,"##daya":11902,"##bing":11903,"##388":11904,"##fah":11905,"##fatna":11906,"##friend":11907,"##сь":11908,"##ая":11909,"##anch":11910,"##arik":11911,"##arap":11912,"##ared":11913,"##aringa":11914,"##atul":11915,"##atto":11916,"##eresna":11917,"##asm":11918,"##asyan":11919,"##eunah":11920,"##akukan":11921,"##akilan":11922,"ditaw":11923,"##oning":11924,"##onom":11925,"##uro":11926,"##urai":11927,"##esc":11928,"##esek":11929,"anane":11930,"ngudag":11931,"##itoy":11932,"##ituna":11933,"##ikh":11934,"##iket":11935,"##agin":11936,"##elak":11937,"##ayasa":11938,"##unghul":11939,"##apura":11940,"##olis":11941,"##olor":11942,"saran":11943,"##idan":11944,"##idity":11945,"##oti":11946,"##otek":11947,"##other":11948,"prores":11949,"prawir":11950,"205":11951,"##andal":11952,"tiyang":11953,"##ebang":11954,"##ebaskeun":11955,"nyel":11956,"##oge":11957,"##acana":11958,"alan":11959,"alur":11960,"alusna":11961,"asi":11962,"##egel":11963,"throw":11964,"##opi":11965,"perawan":11966,"perba":11967,"##ections":11968,"kalpasan":11969,"panen":11970,"panier":11971,"salur":11972,"arvato":11973,"matan":11974,"kabug":11975,"kabeungharan":11976,"manjing":11977,"##ugas":11978,"adoh":11979,"blu":11980,"sabtu":11981,"##lee":11982,"spo":11983,"split":11984,"spicy":11985,"##ambat":11986,"##ended":11987,"bismillah":11988,"jalu":11989,"jalandhar":11990,"bareto":11991,"1970":11992,"dipih":11993,"dipib":11994,"##overy":11995,"masak":11996,"##mai":11997,"maaf":11998,"chann":11999,"chasing":12000,"martab":12001,"touch":12002,"teangan":12003,"pasualan":12004,"enter":12005,"##indr":12006,"malak":12007,"parl":12008,"kapir":12009,"bala":12010,"ditempo":12011,"plain":12012,"##awane":12013,"orok":12014,"00068":12015,"sumb":12016,"##room":12017,"seratan":12018,"akur":12019,"obrolan":12020,"rear":12021,"laur":12022,"emi":12023,"emut":12024,"##allilaw":12025,"##128":12026,"ngadagoan":12027,"##life":12028,"##eaza":12029,"halal":12030,"brow":12031,"merc":12032,"##inggal":12033,"tatu":12034,"minimum":12035,"palaku":12036,"##osted":12037,"##illar":12038,"##illon":12039,"board":12040,"bath":12041,"batok":12042,"penang":12043,"utong":12044,"angla":12045,"##off":12046,"bahrain":12047,"distribu":12048,"##entayo":12049,"moderen":12050,"bebek":12051,"aherat":12052,"235":12053,"sajer":12054,"subuh":12055,"sawawa":12056,"ikh":12057,"##she":12058,"##shirt":12059,"sore":12060,"medal":12061,"beas":12062,"##ornia":12063,"dicitak":12064,"pilules":12065,"filed":12066,"ekstrim":12067,"belakang":12068,"##prop":12069,"regional":12070,"tahap":12071,"scrip":12072,"multip":12073,"sekitar":12074,"idul":12075,"darso":12076,"embuh":12077,"taruhan":12078,"jerona":12079,"repres":12080,"replied":12081,"##usahakeun":12082,"nurul":12083,"paper":12084,"panyatur":12085,"leso":12086,"sasaran":12087,"gareng":12088,"simulasi":12089,"suits":12090,"smk":12091,"raz":12092,"bao":12093,"baen":12094,"lanang":12095,"ajouter":12096,"##toskeun":12097,"1993":12098,"1991":12099,"didaptarkeun":12100,"##lands":12101,"junun":12102,"rating":12103,"kebat":12104,"rumus":12105,"highbay":12106,"##imalkeun":12107,"waspada":12108,"##izer":12109,"herang":12110,"gelo":12111,"jumlahna":12112,"kaleresan":12113,"mikawanoh":12114,"pedag":12115,"daunna":12116,"quot":12117,"quoc":12118,"gancangna":12119,"##tablish":12120,"pangguna":12121,"ambeh":12122,"compet":12123,"##adosados":12124,"77x":12125,"lemak":12126,"bacaan":12127,"support":12128,"mungguh":12129,"tasik":12130,"corona":12131,"curr":12132,"haseup":12133,"dokument":12134,"move":12135,"roman":12136,"field":12137,"login":12138,"namung":12139,"iii":12140,"industrial":12141,"hijrah":12142,"deli":12143,"ninggang":12144,"tours":12145,"lakas":12146,"udan":12147,"udin":12148,"##ysis":12149,"banjar":12150,"mental":12151,"menteri":12152,"lulugu":12153,"pahang":12154,"celebr":12155,"lelemb":12156,"watesan":12157,"lounge":12158,"santang":12159,"tussar":12160,"eksekutif":12161,"sipatna":12162,"tumuwuhna":12163,"perdana99":12164,"##urnakeun":12165,"geger":12166,"ditarima":12167,"ditarjamahkeun":12168,"tolay":12169,"boxe":12170,"shiam":12171,"diterangkeun":12172,"sateuacanna":12173,"charles":12174,"years":12175,"fixture":12176,"tiris":12177,"virgin":12178,"jabar":12179,"##forma":12180,"##forward":12181,"hamil":12182,"judulna":12183,"##adiredja":12184,"pepelakan":12185,"educational":12186,"dialek":12187,"meunasah":12188,"rutin":12189,"serdadu":12190,"knowyour":12191,"bumn":12192,"benteng":12193,"smartphone":12194,"dengue":12195,"bpkb":12196,"precision":12197,"nyumput":12198,"rumpaka":12199,"sleev":12200,"menjadi":12201,"tersebut":12202,"leaf":12203,"ethn":12204,"##allahu":12205,"alarms":12206,"activities":12207,"payuneun":12208,"cancel":12209,"gawena":12210,"mucunghul":12211,"##ground":12212,"diteang":12213,"sumpah":12214,"immun":12215,"stepper":12216,"affumicata":12217,"##backs":12218,"cariosan":12219,"dubai":12220,"would":12221,"ngintunkeun":12222,"sholat":12223,"joseph":12224,"performance":12225,"method":12226,"nikmat":12227,"interpretasi":12228,"dikaluarkeun":12229,"keukeuh":12230,"parirea":12231,"jindera":12232,"sesepuh":12233,"kabugaran":12234,"anglais":12235,"knowyourmeme":12236,"666":12237,"atra":12238,"bangka":12239,"bass":12240,"btc":12241,"cang":12242,"cengk":12243,"core":12244,"calik":12245,"cape":12246,"dd":12247,"dung":12248,"dot":12249,"dahan":12250,"daga":12251,"dusun":12252,"ew":12253,"fee":12254,"fire":12255,"februari":12256,"geut":12257,"gips":12258,"heg":12259,"irig":12260,"jaran":12261,"jari":12262,"jend":12263,"jess":12264,"kokot":12265,"kumpul":12266,"leh":12267,"lintas":12268,"mamb":12269,"mual":12270,"mcg":12271,"moro":12272,"oj":12273,"oem":12274,"oks":12275,"occ":12276,"pimp":12277,"pcs":12278,"que":12279,"qatar":12280,"rew":12281,"rare":12282,"renc":12283,"ragam":12284,"ranjang":12285,"rasso":12286,"tc":12287,"tf":12288,"vod":12289,"wiw":12290,"wish":12291,"wartos":12292,"yell":12293,"yeku":12294,"za":12295,"zel":12296,"##nama":12297,"##nane":12298,"##leb":12299,"##hak":12300,"##uff":12301,"##tv":12302,"##vu":12303,"##pu":12304,"##pak":12305,"##eem":12306,"##yd":12307,"##150":12308,"##73":12309,"##81":12310,"##fri":12311,"##ло":12312,"##бо":12313,"##ار":12314,"##arya":12315,"##alika":12316,"##alindungan":12317,"##atin":12318,"##ather":12319,"##atayo":12320,"##angtu":12321,"##erm":12322,"##asur":12323,"##ahaman":12324,"##enn":12325,"##enkeun":12326,"diti":12327,"diaku":12328,"dide":12329,"##onton":12330,"##ester":12331,"##eska":12332,"kav":12333,"kaun":12334,"ans":12335,"anake":12336,"ngen":12337,"ngangg":12338,"ngari":12339,"ngaman":12340,"ngedit":12341,"##itusi":12342,"##isir":12343,"##ington":12344,"##orter":12345,"##tac":12346,"##taur":12347,"##usd":12348,"##abai":12349,"##agangan":12350,"##ilo":12351,"##emet":12352,"##ulisan":12353,"##apak":12354,"##apul":12355,"##irik":12356,"##uten":12357,"##utung":12358,"##ukota":12359,"##omet":12360,"##olo":12361,"##olang":12362,"##oleh":12363,"##ides":12364,"inten":12365,"inuman":12366,"inner":12367,"pram":12368,"tiga":12369,"##okal":12370,"##ebe":12371,"##anteng":12372,"nyic":12373,"nyoe":12374,"alit":12375,"along":12376,"##udara":12377,"##ties":12378,"asam":12379,"##ijaya":12380,"##ampung":12381,"##eureum":12382,"##eureuy":12383,"perbu":12384,"##adip":12385,"kalian":12386,"##embaban":12387,"panunot":12388,"sales":12389,"saling":12390,"ureueng":12391,"arc":12392,"##ohol":12393,"kabogoh":12394,"blast":12395,"acum":12396,"saked":12397,"sao":12398,"saest":12399,"karusi":12400,"karunya":12401,"tool":12402,"ngalih":12403,"seep":12404,"kamlesh":12405,"pamahaman":12406,"shj":12407,"taxi":12408,"teing":12409,"##anced":12410,"ayer":12411,"##inde":12412,"paras":12413,"##euleum":12414,"kaping":12415,"balap":12416,"trade":12417,"turut":12418,"place":12419,"##iwir":12420,"##iwatan":12421,"lamat":12422,"leuit":12423,"sumela":12424,"sertif":12425,"143":12426,"kadar":12427,"kadın":12428,"mesih":12429,"makan":12430,"saptu":12431,"ngabentuk":12432,"ngajar":12433,"ngadawuh":12434,"bukuna":12435,"halus":12436,"185":12437,"186":12438,"##2019":12439,"brings":12440,"merasa":12441,"00100":12442,"upd":12443,"minat":12444,"palebah":12445,"same":12446,"umar":12447,"##umba":12448,"babaen":12449,"indonesie":12450,"pinjaman":12451,"##ikanyaah":12452,"210":12453,"sagampil":12454,"artos":12455,"surah":12456,"beber":12457,"silver":12458,"286":12459,"pags":12460,"pageuh":12461,"putus":12462,"##imbulan":12463,"padal":12464,"files":12465,"ulon":12466,"ultra":12467,"meet":12468,"dikur":12469,"tulus":12470,"ngawitan":12471,"lagee":12472,"reguler":12473,"ketua":12474,"scrat":12475,"mbak":12476,"telu":12477,"kiy":12478,"##untungkeun":12479,"pantom":12480,"pantolon":12481,"leon":12482,"tarjamahan":12483,"kabataann":12484,"narjamahkeun":12485,"petaling":12486,"tetempoan":12487,"60x":12488,"nurh":12489,"where":12490,"kolam":12491,"##ctg":12492,"##encan":12493,"##encar":12494,"sinuhun":12495,"10000":12496,"##ontak":12497,"panyalindungan":12498,"maxi":12499,"tambang":12500,"liya":12501,"pesen":12502,"macem":12503,"such":12504,"butut":12505,"basana":12506,"smas":12507,"neang":12508,"lebet":12509,"melayu":12510,"gadget":12511,"ingon":12512,"birth":12513,"gaul":12514,"grosirkaos":12515,"jurnal":12516,"gerak":12517,"gelas":12518,"gelut":12519,"avengers":12520,"##cgcg":12521,"cerv":12522,"fauna":12523,"promot":12524,"##itude":12525,"istana":12526,"columb":12527,"muin":12528,"dosage":12529,"ramah":12530,"kartun":12531,"loundagin":12532,"ukuranana":12533,"##latin":12534,"samber":12535,"captiv":12536,"capital":12537,"kristal":12538,"nerapkeun":12539,"senior":12540,"gumelar":12541,"sisimbulan":12542,"udud":12543,"gabungan":12544,"judg":12545,"mending":12546,"##ternal":12547,"##formation":12548,"lumangsungna":12549,"1957":12550,"pamajikanana":12551,"mabasa":12552,"bikin":12553,"ngidih":12554,"geget":12555,"hapunten":12556,"mustard":12557,"racun":12558,"visual":12559,"hanjuang":12560,"fixtures":12561,"devot":12562,"profesor":12563,"golden":12564,"massal":12565,"sawareh":12566,"nadid":12567,"rsat":12568,"nganceng":12569,"indah99":12570,"keuangan":12571,"poma":12572,"muterkeun":12573,"tampilan":12574,"following":12575,"##alifah":12576,"##elatina":12577,"begin":12578,"social":12579,"kuburan":12580,"africa":12581,"##zhen":12582,"rerencangan":12583,"problem":12584,"dzat":12585,"champa":12586,"further":12587,"nayanthara":12588,"riwayat":12589,"snow":12590,"diamond":12591,"ganggang":12592,"nunas":12593,"nyingkahan":12594,"covid":12595,"kasadaran":12596,"pneum":12597,"kabebeng":12598,"mongolia":12599,"nungkulan":12600,"##business":12601,"alternatif":12602,"mertimbangkeun":12603,"diterbitkeun":12604,"parameter":12605,"william":12606,"salveaza":12607,"portugal":12608,"beautiful":12609,"##magandang":12610,"asetat":12611,"perpustakaan":12612,"cylindr":12613,"himalayan":12614,"pangsaena":12615,"##ugjug":12616,"digolongkeun":12617,"fluores":12618,"bapane":12619,"california":12620,"tantangan":12621,"perumahan":12622,"kabaelan":12623,"tafsir":12624,"samsung":12625,"alejandro":12626,"virtual":12627,"pernikahan":12628,"1080p":12629,"pocket":12630,"kafein":12631,"distribuie":12632,"gipsum":12633,"irigasi":12634,"saestuna":12635,"karusiahan":12636,"cylindrical":12637,"421":12638,"beun":12639,"bord":12640,"bima":12641,"cipan":12642,"daha":12643,"duc":12644,"dance":12645,"ebs":12646,"fall":12647,"four":12648,"fda":12649,"geng":12650,"gara":12651,"gly":12652,"hina":12653,"haj":12654,"hajat":12655,"karan":12656,"kimp":12657,"lr":12658,"lov":12659,"lech":12660,"nm":12661,"nz":12662,"paw":12663,"paran":12664,"pest":12665,"pembang":12666,"r2":12667,"reun":12668,"rengk":12669,"rongk":12670,"sg":12671,"sna":12672,"suh":12673,"slo":12674,"sound":12675,"uri":12676,"vd":12677,"von":12678,"vag":12679,"vent":12680,"vers":12681,"veri":12682,"vows":12683,"w16":12684,"winter":12685,"x18":12686,"zo":12687,"zap":12688,"zakat":12689,"ка":12690,"##nas":12691,"##net":12692,"##list":12693,"##liv":12694,"##iet":12695,"##ss":12696,"##sna":12697,"##hari":12698,"##hahu":12699,"##2s":12700,"##280":12701,"##oz":12702,"##avi":12703,"##tian":12704,"##pe":12705,"##pre":12706,"##rab":12707,"##rel":12708,"##rian":12709,"##rug":12710,"##rahan":12711,"##yn":12712,"##yon":12713,"##ycl":12714,"##03":12715,"##410":12716,"##jul":12717,"##wawacan":12718,"##bel":12719,"##cence":12720,"##110":12721,"##zed":12722,"##да":12723,"##ات":12724,"##ان":12725,"##anna":12726,"##atl":12727,"##atic":12728,"##atide":12729,"##astra":12730,"##enk":12731,"##ament":12732,"dihar":12733,"diatas":12734,"##uram":12735,"##eser":12736,"kae":12737,"kajang":12738,"ngi":12739,"ngungsi":12740,"##itus":12741,"##tage":12742,"##abit":12743,"##agat":12744,"##agia":12745,"##agaan":12746,"##ilingan":12747,"##ulin":12748,"##ulintas":12749,"##umlah":12750,"##edan":12751,"##irl":12752,"##iry":12753,"##ukaan":12754,"sarana":12755,"saringan":12756,"inqu":12757,"202":12758,"##entingna":12759,"##anded":12760,"##andekwa":12761,"nyampak":12762,"nyuhunkeun":12763,"##ampahkeun":12764,"##igireun":12765,"##oph":12766,"kasang":12767,"kasajati":12768,"perman":12769,"perawatan":12770,"kaleungitan":12771,"##teran":12772,"panor":12773,"saluyu":12774,"saleresna":12775,"ard":12776,"arin":12777,"##ework":12778,"##ohok":12779,"##ublic":12780,"##angkalih":12781,"##artikeun":12782,"##ipi":12783,"manfaat":12784,"bli":12785,"blond":12786,"diset":12787,"disiksa":12788,"mahk":12789,"maharaja":12790,"##ocus":12791,"##undut":12792,"##endong":12793,"active":12794,"sauw":12795,"saving":12796,"##ahanan":12797,"dipedar":12798,"karaton":12799,"##empang":12800,"mangra":12801,"##cher":12802,"bakar":12803,"##amani":12804,"isukan":12805,"ngalengkepan":12806,"amis":12807,"seorang":12808,"pamay":12809,"pamimpin":12810,"pamutah":12811,"deuleu":12812,"conrad":12813,"pasal":12814,"pasaran":12815,"pasea":12816,"##istina":12817,"##inds":12818,"mall":12819,"118":12820,"ngarobih":12821,"paral":12822,"plas":12823,"##loom":12824,"carbon":12825,"designs":12826,"##the":12827,"##997":12828,"00065":12829,"00095":12830,"phi":12831,"phys":12832,"142":12833,"14xx":12834,"151":12835,"kadali":12836,"berikut":12837,"bermain":12838,"emir":12839,"kontr":12840,"gran":12841,"sapedah":12842,"usb":12843,"ngager":12844,"ngagol":12845,"ngagent":12846,"ngagant":12847,"ngabayangkeun":12848,"branding":12849,"brebes":12850,"##211":12851,"upc":12852,"biola":12853,"palatih":12854,"samatiga":12855,"##ansk":12856,"##astik":12857,"##ungkir":12858,"babari":12859,"babagi":12860,"restaur":12861,"ngahaturkeun":12862,"doctor":12863,"uteuk":12864,"angen":12865,"angle":12866,"##unggalan":12867,"counc":12868,"self":12869,"selandia":12870,"buuk":12871,"dilakonan":12872,"lalulintas":12873,"siling":12874,"digambarkeun":12875,"sitem":12876,"265":12877,"##eunangkeun":12878,"budakna":12879,"sawala":12880,"##share":12881,"putrana":12882,"222":12883,"flower":12884,"keluli":12885,"##ustaka":12886,"dicatet":12887,"dikubur":12888,"dunarea":12889,"luhurna":12890,"##alahkeun":12891,"mulai":12892,"ibnu":12893,"sekali":12894,"sektor":12895,"establish":12896,"embe":12897,"sepur":12898,"syeh":12899,"333":12900,"postdate":12901,"naros":12902,"repair":12903,"##ankan":12904,"girang":12905,"dining":12906,"dinars":12907,"ska":12908,"##wear":12909,"makeupmakeup":12910,"pesenan":12911,"kajaba":12912,"kajuruan":12913,"mother":12914,"bulanan":12915,"##hargaan":12916,"betah":12917,"pendant":12918,"khalifah":12919,"ajengan":12920,"galur":12921,"galaksi":12922,"galunggung":12923,"gampil":12924,"didatangan":12925,"konsult":12926,"cashback":12927,"ingk":12928,"nakap":12929,"payat":12930,"lantas":12931,"laptop":12932,"##ized":12933,"lumrah":12934,"calana":12935,"jaring":12936,"faq":12937,"network":12938,"taloja":12939,"talatah":12940,"otot":12941,"export":12942,"panasehat":12943,"computer":12944,"compilation":12945,"pribumi":12946,"notes":12947,"##jamin":12948,"jeneng":12949,"demo":12950,"kotmi":12951,"##sky":12952,"manufaktur":12953,"even":12954,"##zzo":12955,"nduw":12956,"secara":12957,"bekele":12958,"dekhahu":12959,"welas":12960,"anggotam":12961,"incu":12962,"silihwangi":12963,"cutatan":12964,"kandel":12965,"nitah":12966,"addaan":12967,"gurung":12968,"rmx":12969,"purwakarta":12970,"b005":12971,"tahanan":12972,"penyiar":12973,"bikini":12974,"sonar":12975,"sonic":12976,"nyambungkeun":12977,"dangding":12978,"happy":12979,"kukituna":12980,"mustah":12981,"beauty":12982,"portal":12983,"kokoc":12984,"cashoutextra":12985,"##yatakeun":12986,"tomboybaguhang":12987,"jabatan":12988,"location":12989,"hindia":12990,"diskon":12991,"pakait":12992,"various":12993,"writ":12994,"individual":12995,"teaching":12996,"elektron":12997,"hantem":12998,"dolph":12999,"dituturkeun":13000,"mostar":13001,"gendari":13002,"##cript":13003,"lanceuk":13004,"##entrekeun":13005,"launch":13006,"living":13007,"rinci":13008,"churidar":13009,"continu":13010,"gangguan":13011,"batavia":13012,"panaw":13013,"community":13014,"nokia":13015,"rangeela":13016,"renault":13017,"kalibet":13018,"dikawasa":13019,"riau":13020,"anugerah":13021,"alkitab":13022,"guarant":13023,"iskandar":13024,"dihapus":13025,"nungguan":13026,"ditingali":13027,"konstitusi":13028,"kaospremium":13029,"nagsasalsal":13030,"aqiq":13031,"sv388":13032,"matematika":13033,"pengeluar":13034,"flyer":13035,"hosp":13036,"kocap":13037,"kaoscowok":13038,"nedunan":13039,"diidinan":13040,"stadium":13041,"brushes":13042,"xiaomi":13043,"lodaya":13044,"diobral":13045,"##uditioncasting":13046,"develop":13047,"britania":13048,"andhra":13049,"ngalieuk":13050,"cryst":13051,"cileungsi":13052,"scientific":13053,"false":13054,"pemasok":13055,"average":13056,"##asyano":13057,"channel":13058,"sauwise":13059,"pamutahiran":13060,"aqiqah":13061,"212":13062,"3xl":13063,"440":13064,"5000":13065,"bk":13066,"bic":13067,"bgr":13068,"cod":13069,"cite":13070,"cities":13071,"dalah":13072,"dhar":13073,"fal":13074,"ful":13075,"guh":13076,"gok":13077,"gri":13078,"hass":13079,"husna":13080,"hutan":13081,"hungkul":13082,"ie":13083,"iing":13084,"juh":13085,"jeg":13086,"lahan":13087,"lisan":13088,"laki":13089,"meb":13090,"mess":13091,"migawe":13092,"mikanyaah":13093,"nc":13094,"nunda":13095,"ojo":13096,"px":13097,"pember":13098,"piano":13099,"p3d":13100,"peuntas":13101,"patani":13102,"rang":13103,"rangk":13104,"rout":13105,"roko":13106,"sob":13107,"seul":13108,"siki":13109,"tart":13110,"tact":13111,"uu":13112,"uv":13113,"vin":13114,"vac":13115,"won":13116,"wap":13117,"wol":13118,"yat":13119,"yerus":13120,"zen":13121,"при":13122,"##lass":13123,"##lace":13124,"##iyan":13125,"##t15":13126,"##vo":13127,"##vic":13128,"##panjang":13129,"##eat":13130,"##raw":13131,"##roll":13132,"##rich":13133,"##yas":13134,"##yun":13135,"##mis":13136,"##may":13137,"##wati":13138,"##dh":13139,"##bp":13140,"##bre":13141,"##crib":13142,"##160":13143,"##zan":13144,"##ко":13145,"##кл":13146,"##arab":13147,"##arag":13148,"##alungun":13149,"##atina":13150,"##atujuan":13151,"##asu":13152,"##enh":13153,"##ench":13154,"##enalan":13155,"##enatide":13156,"##amun":13157,"##eset":13158,"kaz":13159,"kaalaman":13160,"anush":13161,"antawis":13162,"ngep":13163,"ngong":13164,"ngasang":13165,"ngras":13166,"nguntungkeun":13167,"##ingly":13168,"##iku":13169,"##iker":13170,"##adas":13171,"##org":13172,"##taun":13173,"##usul":13174,"##agg":13175,"##aged":13176,"##iliki":13177,"##elis":13178,"##eless":13179,"##aykeun":13180,"##ulia":13181,"##apati":13182,"##oshi":13183,"##umule":13184,"##edo":13185,"##etch":13186,"##uto":13187,"##utur":13188,"##utuhkeun":13189,"##ukai":13190,"##omem":13191,"##idae":13192,"inton":13193,"pras":13194,"prep":13195,"prawan":13196,"kuu":13197,"##enti":13198,"##andana":13199,"##icated":13200,"tia":13201,"##okabataanpalikuran":13202,"##okteran":13203,"##ihna":13204,"##arac":13205,"##eba":13206,"##001":13207,"nyorang":13208,"nyembah":13209,"##oggy":13210,"alon":13211,"##uduh":13212,"##eusan":13213,"kasur":13214,"##eca":13215,"##ective":13216,"##embur":13217,"panongton":13218,"urat":13219,"arj":13220,"aras":13221,"arsip":13222,"##ewos":13223,"##ohokeun":13224,"kabuy":13225,"kabayang":13226,"nyaw":13227,"aduh":13228,"disababkeun":13229,"disarankeun":13230,"disalin":13231,"##ref":13232,"##endar":13233,"##iban":13234,"jalaran":13235,"saurna":13236,"saulus":13237,"pangj":13238,"pangab":13239,"panganten":13240,"pangadilan":13241,"pangrojong":13242,"kurtis":13243,"dipisah":13244,"diposting":13245,"karep":13246,"karesep":13247,"##ovani":13248,"maehan":13249,"chal":13250,"stan":13251,"states":13252,"##chu":13253,"apdet":13254,"kamekaran":13255,"pameget":13256,"shin":13257,"hare":13258,"kaosmus":13259,"##isto":13260,"##indian":13261,"##indiran":13262,"ngareret":13263,"parad":13264,"parna":13265,"##into":13266,"siyah":13267,"kapilih":13268,"kapungkur":13269,"balang":13270,"kaciri":13271,"ditump":13272,"ditanya":13273,"places":13274,"caringin":13275,"##thro":13276,"136":13277,"##oyok":13278,"serang":13279,"akum":13280,"obyek":13281,"146":13282,"157":13283,"kuddle":13284,"boneka":13285,"berd":13286,"imb":13287,"mesum":13288,"koma":13289,"grill":13290,"usik":13291,"ngabutuhkeun":13292,"ngaja":13293,"ngajerit":13294,"brun":13295,"bray":13296,"brug":13297,"kahareup":13298,"kahadean":13299,"musibah":13300,"upaya":13301,"##ordania":13302,"mineral":13303,"samodel":13304,"exenatide":13305,"163":13306,"##ifer":13307,"##ostone":13308,"bou":13309,"249":13310,"babagian":13311,"259":13312,"resepi":13313,"resort":13314,"resour":13315,"resensi":13316,"ngahiji":13317,"murangkalih":13318,"sanalika":13319,"patr":13320,"patempatan":13321,"patepung":13322,"bahagia":13323,"modal":13324,"itungan":13325,"305":13326,"gear":13327,"kulantaran":13328,"within":13329,"relatif":13330,"iklim":13331,"advis":13332,"medi":13333,"putu":13334,"beasts":13335,"newak":13336,"haq":13337,"pilot":13338,"filip":13339,"eksp":13340,"dikel":13341,"belas":13342,"screw":13343,"mbang":13344,"mbaru":13345,"juu":13346,"stress":13347,"edisi":13348,"daratang":13349,"mimin":13350,"##areja":13351,"europ":13352,"##alsp":13353,"##encies":13354,"since":13355,"##iester":13356,"pesisir":13357,"ilham":13358,"##ojaya":13359,"simalungun":13360,"klang":13361,"##sekeun":13362,"suit":13363,"motif":13364,"kangen":13365,"bait":13366,"sangu":13367,"##ques":13368,"khong":13369,"bungsu":13370,"rasane":13371,"outlet":13372,"1994":13373,"##suit":13374,"diwenangkeun":13375,"ombak":13376,"##special":13377,"didahar":13378,"irung":13379,"konsultan":13380,"4724":13381,"##ylum":13382,"swedia":13383,"cashable":13384,"kebudayaan":13385,"tega":13386,"reform":13387,"monc":13388,"##istry":13389,"dihijikeun":13390,"payil":13391,"fact":13392,"face":13393,"factor":13394,"koperasi":13395,"tipi":13396,"juragan":13397,"gerentes":13398,"lumaku":13399,"lumayan":13400,"train":13401,"##caa":13402,"655":13403,"65x":13404,"lengkap":13405,"kuncen":13406,"amateuramateur":13407,"misteri":13408,"diperk":13409,"rosihon":13410,"tongos":13411,"cardigan":13412,"orange":13413,"editor":13414,"maksimal":13415,"bantu":13416,"kids":13417,"hdfc":13418,"known":13419,"wadahna":13420,"ekonom":13421,"nampilkeun":13422,"kristo":13423,"evolution":13424,"megah":13425,"section":13426,"##ongkok":13427,"ptg":13428,"ngabales":13429,"1989":13430,"bhakti":13431,"lilana":13432,"volume":13433,"ft²":13434,"rajut":13435,"specific":13436,"sandi":13437,"background":13438,"cipta":13439,"##eunteun":13440,"kanyataanna":13441,"bible":13442,"lubipr":13443,"portable":13444,"baguhankabataang":13445,"duration":13446,"jason":13447,"الله":13448,"pangkolot":13449,"##radun":13450,"##ferensi":13451,"affili":13452,"humidity":13453,"ngadengekeun":13454,"seger":13455,"cangkeng":13456,"dugem":13457,"aminah":13458,"administratif":13459,"ongkoh":13460,"kreed":13461,"tinggalkan":13462,"praktek":13463,"management":13464,"founding":13465,"sindrom":13466,"soccer":13467,"pangpentingna":13468,"dawuhan":13469,"nyusun":13470,"maipaay":13471,"cbt":13472,"gending":13473,"cycl":13474,"jajaka":13475,"hyd":13476,"kamanunggalan":13477,"embroidered":13478,"mujer":13479,"tradingview":13480,"steel":13481,"integrasi":13482,"ungu":13483,"mahabatara":13484,"academy":13485,"diabetes":13486,"asyari":13487,"saparantos":13488,"cengata":13489,"minimalis":13490,"navigasi":13491,"pituin":13492,"sauce":13493,"pemerintah":13494,"ditempatkeun":13495,"mammut":13496,"rifat":13497,"dream":13498,"journal":13499,"kuwu":13500,"ngarekam":13501,"diwanohkeun":13502,"bulao":13503,"gizi":13504,"arsitektur":13505,"dehradun":13506,"ditetepkeun":13507,"pangandaran":13508,"delivery":13509,"government":13510,"dampal":13511,"huruf":13512,"ngosongkeun":13513,"kornel":13514,"##attoo":13515,"ditawarkeun":13516,"perbaikan":13517,"browse":13518,"##sheim":13519,"lelembutan":13520,"pantomim":13521,"cervantes":13522,"konsultasi":13523,"mustahil":13524,"kokocoran":13525,"yerusalem":13526,"lubiprostone":13527,"pangkolotna":13528,"2xl":13529,"370":13530,"4k":13531,"640":13532,"aeon":13533,"bn":13534,"both":13535,"cemp":13536,"cobaan":13537,"dop":13538,"daku":13539,"due":13540,"ear":13541,"euk":13542,"esa":13543,"econ":13544,"earth":13545,"fb":13546,"fan":13547,"gus":13548,"gid":13549,"gong":13550,"geb":13551,"gomb":13552,"hj":13553,"heunteu":13554,"href":13555,"kis":13556,"kip":13557,"kost":13558,"lom":13559,"langka":13560,"meri":13561,"mingk":13562,"nakar":13563,"nick":13564,"neka":13565,"og":13566,"otor":13567,"pund":13568,"pisah":13569,"pustaka":13570,"rip":13571,"rind":13572,"rani":13573,"rach":13574,"rentang":13575,"sod":13576,"sati":13577,"sate":13578,"sayan":13579,"sungk":13580,"sne":13581,"tung":13582,"tana":13583,"tani":13584,"tonj":13585,"tepang":13586,"tshirt":13587,"vas":13588,"wes":13589,"wai":13590,"wulan":13591,"yp":13592,"yoga":13593,"не":13594,"##lap":13595,"##lek":13596,"##leg":13597,"##lami":13598,"##iatan":13599,"##sch":13600,"##seri":13601,"##hr":13602,"##hab":13603,"##uangan":13604,"##tech":13605,"##vika":13606,"##put":13607,"##rit":13608,"##rim":13609,"##ryl":13610,"##rary":13611,"##yum":13612,"##yant":13613,"##09":13614,"##4000":13615,"##jet":13616,"##jian":13617,"##jee":13618,"##mon":13619,"##weg":13620,"##down":13621,"##bet":13622,"##batu":13623,"##343":13624,"##6s":13625,"##8s":13626,"##83":13627,"##fac":13628,"##оя":13629,"##री":13630,"##ال":13631,"##سلا":13632,"##areg":13633,"##aland":13634,"##alongan":13635,"##ince":13636,"##asane":13637,"##aham":13638,"##akah":13639,"##akak":13640,"##akabataanpalikuran":13641,"dias":13642,"dihareup":13643,"##onc":13644,"##urr":13645,"##urug":13646,"##esha":13647,"kaadilan":13648,"ngoj":13649,"##itel":13650,"##isahan":13651,"##inget":13652,"##ikal":13653,"##adana":13654,"##adahon":13655,"##unes":13656,"##emy":13657,"##eland":13658,"##ayoran":13659,"##ulder":13660,"##osisi":13661,"##umani":13662,"##edn":13663,"##edur":13664,"##irakeun":13665,"##ehensif":13666,"##ukon":13667,"##ometer":13668,"##imas":13669,"##ektif":13670,"##ekabataang":13671,"##awah":13672,"##away":13673,"##awahan":13674,"inisi":13675,"##oto":13676,"premi":13677,"kuwat":13678,"##ajag":13679,"##uhung":13680,"##uhid":13681,"##upun":13682,"##entasi":13683,"##ention":13684,"##icals":13685,"##ebab":13686,"##antang":13687,"##antin":13688,"##antis":13689,"nyu":13690,"nyah":13691,"nyor":13692,"nyob":13693,"nyungsi":13694,"##riel":13695,"##tiar":13696,"asin":13697,"asylum":13698,"##egal":13699,"thi":13700,"three":13701,"##igur":13702,"##opohokeun":13703,"perf":13704,"peraturan":13705,"teut":13706,"nai":13707,"naik":13708,"kaluh":13709,"##embara":13710,"##emburan":13711,"pann":13712,"panah":13713,"salinan":13714,"saluhur":13715,"##ubi":13716,"manik":13717,"manif":13718,"manjang":13719,"adap":13720,"adore":13721,"adaban":13722,"blo":13723,"block":13724,"saben":13725,"disump":13726,"##reased":13727,"atmos":13728,"##anganana":13729,"sakieu":13730,"1978":13731,"pangna":13732,"diputer":13733,"##empl":13734,"##empat":13735,"##empuan":13736,"terengg":13737,"mangtaun":13738,"maib":13739,"ngalirkeun":13740,"ngalamar":13741,"ngaleupaskeun":13742,"amid":13743,"seins":13744,"##aiyan":13745,"kamal":13746,"pamar":13747,"pamiar":13748,"unj":13749,"latang":13750,"taat":13751,"const":13752,"conver":13753,"agt":13754,"##ancnbc":13755,"pasrah":13756,"##uceng":13757,"katangt":13758,"abg":13759,"ngarang":13760,"six":13761,"sifatna":13762,"kapar":13763,"126":13764,"ball":13765,"kacaturkeun":13766,"ditunda":13767,"fore":13768,"deskripsi":13769,"132":13770,"seremban":13771,"akbar":13772,"obeng":13773,"phone":13774,"phuceng":13775,"beranda":13776,"konf":13777,"konfirmasi":13778,"gradu":13779,"sapatu":13780,"##uykeun":13781,"usman":13782,"ngaganti":13783,"ngabela":13784,"ngabandingkeun":13785,"ngabageakeun":13786,"kenc":13787,"kenken":13788,"halangan":13789,"broch":13790,"meres":13791,"mereka":13792,"kahoku":13793,"museurkeun":13794,"minutes":13795,"bieu":13796,"biag":13797,"biography":13798,"polen":13799,"elemen":13800,"palang":13801,"executive":13802,"umb":13803,"##ife":13804,"##ify":13805,"asteras":13806,"##umbo":13807,"##ungku":13808,"babar":13809,"babasan":13810,"pener":13811,"nangis":13812,"utamina":13813,"milari":13814,"miliar":13815,"warnana":13816,"211":13817,"##orious":13818,"dila":13819,"handloom":13820,"nagan":13821,"geek":13822,"surup":13823,"silinder":13824,"dires":13825,"supreme":13826,"dimungkinkeun":13827,"##omean":13828,"antarane":13829,"sorot":13830,"mio":13831,"baratos":13832,"danes":13833,"danum":13834,"paguron":13835,"##imber":13836,"padet":13837,"pilato":13838,"pilemburan":13839,"weight":13840,"pulak":13841,"pulisi":13842,"dikumpul":13843,"walk":13844,"dijalankeun":13845,"ngawula":13846,"ngawujud":13847,"belt":13848,"krim":13849,"##ensky":13850,"cathol":13851,"caterp":13852,"keterangan":13853,"dataran":13854,"photograp":13855,"mburi":13856,"telek":13857,"mult":13858,"ibukota":13859,"seksi":13860,"sekret":13861,"lainnya":13862,"propag":13863,"properti":13864,"learn":13865,"##assar":13866,"embaran":13867,"duta":13868,"reput":13869,"report":13870,"pakid":13871,"dagitoy":13872,"kolom":13873,"mayid":13874,"skor":13875,"##eje":13876,"kanakas":13877,"lieur":13878,"##reath":13879,"##ojo":13880,"##apait":13881,"glu":13882,"##ekelan":13883,"transf":13884,"viol":13885,"sampun":13886,"ngamumule":13887,"basket":13888,"puri":13889,"memiliki":13890,"##fier":13891,"ajeg":13892,"galak":13893,"outextra":13894,"melaka":13895,"keep":13896,"##landia":13897,"konsumsi":13898,"soanten":13899,"##808":13900,"topeng":13901,"takdir":13902,"tegangan":13903,"refl":13904,"higher":13905,"highway":13906,"major":13907,"angkeuhan":13908,"375":13909,"kayseri":13910,"lapar":13911,"mirib":13912,"jurit":13913,"perkiraan":13914,"tues":13915,"players":13916,"nature":13917,"faux":13918,"gagah":13919,"gagiyan":13920,"banner":13921,"experi":13922,"undeuran":13923,"tinangtu":13924,"presents":13925,"toys":13926,"tongue":13927,"wayahna":13928,"cards":13929,"russ":13930,"rusuh":13931,"insya":13932,"76ers":13933,"coupon":13934,"maksad":13935,"jambu":13936,"organik":13937,"knob":13938,"sidebar":13939,"curric":13940,"bayi":13941,"bayar":13942,"bayaran":13943,"zingsheim":13944,"namina":13945,"nampik":13946,"kristus":13947,"##blonde":13948,"golek":13949,"words":13950,"hijian":13951,"##euyeuk":13952,"filmwork":13953,"saterasna":13954,"pei":13955,"wawuh":13956,"mlebu":13957,"gabriel":13958,"njagong":13959,"##eudeuh":13960,"ciburuan":13961,"dbp":13962,"1981":13963,"loud":13964,"guitar":13965,"sipil":13966,"lawon":13967,"twn":13968,"ragu":13969,"platforma":13970,"b004":13971,"##issance":13972,"kodeu":13973,"1971":13974,"pekalongan":13975,"panghasilan":13976,"sentral":13977,"##ochr":13978,"wujudna":13979,"define":13980,"mohon":13981,"charger":13982,"albums":13983,"##iksaan":13984,"cdn":13985,"cangkeme":13986,"yusuf":13987,"derajat":13988,"jeff":13989,"cepet":13990,"books":13991,"ngancik":13992,"malavika":13993,"##tags":13994,"sakadar":13995,"leaders":13996,"ngapung":13997,"nuluykeun":13998,"adoscasting":13999,"length":14000,"fisika":14001,"ancur":14002,"kubur":14003,"beungeutna":14004,"rancage":14005,"##ния":14006,"tukendi":14007,"wallpaper":14008,"cyber":14009,"kamanah":14010,"lancar":14011,"inovatif":14012,"parahu":14013,"konvensi":14014,"konveksi":14015,"##operasi":14016,"slee":14017,"syariah":14018,"##board":14019,"ngandika":14020,"marentah":14021,"kinap":14022,"leave":14023,"punjab":14024,"punjabi":14025,"fakultas":14026,"pinggir":14027,"renaissance":14028,"kabebasan":14029,"academic":14030,"diablo":14031,"diajak":14032,"clothes":14033,"antarct":14034,"tjakr":14035,"##odiak":14036,"periodeu":14037,"jepara":14038,"runtah":14039,"condong":14040,"kaosbandung":14041,"rukun":14042,"political":14043,"akibat":14044,"alpha":14045,"kapangaruhan":14046,"professor":14047,"sabagean":14048,"jisim":14049,"disinformation":14050,"storage":14051,"iwak":14052,"shipping":14053,"castingados":14054,"hyper":14055,"tweet":14056,"pangajen":14057,"mangsana":14058,"dengekeun":14059,"utawi":14060,"ngubaran":14061,"kamerdikaan":14062,"mounted":14063,"dependency":14064,"scotland":14065,"differ":14066,"perguruan":14067,"dicaritakeun":14068,"efisien":14069,"meungpeung":14070,"kunjungan":14071,"nombu":14072,"dipilampah":14073,"karadaiyan":14074,"komprehensif":14075,"martabat":14076,"kokotor":14077,"yellow":14078,"zelensky":14079,"kimpalan":14080,"leche":14081,"pembangunan":14082,"rongkah":14083,"kasajatiana":14084,"hospital":14085,"kabuyutan":14086,"hydro":14087,"kornelio":14088,"##سلام":14089,"terengganu":14090,"pamiarsa":14091,"caterpillar":14092,"curriculum":14093,"filmworkers":14094,"1st":14095,"278":14096,"420":14097,"978":14098,"ain":14099,"bt":14100,"bani":14101,"bawang":14102,"camb":14103,"creat":14104,"ceo":14105,"dand":14106,"deus":14107,"doy":14108,"dengk":14109,"eya":14110,"eug":14111,"fu":14112,"fm":14113,"fuj":14114,"font":14115,"farm":14116,"funda":14117,"focus":14118,"gund":14119,"gala":14120,"gha":14121,"genah":14122,"hape":14123,"horeng":14124,"hoream":14125,"ilo":14126,"jt":14127,"jip":14128,"kv":14129,"kik":14130,"katan":14131,"kiran":14132,"kym":14133,"lik":14134,"lara":14135,"lud":14136,"lest":14137,"layang":14138,"luang":14139,"lurah":14140,"mua":14141,"mort":14142,"mts":14143,"nih":14144,"nig":14145,"naman":14146,"nada":14147,"nump":14148,"paya":14149,"paman":14150,"pse":14151,"puwit":14152,"qod":14153,"rh":14154,"ruh":14155,"ramp":14156,"rika":14157,"randa":14158,"rugi":14159,"rally":14160,"router":14161,"seus":14162,"sini":14163,"seub":14164,"seukeut":14165,"tl":14166,"tick":14167,"uyah":14168,"viv":14169,"vape":14170,"vokal":14171,"wifi":14172,"yk":14173,"yaris":14174,"##nia":14175,"##lm":14176,"##iu":14177,"##sab":14178,"##sul":14179,"##hai":14180,"##hard":14181,"##aikan":14182,"##uya":14183,"##koo":14184,"##tn":14185,"##vide":14186,"##pers":14187,"##eing":14188,"##ejang":14189,"##rach":14190,"##yane":14191,"##jeum":14192,"##jawab":14193,"##jects":14194,"##wir":14195,"##wara":14196,"##dan":14197,"##bia":14198,"##bou":14199,"##cin":14200,"##cow":14201,"##cra":14202,"##contoh":14203,"##86":14204,"##8000":14205,"##zen":14206,"##fy":14207,"##ол":14208,"##ла":14209,"##ус":14210,"##ية":14211,"##ــ":14212,"##arga":14213,"##ardi":14214,"##alap":14215,"##alek":14216,"##atmadja":14217,"##erba":14218,"##erland":14219,"##inity":14220,"##ahasa":14221,"##akana":14222,"##akeup":14223,"##aktif":14224,"##amoan":14225,"diangg":14226,"##uras":14227,"kaagam":14228,"kaitung":14229,"kafir":14230,"anat":14231,"ngeng":14232,"ngoc":14233,"##itt":14234,"##itkeun":14235,"##itsu":14236,"##isina":14237,"##isade":14238,"##oral":14239,"##usu":14240,"##agkeun":14241,"##elm":14242,"##elna":14243,"##ayna":14244,"##ulous":14245,"##apu":14246,"##umuskeun":14247,"##edes":14248,"##etot":14249,"##engin":14250,"##engeh":14251,"##eho":14252,"##utup":14253,"##eungan":14254,"nupay":14255,"##imana":14256,"sarang":14257,"sarapan":14258,"sarupaning":14259,"##otte":14260,"kual":14261,"##uhudan":14262,"##andu":14263,"tiba":14264,"##ihov":14265,"##ongo":14266,"##ongna":14267,"##antha":14268,"nyeta":14269,"nyerang":14270,"##acinta":14271,"##ianat":14272,"##tible":14273,"ipad":14274,"##aransi":14275,"then":14276,"thurs":14277,"##igen":14278,"##igna":14279,"kasir":14280,"kasusah":14281,"kasebat":14282,"##anggaran":14283,"##anggihan":14284,"##siz":14285,"kalamata":14286,"##tre":14287,"ureung":14288,"aranjeun":14289,"armen":14290,"aruba":14291,"maturan":14292,"##oha":14293,"##arto":14294,"##ipkeun":14295,"manis":14296,"manene":14297,"blus":14298,"saba":14299,"sabuk":14300,"disamp":14301,"disebat":14302,"atlit":14303,"##undra":14304,"bisane":14305,"acryl":14306,"sakiba":14307,"##wait":14308,"1975":14309,"panginten":14310,"pangurus":14311,"kurangna":14312,"dipind":14313,"karung":14314,"karim":14315,"##empur":14316,"terd":14317,"ofer":14318,"masigit":14319,"mangl":14320,"maur":14321,"maung":14322,"chair":14323,"marengan":14324,"stun":14325,"iso":14326,"isun":14327,"isbn":14328,"ngalal":14329,"amm":14330,"seek":14331,"sha":14332,"shen":14333,"shim":14334,"unkn":14335,"hargana":14336,"deud":14337,"##ucu":14338,"eneng":14339,"##indit":14340,"malam":14341,"abedn":14342,"paru":14343,"diteundeun":14344,"##999":14345,"00066":14346,"serat":14347,"akon":14348,"akurat":14349,"##aliza":14350,"##eupan":14351,"152":14352,"kudus":14353,"bond":14354,"berat":14355,"eme":14356,"kontri":14357,"mese":14358,"henteuna":14359,"komandan":14360,"makassar":14361,"gros":14362,"grade":14363,"kawen":14364,"kawula":14365,"sapt":14366,"sapotong":14367,"usaren":14368,"ngaged":14369,"ngabantuan":14370,"ngajadi":14371,"ngajamin":14372,"kenku":14373,"##ested":14374,"ngadang":14375,"ngadangu":14376,"##eauty":14377,"merta":14378,"kahontal":14379,"minus":14380,"biologis":14381,"palisade":14382,"169":14383,"##astis":14384,"##umbung":14385,"front":14386,"fruity":14387,"interi":14388,"batir":14389,"battle":14390,"reserv":14391,"penonton":14392,"slow":14393,"##unggu":14394,"warisan":14395,"warni":14396,"bahaya":14397,"luhung":14398,"cootam":14399,"seler":14400,"select":14401,"##ouse":14402,"buick":14403,"##ishing":14404,"bangunan":14405,"dilihat":14406,"sury":14407,"download3":14408,"direct":14409,"direction":14410,"dimuat":14411,"sukam":14412,"relev":14413,"sajam":14414,"sajumlah":14415,"285":14416,"289":14417,"iki":14418,"##sha":14419,"pengaw":14420,"advanced":14421,"putusan":14422,"bej":14423,"225":14424,"##eumen":14425,"kelembaban":14426,"padeukeut":14427,"pilah":14428,"ekspres":14429,"pulos":14430,"krisis":14431,"seminar":14432,"doa":14433,"baduga":14434,"ess":14435,"estr":14436,"heels":14437,"darul":14438,"property":14439,"keren":14440,"magrib":14441,"syirik":14442,"terperc":14443,"sedulur":14444,"sederhana":14445,"postnext":14446,"##elling":14447,"##eee":14448,"narajang":14449,"pikas":14450,"##plin":14451,"blogovani":14452,"dinam":14453,"skala":14454,"skrin":14455,"panyimp":14456,"maxwell":14457,"435":14458,"kakasangan":14459,"liat":14460,"sasih":14461,"kajayaan":14462,"kajuhudan":14463,"crew":14464,"waas":14465,"caangna":14466,"baseuh":14467,"lokasina":14468,"wangsa":14469,"panonna":14470,"purch":14471,"internal":14472,"kepong":14473,"aje":14474,"partey":14475,"lebuh":14476,"415":14477,"diwaler":14478,"gading":14479,"didinya":14480,"soul":14481,"soekab":14482,"jago":14483,"ingin":14484,"perseus":14485,"tegalan":14486,"yaitu":14487,"dihati":14488,"decor":14489,"angkot":14490,"angkasa":14491,"anggotac":14492,"widadari":14493,"kayong":14494,"dumuk":14495,"buruh":14496,"kusumah":14497,"##herat":14498,"565":14499,"##ross":14500,"575":14501,"produce":14502,"production":14503,"nembalan":14504,"tuwa":14505,"legana":14506,"taliti":14507,"##zaar":14508,"benang":14509,"benarasi":14510,"quant":14511,"tangkalna":14512,"sirna":14513,"##tables":14514,"vanity":14515,"tvu":14516,"prosedur":14517,"sunway":14518,"simpulan":14519,"kesehatan":14520,"layung":14521,"777":14522,"supply":14523,"jenengan":14524,"redeem":14525,"suwasana":14526,"knihov":14527,"poin":14528,"wadone":14529,"idiom":14530,"stapl":14531,"##abalu":14532,"schools":14533,"tingal":14534,"tungtak":14535,"bobotoh":14536,"868":14537,"damas":14538,"hadis":14539,"hadits":14540,"berkat":14541,"featur":14542,"ignor":14543,"nempokeun":14544,"miceun":14545,"udagan":14546,"banjarm":14547,"secur":14548,"library":14549,"pangawasa":14550,"siklus":14551,"bijil":14552,"##eudeung":14553,"celtic":14554,"kutu":14555,"kutojaya":14556,"termas":14557,"nutupan":14558,"links":14559,"tepat":14560,"ucul":14561,"arabia":14562,"luxury":14563,"omongane":14564,"camera":14565,"guide":14566,"psd":14567,"beungkeut":14568,"1959":14569,"kandaraan":14570,"added":14571,"babaturanana":14572,"nike":14573,"withdrawalsp":14574,"remaja":14575,"raglan":14576,"mukena":14577,"150w":14578,"lolos":14579,"dhillon":14580,"estim":14581,"##euwat":14582,"pcb":14583,"pabur":14584,"cashoutexclusive":14585,"nyerep":14586,"protection":14587,"technolog":14588,"limited":14589,"##стоя":14590,"announ":14591,"benzalk":14592,"homem":14593,"shoes":14594,"shoulder":14595,"lepat":14596,"tunggara":14597,"00087":14598,"georgia":14599,"##veyor":14600,"build":14601,"##aliguan":14602,"alaska":14603,"ceureumen":14604,"cosmet":14605,"sibuk":14606,"kadieu":14607,"ancaman":14608,"tebih":14609,"vault":14610,"gotna":14611,"owl":14612,"dimaksudkeun":14613,"nuduhkeun":14614,"tpc":14615,"nyumponan":14616,"timbalan":14617,"country":14618,"montong":14619,"episod":14620,"ngedalkeun":14621,"hehehe":14622,"##ель":14623,"continue":14624,"bocor":14625,"dwip":14626,"##nagar":14627,"disiplin":14628,"sports":14629,"dipikahayang":14630,"reggaeska":14631,"pinggiran":14632,"samudaya":14633,"rooms":14634,"##eboard":14635,"children":14636,"innova":14637,"nyuwara":14638,"ditembongkeun":14639,"cikalong":14640,"unay":14641,"padumukan":14642,"jaipong":14643,"jaipongan":14644,"records":14645,"necklace":14646,"nyepeng":14647,"h9r":14648,"nimbulkeun":14649,"##virus":14650,"nyukma":14651,"ngucapkeun":14652,"kuantitas":14653,"pangmeulikeun":14654,"sastrawan":14655,"labuhanbatu":14656,"pancaniti":14657,"dajal":14658,"achie":14659,"balukarna":14660,"observasi":14661,"hours":14662,"raksasa":14663,"##alpuri":14664,"jampe":14665,"##supreme":14666,"shadrach":14667,"meshach":14668,"sawaktos":14669,"indikator":14670,"pembelajaran":14671,"##ografis":14672,"prawiradiredja":14673,"spoiler":14674,"script":14675,"sleeves":14676,"leaflet":14677,"nyicingan":14678,"sertifikasi":14679,"beberapa":14680,"nurhaliza":14681,"zapatos":14682,"##previous":14683,"council":14684,"sitemap":14685,"dolphin":14686,"crystal":14687,"bicara":14688,"dharma":14689,"tactical":14690,"##клю":14691,"arasumani":14692,"econom":14693,"sneak":14694,"katangtuan":14695,"brochure":14696,"dikumpulkeun":14697,"photographer":14698,"propaganda":14699,"kanakasabai":14700,"kaagamaan":14701,"armenia":14702,"unknown":14703,"abednego":14704,"kenkuana":14705,"cootamundra":14706,"terpercaya":14707,"soekabo":14708,"withdrawalspecial":14709,"benzalkonium":14710,"340":14711,"480":14712,"5xl":14713,"baan":14714,"baja":14715,"bomb":14716,"benc":14717,"bumen":14718,"bile":14719,"borong":14720,"cid":14721,"cost":14722,"c15":14723,"cimah":14724,"dg":14725,"dend":14726,"debut":14727,"eb":14728,"etos":14729,"fuk":14730,"fri":14731,"fuc":14732,"fulan":14733,"fish":14734,"goy":14735,"gawang":14736,"ganing":14737,"geuwat":14738,"hati":14739,"hits":14740,"hope":14741,"ios":14742,"jangg":14743,"jangk":14744,"jug":14745,"joy":14746,"jengk":14747,"jodo":14748,"jumbo":14749,"kust":14750,"kway":14751,"liw":14752,"loy":14753,"lihat":14754,"lanjar":14755,"liha":14756,"meus":14757,"maman":14758,"mcl":14759,"mora":14760,"mold":14761,"nir":14762,"nani":14763,"nanti":14764,"oy":14765,"ong":14766,"peuk":14767,"pira":14768,"pianak":14769,"qs":14770,"rate":14771,"round":14772,"s2":14773,"sangka":14774,"susan":14775,"seungit":14776,"tm":14777,"tami":14778,"tach":14779,"tni":14780,"tread":14781,"tmc":14782,"u2":14783,"vig":14784,"vigan":14785,"woy":14786,"ways":14787,"witan":14788,"wiz":14789,"yuda":14790,"youth":14791,"zh":14792,"zag":14793,"дл":14794,"на":14795,"##nn":14796,"##ls":14797,"##lay":14798,"##low":14799,"##lers":14800,"##lock":14801,"##ien":14802,"##iak":14803,"##sid":14804,"##hur":14805,"##uin":14806,"##uve":14807,"##kat":14808,"##kun":14809,"##kap":14810,"##kada":14811,"##kins":14812,"##tin":14813,"##tik":14814,"##toc":14815,"##tori":14816,"##vert":14817,"##vatos":14818,"##porn":14819,"##eas":14820,"##een":14821,"##rp":14822,"##ror":14823,"##rung":14824,"##reng":14825,"##raya":14826,"##rics":14827,"##yod":14828,"##you":14829,"##4s":14830,"##jata":14831,"##mita":14832,"##master":14833,"##dp":14834,"##bas":14835,"##band":14836,"##bandung":14837,"##zu":14838,"##fore":14839,"##рп":14840,"##ин":14841,"##та":14842,"##ть":14843,"##ек":14844,"##сстоя":14845,"##لي":14846,"##بر":14847,"##ыи":14848,"##anag":14849,"##anza":14850,"##anunot":14851,"##eulah":14852,"##arina":14853,"##arahna":14854,"##alus":14855,"##ateboard":14856,"##angl":14857,"##anginos":14858,"##inci":14859,"##akh":14860,"##aking":14861,"##akalna":14862,"##akoni":14863,"##amen":14864,
[...]
